<unk>	0
<s>	0
</s>	0
▁t	-0
▁a	-1
he	-2
in	-3
re	-4
▁the	-5
▁s	-6
on	-7
er	-8
▁w	-9
▁,	-10
▁.	-11
at	-12
en	-13
▁o	-14
▁c	-15
it	-16
an	-17
▁b	-18
ed	-19
or	-20
▁f	-21
is	-22
ing	-23
▁p	-24
es	-25
▁to	-26
ar	-27
▁an	-28
al	-29
▁in	-30
ou	-31
▁h	-32
▁m	-33
▁of	-34
as	-35
▁d	-36
▁and	-37
ic	-38
le	-39
▁th	-40
om	-41
ion	-42
▁n	-43
▁T	-44
▁"	-45
il	-46
id	-47
ent	-48
▁'	-49
▁re	-50
▁l	-51
ve	-52
st	-53
▁be	-54
▁-	-55
▁I	-56
▁g	-57
▁e	-58
ot	-59
▁S	-60
ay	-61
ut	-62
ly	-63
▁A	-64
▁on	-65
ro	-66
ac	-67
ad	-68
▁M	-69
▁for	-70
▁he	-71
▁C	-72
▁'s	-73
am	-74
im	-75
ur	-76
et	-77
ig	-78
ow	-79
▁that	-80
ol	-81
▁st	-82
▁is	-83
ver	-84
ir	-85
el	-86
▁B	-87
us	-88
▁The	-89
un	-90
ec	-91
▁wh	-92
ith	-93
ter	-94
▁it	-95
▁with	-96
ld	-97
ation	-98
ill	-99
▁was	-100
▁W	-101
▁y	-102
▁as	-103
▁we	-104
▁P	-105
▁H	-106
ce	-107
ers	-108
▁al	-109
▁at	-110
▁r	-111
os	-112
▁sa	-113
ul	-114
▁ha	-115
em	-116
▁D	-117
oun	-118
her	-119
▁con	-120
ke	-121
ch	-122
ts	-123
and	-124
ri	-125
▁R	-126
ag	-127
▁said	-128
▁F	-129
ore	-130
op	-131
est	-132
▁1	-133
th	-134
ain	-135
▁N	-136
um	-137
▁fr	-138
if	-139
▁2	-140
igh	-141
ear	-142
ate	-143
res	-144
▁L	-145
pp	-146
▁are	-147
▁com	-148
ct	-149
▁have	-150
▁G	-151
ew	-152
our	-153
▁v	-154
▁E	-155
▁from	-156
▁by	-157
▁has	-158
▁sh	-159
▁his	-160
ould	-161
ess	-162
▁pro	-163
▁ex	-164
▁not	-165
od	-166
▁J	-167
▁ch	-168
ment	-169
ort	-170
oc	-171
ity	-172
ab	-173
ust	-174
ive	-175
▁de	-176
▁le	-177
art	-178
red	-179
▁se	-180
▁su	-181
ies	-182
end	-183
ast	-184
▁O	-185
all	-186
ist	-187
ack	-188
▁:	-189
se	-190
▁un	-191
▁U	-192
up	-193
▁pl	-194
qu	-195
▁go	-196
ight	-197
ak	-198
ant	-199
gh	-200
▁ab	-201
▁j	-202
▁tr	-203
▁or	-204
ard	-205
out	-206
▁sp	-207
iv	-208
ap	-209
ome	-210
ial	-211
ud	-212
▁wor	-213
▁this	-214
▁do	-215
▁will	-216
ect	-217
▁who	-218
▁20	-219
ost	-220
▁whe	-221
ren	-222
▁they	-223
▁but	-224
ich	-225
ge	-226
▁In	-227
ok	-228
ell	-229
▁K	-230
▁out	-231
▁had	-232
▁their	-233
ice	-234
▁k	-235
ong	-236
▁you	-237
▁her	-238
▁been	-239
ia	-240
't	-241
▁n't	-242
▁year	-243
ide	-244
▁up	-245
ff	-246
ep	-247
ough	-248
▁ad	-249
▁off	-250
ound	-251
▁ne	-252
▁were	-253
▁cl	-254
ans	-255
▁Th	-256
▁)	-257
fter	-258
▁(	-259
▁int	-260
▁all	-261
▁ag	-262
ous	-263
▁It	-264
day	-265
ber	-266
▁pr	-267
ions	-268
▁res	-269
ie	-270
ally	-271
ine	-272
▁ac	-273
▁more	-274
▁which	-275
one	-276
ther	-277
ure	-278
▁she	-279
ime	-280
▁me	-281
▁St	-282
▁about	-283
▁pe	-284
der	-285
▁can	-286
ub	-287
▁ar	-288
▁comp	-289
▁after	-290
ry	-291
ays	-292
ue	-293
▁would	-294
age	-295
▁inc	-296
▁Ch	-297
▁one	-298
ame	-299
av	-300
ople	-301
▁us	-302
ake	-303
▁im	-304
ip	-305
▁An	-306
so	-307
mer	-308
ated	-309
▁He	-310
▁exp	-311
▁over	-312
ike	-313
▁cont	-314
ace	-315
very	-316
ra	-317
▁people	-318
ary	-319
ose	-320
▁per	-321
▁man	-322
▁so	-323
ign	-324
▁rep	-325
▁also	-326
ident	-327
▁its	-328
own	-329
act	-330
ks	-331
ian	-332
▁en	-333
ount	-334
▁tw	-335
ord	-336
ire	-337
ile	-338
▁dis	-339
ook	-340
ress	-341
are	-342
▁new	-343
▁than	-344
▁pol	-345
▁when	-346
▁201	-347
og	-348
ind	-349
uc	-350
ail	-351
▁part	-352
ond	-353
00	-354
▁rec	-355
ite	-356
▁fir	-357
ven	-358
▁like	-359
ations	-360
ence	-361
▁3	-362
▁sc	-363
▁Y	-364
▁there	-365
▁time	-366
ass	-367
▁bec	-368
▁work	-369
ance	-370
▁app	-371
▁We	-372
▁qu	-373
ict	-374
ree	-375
ish	-376
pt	-377
ib	-378
ark	-379
▁other	-380
▁V	-381
able	-382
lo	-383
▁Tr	-384
▁gr	-385
▁just	-386
ick	-387
▁them	-388
ump	-389
▁But	-390
use	-391
ors	-392
▁acc	-393
▁into	-394
orm	-395
ade	-396
ens	-397
▁two	-398
rit	-399
ical	-400
ove	-401
▁some	-402
ach	-403
▁first	-404
▁kn	-405
ning	-406
▁ro	-407
reat	-408
hed	-409
▁imp	-410
iz	-411
▁could	-412
ild	-413
ll	-414
▁him	-415
▁pre	-416
▁what	-417
▁get	-418
anc	-419
wn	-420
lic	-421
amp	-422
ult	-423
ase	-424
▁back	-425
▁my	-426
▁play	-427
ne	-428
ov	-429
oin	-430
▁te	-431
ang	-432
▁?	-433
▁no	-434
ates	-435
▁our	-436
▁Mr	-437
ings	-438
▁att	-439
ink	-440
▁any	-441
ek	-442
▁dec	-443
fe	-444
ents	-445
ition	-446
ru	-447
▁if	-448
▁last	-449
ction	-450
aw	-451
land	-452
ause	-453
▁ser	-454
▁again	-455
▁br	-456
▁am	-457
ious	-458
▁Un	-459
per	-460
ory	-461
itt	-462
▁inv	-463
▁sec	-464
vern	-465
▁years	-466
▁4	-467
▁Trump	-468
iss	-469
vel	-470
lud	-471
fore	-472
▁count	-473
urn	-474
resident	-475
▁Wh	-476
vers	-477
other	-478
▁5	-479
▁now	-480
old	-481
▁how	-482
man	-483
▁add	-484
▁under	-485
oll	-486
▁comm	-487
▁And	-488
ational	-489
hing	-490
ons	-491
▁bet	-492
▁co	-493
▁mon	-494
ock	-495
▁did	-496
ood	-497
▁includ	-498
▁fe	-499
▁19	-500
ob	-501
ublic	-502
▁show	-503
▁bl	-504
enc	-505
ater	-506
rop	-507
we	-508
uring	-509
▁only	-510
▁rem	-511
ft	-512
vernment	-513
ise	-514
▁act	-515
als	-516
▁New	-517
▁As	-518
▁$	-519
▁fin	-520
oup	-521
▁before	-522
▁need	-523
ied	-524
▁being	-525
form	-526
rent	-527
ath	-528
▁supp	-529
▁most	-530
illion	-531
▁call	-532
▁because	-533
ues	-534
▁ind	-535
aking	-536
▁cr	-537
▁lead	-538
▁des	-539
ince	-540
▁cons	-541
▁say	-542
rough	-543
uch	-544
▁your	-545
▁inter	-546
▁where	-547
▁look	-548
▁em	-549
▁told	-550
ily	-551
ited	-552
row	-553
ities	-554
ting	-555
ife	-556
▁week	-557
▁down	-558
▁This	-559
ating	-560
oss	-561
▁Fr	-562
ved	-563
arg	-564
▁every	-565
▁reg	-566
▁min	-567
ton	-568
les	-569
▁government	-570
ful	-571
hn	-572
li	-573
▁cent	-574
▁offic	-575
▁through	-576
▁even	-577
▁ear	-578
▁month	-579
▁fam	-580
▁want	-581
▁says	-582
ty	-583
ters	-584
▁make	-585
▁end	-586
▁made	-587
oy	-588
alth	-589
▁three	-590
elf	-591
lp	-592
▁against	-593
▁report	-594
ool	-595
▁long	-596
▁fl	-597
ward	-598
000	-599
▁rel	-600
▁6	-601
▁should	-602
▁old	-603
▁know	-604
▁She	-605
▁while	-606
ement	-607
▁many	-608
air	-609
▁help	-610
▁ev	-611
▁very	-612
▁'re	-613
▁think	-614
ouse	-615
▁ele	-616
hen	-617
ason	-618
uss	-619
▁car	-620
▁those	-621
▁then	-622
,000	-623
xt	-624
▁sur	-625
▁day	-626
▁ke	-627
ased	-628
▁Le	-629
▁ret	-630
▁own	-631
▁way	-632
und	-633
▁home	-634
oot	-635
▁well	-636
ros	-637
any	-638
▁bu	-639
ving	-640
meric	-641
▁see	-642
▁ph	-643
▁str	-644
▁going	-645
▁Americ	-646
▁ass	-647
▁wom	-648
iew	-649
son	-650
▁world	-651
au	-652
▁They	-653
▁may	-654
ert	-655
led	-656
▁win	-657
▁;	-658
▁set	-659
▁resp	-660
▁med	-661
▁ter	-662
erson	-663
▁team	-664
ual	-665
▁start	-666
▁cor	-667
cc	-668
▁take	-669
ected	-670
ures	-671
ram	-672
gg	-673
ix	-674
▁during	-675
▁7	-676
ner	-677
ote	-678
ble	-679
▁much	-680
▁invest	-681
▁still	-682
▁found	-683
ared	-684
▁child	-685
ank	-686
▁dif	-687
ral	-688
▁cap	-689
te	-690
▁sm	-691
ather	-692
hip	-693
▁ins	-694
ange	-695
▁Mar	-696
▁op	-697
▁Jo	-698
ave	-699
hes	-700
ative	-701
▁Ar	-702
▁Sp	-703
▁high	-704
gan	-705
▁Re	-706
▁country	-707
way	-708
▁good	-709
▁stud	-710
ower	-711
▁bel	-712
oth	-713
ash	-714
▁def	-715
ced	-716
▁poin	-717
▁since	-718
▁such	-719
▁Sc	-720
▁10	-721
▁around	-722
du	-723
▁run	-724
▁There	-725
read	-726
imes	-727
ween	-728
con	-729
alk	-730
ric	-731
rest	-732
ember	-733
ible	-734
▁Al	-735
▁law	-736
ina	-737
▁cour	-738
ital	-739
ives	-740
rib	-741
ork	-742
▁conf	-743
▁war	-744
ted	-745
▁US	-746
▁sign	-747
▁bus	-748
▁between	-749
▁four	-750
▁these	-751
atch	-752
ular	-753
its	-754
▁public	-755
▁Com	-756
ants	-757
ms	-758
ets	-759
orts	-760
med	-761
ists	-762
▁eff	-763
▁Eu	-764
▁prot	-765
▁including	-766
ised	-767
▁sy	-768
ording	-769
▁Sh	-770
ines	-771
ollow	-772
ax	-773
▁right	-774
ices	-775
ered	-776
ross	-777
ned	-778
▁ca	-779
ling	-780
eral	-781
ics	-782
▁'ve	-783
▁num	-784
omet	-785
ought	-786
▁big	-787
▁state	-788
iness	-789
▁hand	-790
ying	-791
▁gu	-792
ah	-793
chool	-794
▁group	-795
ale	-796
ility	-797
ean	-798
▁second	-799
az	-800
▁That	-801
▁contin	-802
▁million	-803
▁president	-804
▁support	-805
iel	-806
▁mark	-807
▁bo	-808
ves	-809
▁happ	-810
▁Europ	-811
ision	-812
▁£	-813
▁For	-814
▁ent	-815
▁life	-816
▁gen	-817
▁police	-818
▁col	-819
▁8	-820
▁sl	-821
ments	-822
▁health	-823
▁ext	-824
▁U.	-825
▁polit	-826
▁En	-827
ever	-828
ott	-829
▁put	-830
rem	-831
▁head	-832
▁conc	-833
ont	-834
▁does	-835
ific	-836
ull	-837
rat	-838
▁ann	-839
olog	-840
io	-841
ee	-842
ister	-843
▁disc	-844
▁dep	-845
ames	-846
▁camp	-847
irus	-848
▁prov	-849
▁follow	-850
▁care	-851
irect	-852
ivers	-853
aj	-854
urs	-855
▁If	-856
▁Brit	-857
conom	-858
outh	-859
uth	-860
▁next	-861
▁soc	-862
▁tri	-863
▁cle	-864
▁plan	-865
▁family	-866
▁200	-867
▁inf	-868
ys	-869
▁'m	-870
▁Is	-871
▁sub	-872
duc	-873
▁open	-874
▁stat	-875
▁trans	-876
▁cur	-877
▁%	-878
▁person	-879
S.	-880
ged	-881
▁President	-882
▁wr	-883
tern	-884
▁leg	-885
▁You	-886
▁really	-887
▁ref	-888
min	-889
▁det	-890
▁rest	-891
att	-892
ism	-893
orn	-894
▁U.S.	-895
aim	-896
ody	-897
▁left	-898
▁official	-899
ier	-900
bers	-901
▁At	-902
▁iss	-903
get	-904
▁come	-905
ene	-906
▁On	-907
▁another	-908
ret	-909
▁far	-910
ern	-911
▁9	-912
▁game	-913
ute	-914
▁Rep	-915
riend	-916
▁too	-917
▁econom	-918
▁both	-919
▁feel	-920
▁loc	-921
▁same	-922
▁ask	-923
▁belie	-924
ution	-925
▁adv	-926
▁dem	-927
▁real	-928
ness	-929
▁former	-930
line	-931
▁season	-932
ually	-933
osed	-934
▁great	-935
ug	-936
▁Aust	-937
▁pass	-938
ger	-939
▁opp	-940
lin	-941
▁business	-942
▁Pr	-943
▁company	-944
▁somet	-945
▁got	-946
-y	-947
▁school	-948
▁deal	-949
used	-950
▁ob	-951
▁called	-952
▁near	-953
▁Br	-954
▁John	-955
akes	-956
▁recent	-957
▁fil	-958
ights	-959
▁best	-960
▁find	-961
▁che	-962
ency	-963
orth	-964
▁Ind	-965
▁direct	-966
▁spec	-967
▁inst	-968
▁diffe	-969
▁mem	-970
▁spe	-971
▁post	-972
▁women	-973
▁del	-974
pr	-975
▁prev	-976
▁place	-977
▁How	-978
ained	-979
▁serv	-980
▁Z	-981
▁incre	-982
▁claim	-983
-year	-984
ration	-985
ages	-986
▁..	-987
▁air	-988
▁--	-989
▁use	-990
ases	-991
▁dri	-992
velop	-993
▁ris	-994
▁United	-995
▁exper	-996
▁Sun	-997
▁attack	-998
▁pri	-999
cent	-1000
▁top	-1001
▁added	-1002
▁star	-1003
▁days	-1004
▁UK	-1005
▁Mon	-1006
aff	-1007
▁never	-1008
augh	-1009
ik	-1010
▁...	-1011
▁children	-1012
iday	-1013
self	-1014
▁pay	-1015
ury	-1016
stem	-1017
▁five	-1018
uck	-1019
▁mil	-1020
ird	-1021
▁used	-1022
▁De	-1023
▁night	-1024
▁according	-1025
▁Russ	-1026
▁lot	-1027
aign	-1028
▁Austral	-1029
loy	-1030
▁few	-1031
▁pres	-1032
ney	-1033
▁commun	-1034
▁beh	-1035
▁number	-1036
▁prog	-1037
▁hop	-1038
▁bre	-1039
▁pos	-1040
▁fac	-1041
atur	-1042
ially	-1043
▁death	-1044
▁Mc	-1045
iet	-1046
alf	-1047
ries	-1048
▁vis	-1049
▁rele	-1050
ient	-1051
ces	-1052
ains	-1053
arge	-1054
ield	-1055
ands	-1056
ience	-1057
osp	-1058
▁Comm	-1059
▁So	-1060
▁sim	-1061
ired	-1062
▁Be	-1063
▁Dem	-1064
▁mov	-1065
▁dist	-1066
oney	-1067
iving	-1068
▁allow	-1069
▁par	-1070
▁pa	-1071
▁campaign	-1072
▁Mr.	-1073
ured	-1074
▁May	-1075
view	-1076
▁Chr	-1077
▁hard	-1078
▁test	-1079
app	-1080
▁kill	-1081
▁keep	-1082
▁turn	-1083
com	-1084
ecut	-1085
erv	-1086
▁here	-1087
side	-1088
▁months	-1089
▁12	-1090
▁cre	-1091
ocrat	-1092
▁Q	-1093
ajor	-1094
▁When	-1095
ention	-1096
nes	-1097
ittle	-1098
ley	-1099
▁move	-1100
ished	-1101
ense	-1102
ission	-1103
▁youn	-1104
▁system	-1105
▁Bl	-1106
ief	-1107
▁Min	-1108
▁poss	-1109
ten	-1110
▁develop	-1111
esp	-1112
cept	-1113
ex	-1114
thing	-1115
▁away	-1116
▁prof	-1117
ways	-1118
▁percent	-1119
▁friend	-1120
▁requ	-1121
▁job	-1122
▁took	-1123
▁news	-1124
▁came	-1125
▁prom	-1126
▁pop	-1127
uthor	-1128
ject	-1129
▁meet	-1130
ins	-1131
▁reported	-1132
▁Eng	-1133
▁!	-1134
▁grow	-1135
▁might	-1136
▁import	-1137
▁China	-1138
iver	-1139
▁later	-1140
▁quest	-1141
▁social	-1142
▁inte	-1143
▁without	-1144
▁read	-1145
cess	-1146
▁Im	-1147
▁15	-1148
▁investig	-1149
▁something	-1150
▁Car	-1151
▁Ph	-1152
▁past	-1153
▁announ	-1154
▁across	-1155
▁case	-1156
rap	-1157
▁aff	-1158
aring	-1159
▁contro	-1160
▁six	-1161
▁American	-1162
▁pat	-1163
ately	-1164
by	-1165
▁unt	-1166
▁av	-1167
▁power	-1168
▁vot	-1169
gy	-1170
▁mod	-1171
▁Ad	-1172
▁House	-1173
ready	-1174
els	-1175
▁hour	-1176
ering	-1177
aken	-1178
▁met	-1179
▁manag	-1180
▁fact	-1181
ically	-1182
▁major	-1183
▁Am	-1184
▁seen	-1185
▁expl	-1186
▁emp	-1187
ued	-1188
▁less	-1189
ague	-1190
▁fore	-1191
▁return	-1192
▁/	-1193
▁partic	-1194
earch	-1195
▁things	-1196
less	-1197
▁already	-1198
▁record	-1199
▁Sy	-1200
20	-1201
▁market	-1202
lect	-1203
▁city	-1204
br	-1205
▁little	-1206
▁hum	-1207
iversity	-1208
▁different	-1209
▁polic	-1210
▁better	-1211
▁elect	-1212
▁ed	-1213
▁intern	-1214
▁bro	-1215
▁mar	-1216
ects	-1217
▁Democrat	-1218
▁oper	-1219
▁each	-1220
pl	-1221
▁fund	-1222
▁Pol	-1223
iven	-1224
▁build	-1225
▁clear	-1226
ertain	-1227
▁stand	-1228
▁party	-1229
urity	-1230
▁South	-1231
avirus	-1232
▁level	-1233
ck	-1234
▁One	-1235
iting	-1236
▁11	-1237
onavirus	-1238
ending	-1239
▁let	-1240
▁change	-1241
▁Go	-1242
▁sk	-1243
▁media	-1244
▁comple	-1245
▁Tw	-1246
▁until	-1247
▁Gr	-1248
ald	-1249
▁York	-1250
▁foot	-1251
▁half	-1252
ster	-1253
ided	-1254
▁press	-1255
▁must	-1256
▁seem	-1257
▁rece	-1258
ham	-1259
▁cost	-1260
▁working	-1261
ondon	-1262
aining	-1263
▁political	-1264
▁appro	-1265
ament	-1266
▁young	-1267
ars	-1268
▁current	-1269
▁deb	-1270
▁always	-1271
ened	-1272
▁vict	-1273
▁London	-1274
▁sw	-1275
▁Friday	-1276
▁early	-1277
▁making	-1278
ched	-1279
rence	-1280
▁went	-1281
▁money	-1282
eng	-1283
▁est	-1284
▁art	-1285
▁men	-1286
▁proble	-1287
▁won	-1288
▁stop	-1289
▁hist	-1290
▁crit	-1291
ians	-1292
ior	-1293
ane	-1294
▁Monday	-1295
▁Ro	-1296
ison	-1297
▁What	-1298
be	-1299
▁author	-1300
▁having	-1301
▁ve	-1302
▁tec	-1303
▁Cl	-1304
leg	-1305
▁No	-1306
▁inform	-1307
reen	-1308
▁main	-1309
▁small	-1310
▁European	-1311
▁Af	-1312
▁sit	-1313
ising	-1314
co	-1315
ived	-1316
▁court	-1317
▁free	-1318
iol	-1319
▁Se	-1320
artment	-1321
▁able	-1322
▁whether	-1323
▁chang	-1324
ional	-1325
▁national	-1326
▁el	-1327
▁coronavirus	-1328
▁mat	-1329
▁Har	-1330
▁interest	-1331
▁point	-1332
▁All	-1333
▁sing	-1334
▁mom	-1335
▁Co	-1336
▁Tues	-1337
▁dr	-1338
ract	-1339
ball	-1340
ests	-1341
▁face	-1342
▁la	-1343
▁Tuesday	-1344
▁close	-1345
ann	-1346
▁ce	-1347
enn	-1348
▁local	-1349
▁Par	-1350
▁ra	-1351
ably	-1352
ony	-1353
ph	-1354
ended	-1355
▁least	-1356
▁statement	-1357
▁sex	-1358
▁18	-1359
▁30	-1360
▁cond	-1361
-1	-1362
▁important	-1363
ones	-1364
▁Sunday	-1365
pped	-1366
▁times	-1367
ales	-1368
▁Republic	-1369
iously	-1370
▁election	-1371
▁Bar	-1372
▁Wed	-1373
▁though	-1374
ized	-1375
▁saying	-1376
▁taken	-1377
▁capt	-1378
▁mid	-1379
irl	-1380
▁cut	-1381
▁tax	-1382
▁inj	-1383
ata	-1384
▁members	-1385
▁]	-1386
idence	-1387
▁perform	-1388
▁based	-1389
BC	-1390
▁sent	-1391
▁third	-1392
lier	-1393
▁become	-1394
▁[	-1395
▁hit	-1396
▁'ll	-1397
port	-1398
ection	-1399
nesday	-1400
▁Wednesday	-1401
▁vide	-1402
▁Ir	-1403
▁Dav	-1404
une	-1405
▁tell	-1406
▁char	-1407
▁along	-1408
▁Thurs	-1409
▁final	-1410
▁side	-1411
▁Thursday	-1412
▁among	-1413
eks	-1414
▁today	-1415
▁Christ	-1416
ards	-1417
▁miss	-1418
▁talk	-1419
▁fut	-1420
▁organ	-1421
▁asked	-1422
▁produc	-1423
rew	-1424
▁view	-1425
▁house	-1426
▁With	-1427
▁fur	-1428
▁short	-1429
▁program	-1430
acy	-1431
▁list	-1432
lob	-1433
▁ant	-1434
ots	-1435
▁North	-1436
▁Wor	-1437
▁form	-1438
▁ago	-1439
▁join	-1440
▁full	-1441
▁States	-1442
▁appear	-1443
▁likely	-1444
▁weeks	-1445
▁po	-1446
▁invol	-1447
usp	-1448
▁officials	-1449
▁sugg	-1450
itive	-1451
▁hold	-1452
ential	-1453
▁fail	-1454
▁Pro	-1455
▁give	-1456
ances	-1457
▁large	-1458
▁book	-1459
ospital	-1460
▁eas	-1461
▁pot	-1462
yp	-1463
▁why	-1464
▁coun	-1465
▁players	-1466
▁milit	-1467
▁produ	-1468
▁Ger	-1469
▁cases	-1470
elt	-1471
▁known	-1472
ator	-1473
▁Ms	-1474
▁quar	-1475
▁Inst	-1476
▁After	-1477
▁countries	-1478
▁ever	-1479
▁agre	-1480
alif	-1481
▁event	-1482
uge	-1483
▁love	-1484
▁decision	-1485
▁club	-1486
▁0	-1487
▁given	-1488
▁process	-1489
▁rul	-1490
inal	-1491
▁strong	-1492
▁viol	-1493
▁ide	-1494
▁fight	-1495
utes	-1496
▁writ	-1497
▁enough	-1498
▁Or	-1499
▁threat	-1500
▁risk	-1501
ider	-1502
▁sever	-1503
▁stre	-1504
▁indust	-1505
▁woman	-1506
ats	-1507
▁sum	-1508
ush	-1509
▁reve	-1510
▁'d	-1511
ccess	-1512
▁Satur	-1513
▁British	-1514
iam	-1515
▁future	-1516
fic	-1517
▁Saturday	-1518
▁Con	-1519
▁susp	-1520
ology	-1521
here	-1522
▁taking	-1523
▁thought	-1524
gether	-1525
▁together	-1526
▁sol	-1527
▁food	-1528
▁doing	-1529
▁line	-1530
bs	-1531
most	-1532
▁wrote	-1533
rict	-1534
▁West	-1535
emic	-1536
▁prop	-1537
▁exc	-1538
▁water	-1539
down	-1540
▁14	-1541
▁tra	-1542
▁fire	-1543
ortun	-1544
▁Sen	-1545
hers	-1546
ashing	-1547
onald	-1548
ried	-1549
▁World	-1550
▁underst	-1551
▁Ed	-1552
▁EU	-1553
▁class	-1554
head	-1555
▁thing	-1556
▁2016	-1557
▁Dr	-1558
▁expected	-1559
▁following	-1560
gr	-1561
▁chall	-1562
▁25	-1563
▁Ge	-1564
▁leaders	-1565
▁techn	-1566
wards	-1567
▁fall	-1568
▁done	-1569
▁Col	-1570
▁phot	-1571
▁several	-1572
aly	-1573
ror	-1574
▁However	-1575
▁ball	-1576
▁comes	-1577
gin	-1578
ective	-1579
ead	-1580
▁success	-1581
ides	-1582
▁City	-1583
▁equ	-1584
▁13	-1585
▁England	-1586
ium	-1587
▁spok	-1588
itions	-1589
▁often	-1590
▁Ab	-1591
rown	-1592
▁National	-1593
ored	-1594
ature	-1595
▁priv	-1596
▁security	-1597
▁live	-1598
redit	-1599
▁hig	-1600
▁employ	-1601
ai	-1602
▁mor	-1603
crib	-1604
▁black	-1605
▁State	-1606
▁Pl	-1607
sel	-1608
▁looking	-1609
eal	-1610
▁due	-1611
▁billion	-1612
▁low	-1613
▁To	-1614
▁stay	-1615
▁ban	-1616
▁once	-1617
ality	-1618
hel	-1619
▁behind	-1620
▁cust	-1621
▁Bre	-1622
▁treat	-1623
▁const	-1624
minist	-1625
▁stru	-1626
▁points	-1627
ize	-1628
▁University	-1629
▁staff	-1630
▁film	-1631
▁yet	-1632
▁Cent	-1633
▁Will	-1634
▁mus	-1635
rug	-1636
▁March	-1637
▁area	-1638
▁hours	-1639
▁getting	-1640
ds	-1641
-19	-1642
▁News	-1643
▁compet	-1644
imate	-1645
lobal	-1646
▁order	-1647
▁His	-1648
▁coup	-1649
▁Sec	-1650
▁information	-1651
▁charg	-1652
▁16	-1653
▁mean	-1654
▁trying	-1655
▁Jan	-1656
anies	-1657
▁started	-1658
aps	-1659
▁My	-1660
▁Australia	-1661
ients	-1662
▁series	-1663
▁video	-1664
ama	-1665
▁mother	-1666
oci	-1667
▁human	-1668
▁data	-1669
raw	-1670
▁break	-1671
▁val	-1672
itted	-1673
▁others	-1674
▁lo	-1675
ept	-1676
▁further	-1677
cil	-1678
▁announced	-1679
▁trad	-1680
▁While	-1681
▁financ	-1682
▁activ	-1683
▁opt	-1684
▁lost	-1685
ults	-1686
ring	-1687
▁Can	-1688
▁bit	-1689
▁design	-1690
▁result	-1691
▁Man	-1692
▁meas	-1693
uly	-1694
▁emer	-1695
arm	-1696
ories	-1697
▁foc	-1698
▁Pe	-1699
▁policy	-1700
▁50	-1701
▁hom	-1702
let	-1703
▁believe	-1704
▁stri	-1705
▁question	-1706
▁led	-1707
▁White	-1708
▁possible	-1709
ron	-1710
▁kind	-1711
▁gener	-1712
ederal	-1713
▁laun	-1714
emp	-1715
▁coming	-1716
▁Ass	-1717
▁outside	-1718
▁particular	-1719
▁companies	-1720
▁continue	-1721
▁almost	-1722
▁room	-1723
▁Just	-1724
▁pub	-1725
ograp	-1726
▁Dep	-1727
▁front	-1728
▁within	-1729
▁100	-1730
▁chief	-1731
▁hope	-1732
▁Dec	-1733
ified	-1734
▁gl	-1735
ech	-1736
▁using	-1737
▁died	-1738
hern	-1739
▁Afric	-1740
▁body	-1741
▁vote	-1742
▁neg	-1743
▁17	-1744
▁Cor	-1745
▁control	-1746
▁late	-1747
.5	-1748
▁relations	-1749
▁bring	-1750
▁bas	-1751
oke	-1752
▁story	-1753
▁earlier	-1754
▁games	-1755
▁German	-1756
ators	-1757
▁199	-1758
ening	-1759
▁girl	-1760
▁moment	-1761
ecutive	-1762
▁suff	-1763
▁2015	-1764
▁community	-1765
amed	-1766
▁dou	-1767
▁mess	-1768
▁study	-1769
▁impro	-1770
▁wanted	-1771
▁Europe	-1772
▁certain	-1773
▁proper	-1774
▁confir	-1775
▁eng	-1776
oon	-1777
▁imm	-1778
▁sure	-1779
▁host	-1780
▁special	-1781
▁Lab	-1782
▁office	-1783
▁Ex	-1784
sh	-1785
▁occ	-1786
▁lear	-1787
▁reveal	-1788
▁hospital	-1789
▁War	-1790
▁cand	-1791
▁Police	-1792
aster	-1793
ival	-1794
iron	-1795
▁2020	-1796
ung	-1797
▁held	-1798
▁Gu	-1799
▁director	-1800
▁suggest	-1801
aged	-1802
▁Minister	-1803
▁wa	-1804
▁Sw	-1805
▁bene	-1806
lish	-1807
me	-1808
▁lim	-1809
▁fig	-1810
▁history	-1811
▁Some	-1812
▁role	-1813
empt	-1814
▁canc	-1815
▁Washing	-1816
▁course	-1817
▁played	-1818
▁Washington	-1819
▁ur	-1820
▁colle	-1821
▁international	-1822
▁land	-1823
▁ident	-1824
▁military	-1825
▁Fl	-1826
▁dead	-1827
ference	-1828
resent	-1829
▁forward	-1830
▁Ang	-1831
eb	-1832
omin	-1833
▁administ	-1834
▁economic	-1835
▁drug	-1836
▁David	-1837
▁dev	-1838
▁arri	-1839
▁America	-1840
▁ap	-1841
ler	-1842
iod	-1843
verage	-1844
▁describ	-1845
lished	-1846
▁fun	-1847
▁services	-1848
uation	-1849
▁leader	-1850
▁2017	-1851
▁service	-1852
▁travel	-1853
ners	-1854
ids	-1855
▁sn	-1856
▁walk	-1857
lood	-1858
▁cris	-1859
▁killed	-1860
itter	-1861
ape	-1862
▁pand	-1863
▁arrest	-1864
▁Off	-1865
▁Britain	-1866
▁targ	-1867
▁name	-1868
▁pros	-1869
ulation	-1870
▁Ob	-1871
▁watch	-1872
▁2018	-1873
ox	-1874
▁issue	-1875
▁bar	-1876
aur	-1877
▁tot	-1878
▁friends	-1879
▁quick	-1880
ilar	-1881
▁minutes	-1882
▁saw	-1883
▁step	-1884
▁concern	-1885
▁sen	-1886
ences	-1887
▁custom	-1888
▁arg	-1889
▁interview	-1890
▁workers	-1891
▁June	-1892
▁Mich	-1893
ficult	-1894
▁2019	-1895
▁heart	-1896
▁Ne	-1897
▁jud	-1898
▁white	-1899
▁fav	-1900
▁Image	-1901
▁online	-1902
▁pict	-1903
urch	-1904
▁visit	-1905
asing	-1906
selves	-1907
ades	-1908
▁global	-1909
▁rac	-1910
▁difficult	-1911
▁infl	-1912
▁adm	-1913
rents	-1914
ressed	-1915
▁access	-1916
ID	-1917
ounds	-1918
▁Russia	-1919
▁means	-1920
▁boy	-1921
▁quarter	-1922
rie	-1923
▁hot	-1924
▁term	-1925
▁share	-1926
▁Scott	-1927
que	-1928
my	-1929
▁Apr	-1930
▁age	-1931
▁shows	-1932
▁cele	-1933
▁Do	-1934
▁League	-1935
iber	-1936
ming	-1937
▁pandemic	-1938
▁Geor	-1939
▁financial	-1940
▁Kore	-1941
aud	-1942
▁bill	-1943
iff	-1944
book	-1945
ches	-1946
▁meeting	-1947
▁began	-1948
▁Scot	-1949
itional	-1950
par	-1951
▁candid	-1952
▁leave	-1953
▁CO	-1954
▁Donald	-1955
▁April	-1956
▁cho	-1957
▁seven	-1958
though	-1959
ensive	-1960
uff	-1961
▁bor	-1962
ims	-1963
▁action	-1964
▁released	-1965
reme	-1966
▁lat	-1967
ither	-1968
▁Oct	-1969
▁industry	-1970
▁enc	-1971
▁Cour	-1972
▁makes	-1973
▁try	-1974
▁24	-1975
▁aw	-1976
iety	-1977
▁plans	-1978
hic	-1979
liament	-1980
▁trade	-1981
▁fell	-1982
ivid	-1983
▁period	-1984
▁present	-1985
▁net	-1986
▁pain	-1987
▁opportun	-1988
▁ey	-1989
uary	-1990
▁Now	-1991
▁ens	-1992
▁rights	-1993
▁Sept	-1994
▁morning	-1995
amer	-1996
▁super	-1997
▁Brex	-1998
▁Calif	-1999
aul	-2000
dle	-2001
▁discuss	-2002
▁himself	-2003
aper	-2004
▁understand	-2005
▁famil	-2006
aving	-2007
▁couple	-2008
▁conv	-2009
▁economy	-2010
ourn	-2011
gency	-2012
rup	-2013
▁father	-2014
▁cop	-2015
retary	-2016
▁ahead	-2017
▁non	-2018
den	-2019
▁Med	-2020
▁expect	-2021
▁states	-2022
▁ren	-2023
▁simp	-2024
▁son	-2025
aut	-2026
▁research	-2027
▁became	-2028
▁desp	-2029
aughter	-2030
aker	-2031
▁plac	-2032
▁bad	-2033
osing	-2034
▁match	-2035
▁profess	-2036
▁self	-2037
▁twe	-2038
▁signific	-2039
▁light	-2040
▁virus	-2041
▁Her	-2042
▁Iran	-2043
▁lives	-2044
lex	-2045
▁avail	-2046
0s	-2047
▁Res	-2048
▁El	-2049
▁TV	-2050
▁issues	-2051
for	-2052
▁shot	-2053
▁playing	-2054
▁key	-2055
▁fans	-2056
▁Brexit	-2057
▁someone	-2058
▁Johnson	-2059
▁problem	-2060
itting	-2061
ift	-2062
ument	-2063
▁tal	-2064
▁lock	-2065
▁crisis	-2066
▁Em	-2067
▁Sm	-2068
atic	-2069
▁red	-2070
▁env	-2071
ael	-2072
▁typ	-2073
▁21	-2074
▁den	-2075
▁nearly	-2076
ittee	-2077
▁Court	-2078
▁Part	-2079
fer	-2080
raft	-2081
▁dam	-2082
▁eight	-2083
▁goal	-2084
▁mass	-2085
▁account	-2086
▁July	-2087
▁experience	-2088
▁Scotland	-2089
▁loss	-2090
▁respons	-2091
▁deep	-2092
▁Face	-2093
▁recently	-2094
▁pick	-2095
irc	-2096
▁road	-2097
▁Ste	-2098
▁repl	-2099
orters	-2100
▁Syri	-2101
iden	-2102
▁Department	-2103
▁benef	-2104
▁investigation	-2105
▁impact	-2106
▁init	-2107
▁needed	-2108
▁wife	-2109
ails	-2110
▁larg	-2111
ability	-2112
ees	-2113
▁sour	-2114
inc	-2115
▁abs	-2116
▁nation	-2117
▁minister	-2118
▁students	-2119
yn	-2120
▁actually	-2121
itch	-2122
▁Me	-2123
▁Mor	-2124
▁rather	-2125
▁anything	-2126
▁fre	-2127
▁everything	-2128
inese	-2129
▁round	-2130
▁January	-2131
overed	-2132
ask	-2133
ached	-2134
▁Mark	-2135
▁sell	-2136
▁wind	-2137
▁single	-2138
ibility	-2139
▁needs	-2140
epend	-2141
▁everyone	-2142
▁legal	-2143
▁40	-2144
▁Californ	-2145
▁evidence	-2146
ery	-2147
▁Chinese	-2148
▁whose	-2149
bour	-2150
▁er	-2151
▁significant	-2152
▁parents	-2153
go	-2154
▁Twitter	-2155
▁federal	-2156
▁Aug	-2157
▁pract	-2158
af	-2159
ural	-2160
▁relationship	-2161
▁prob	-2162
uel	-2163
▁complete	-2164
▁music	-2165
▁bank	-2166
▁career	-2167
▁shop	-2168
▁soon	-2169
ironment	-2170
ender	-2171
ety	-2172
iding	-2173
rench	-2174
▁aut	-2175
ined	-2176
▁running	-2177
▁living	-2178
medi	-2179
▁respond	-2180
▁ple	-2181
▁despite	-2182
▁shoot	-2183
onse	-2184
eted	-2185
ream	-2186
idents	-2187
▁include	-2188
▁comment	-2189
▁esp	-2190
▁general	-2191
▁Pet	-2192
▁reports	-2193
gest	-2194
▁felt	-2195
▁available	-2196
▁Acc	-2197
▁nothing	-2198
ination	-2199
▁&	-2200
attle	-2201
▁football	-2202
▁coll	-2203
anger	-2204
▁California	-2205
▁Ke	-2206
oud	-2207
igr	-2208
▁Facebook	-2209
▁safe	-2210
▁demand	-2211
▁strugg	-2212
▁buy	-2213
▁2014	-2214
▁building	-2215
int	-2216
umb	-2217
▁provide	-2218
▁position	-2219
▁Te	-2220
▁rate	-2221
▁cult	-2222
▁Cup	-2223
▁race	-2224
▁represent	-2225
▁Sup	-2226
▁Russian	-2227
▁X	-2228
▁ground	-2229
▁administration	-2230
▁received	-2231
▁private	-2232
▁similar	-2233
▁Not	-2234
▁increase	-2235
▁nec	-2236
▁reason	-2237
▁alle	-2238
▁track	-2239
▁areas	-2240
▁doc	-2241
lear	-2242
ruct	-2243
▁executive	-2244
ecially	-2245
▁begin	-2246
ivil	-2247
▁response	-2248
▁however	-2249
▁growth	-2250
fully	-2251
▁summer	-2252
akers	-2253
▁Nove	-2254
enal	-2255
▁oil	-2256
▁These	-2257
▁field	-2258
▁capital	-2259
mber	-2260
▁huge	-2261
▁prep	-2262
▁vac	-2263
▁var	-2264
▁ste	-2265
▁potential	-2266
▁player	-2267
▁spokes	-2268
▁Black	-2269
duct	-2270
▁price	-2271
▁By	-2272
▁December	-2273
▁patients	-2274
VID	-2275
▁creat	-2276
▁lab	-2277
ampions	-2278
▁Cong	-2279
▁Angel	-2280
▁fear	-2281
▁terror	-2282
oms	-2283
▁critic	-2284
over	-2285
▁Biden	-2286
sw	-2287
▁remain	-2288
ober	-2289
.3	-2290
aily	-2291
ournal	-2292
▁compl	-2293
▁mind	-2294
▁squ	-2295
▁November	-2296
ares	-2297
▁ener	-2298
▁foreign	-2299
▁mis	-2300
▁Char	-2301
▁French	-2302
▁showed	-2303
▁COVID	-2304
ule	-2305
▁involved	-2306
▁gave	-2307
ises	-2308
lam	-2309
▁sold	-2310
▁Hol	-2311
▁z	-2312
▁latest	-2313
▁situation	-2314
▁Get	-2315
▁September	-2316
ford	-2317
▁mult	-2318
▁deter	-2319
▁William	-2320
▁review	-2321
▁tour	-2322
rend	-2323
ana	-2324
▁orig	-2325
ample	-2326
▁seek	-2327
▁Park	-2328
▁protect	-2329
reet	-2330
▁whole	-2331
ging	-2332
▁October	-2333
▁immedi	-2334
ipp	-2335
ently	-2336
▁consum	-2337
▁Per	-2338
▁Count	-2339
▁Commission	-2340
▁ord	-2341
▁22	-2342
back	-2343
▁thous	-2344
▁themselves	-2345
▁town	-2346
work	-2347
body	-2348
oring	-2349
yle	-2350
▁positive	-2351
▁div	-2352
▁especially	-2353
▁idea	-2354
cast	-2355
▁wo	-2356
.com	-2357
▁biggest	-2358
ogn	-2359
▁James	-2360
▁worked	-2361
▁Labour	-2362
▁India	-2363
▁focus	-2364
▁France	-2365
▁Republican	-2366
▁board	-2367
▁longer	-2368
▁chance	-2369
▁results	-2370
▁personal	-2371
itiz	-2372
▁mot	-2373
▁individ	-2374
▁tit	-2375
▁App	-2376
▁groups	-2377
▁broad	-2378
▁comb	-2379
▁total	-2380
▁charac	-2381
▁offer	-2382
▁Tur	-2383
▁space	-2384
▁Pal	-2385
▁matter	-2386
▁revealed	-2387
▁Mus	-2388
▁BBC	-2389
yl	-2390
bert	-2391
▁turned	-2392
▁poll	-2393
▁dise	-2394
band	-2395
eared	-2396
▁attempt	-2397
▁coach	-2398
▁spread	-2399
▁educ	-2400
▁store	-2401
atives	-2402
▁ep	-2403
▁Mo	-2404
▁Feb	-2405
▁authorities	-2406
▁higher	-2407
joy	-2408
ization	-2409
▁mur	-2410
ault	-2411
▁daughter	-2412
▁medical	-2413
▁claims	-2414
▁hol	-2415
▁Obama	-2416
▁officers	-2417
▁pressure	-2418
ece	-2419
▁saf	-2420
▁member	-2421
chers	-2422
▁conn	-2423
▁inside	-2424
▁spent	-2425
▁unc	-2426
▁Union	-2427
▁Australian	-2428
ico	-2429
▁ill	-2430
▁Michael	-2431
key	-2432
▁anti	-2433
▁phone	-2434
▁dest	-2435
esc	-2436
apan	-2437
▁Democratic	-2438
irt	-2439
▁wrong	-2440
▁confirmed	-2441
▁alleged	-2442
▁heard	-2443
▁reach	-2444
▁198	-2445
▁Clin	-2446
▁Health	-2447
▁weekend	-2448
yc	-2449
ograph	-2450
▁23	-2451
ky	-2452
▁feat	-2453
▁gun	-2454
▁force	-2455
▁celebr	-2456
▁Japan	-2457
▁happened	-2458
oved	-2459
▁Coun	-2460
▁quite	-2461
▁circ	-2462
▁hon	-2463
reg	-2464
▁allowed	-2465
▁energy	-2466
▁pack	-2467
▁norm	-2468
▁stage	-2469
▁heav	-2470
aging	-2471
▁leading	-2472
omm	-2473
▁August	-2474
hest	-2475
▁strate	-2476
▁bur	-2477
yr	-2478
ilt	-2479
▁enjoy	-2480
▁rules	-2481
▁Democrats	-2482
▁accept	-2483
▁vol	-2484
rupt	-2485
▁insp	-2486
▁Intern	-2487
.1	-2488
uit	-2489
▁surpr	-2490
▁serious	-2491
▁More	-2492
▁project	-2493
▁doct	-2494
▁environment	-2495
ify	-2496
idge	-2497
▁bed	-2498
▁spot	-2499
▁development	-2500
▁People	-2501
wood	-2502
▁currently	-2503
▁remains	-2504
▁published	-2505
agn	-2506
▁pred	-2507
▁manager	-2508
▁anyone	-2509
rael	-2510
▁bab	-2511
▁brought	-2512
▁COVID-19	-2513
▁safety	-2514
anche	-2515
▁probably	-2516
▁wants	-2517
bur	-2518
▁Que	-2519
▁Ear	-2520
hold	-2521
▁tre	-2522
▁Paul	-2523
▁Pat	-2524
.m	-2525
▁Israel	-2526
chie	-2527
▁paid	-2528
▁Gen	-2529
lement	-2530
▁entire	-2531
▁challen	-2532
▁Congress	-2533
▁contrib	-2534
ode	-2535
oti	-2536
▁San	-2537
.2	-2538
omb	-2539
ows	-2540
▁sect	-2541
▁firm	-2542
ills	-2543
▁region	-2544
▁MP	-2545
▁caption	-2546
▁families	-2547
▁prison	-2548
▁example	-2549
▁According	-2550
▁senior	-2551
▁popular	-2552
▁sym	-2553
▁laws	-2554
uk	-2555
▁aud	-2556
▁trip	-2557
▁di	-2558
ij	-2559
▁neigh	-2560
▁Day	-2561
▁hus	-2562
▁changes	-2563
▁contract	-2564
▁Americans	-2565
▁avo	-2566
▁training	-2567
▁wide	-2568
unt	-2569
▁Air	-2570
▁dro	-2571
irth	-2572
isl	-2573
▁accused	-2574
▁problems	-2575
mas	-2576
▁Street	-2577
▁anim	-2578
▁phys	-2579
▁Last	-2580
▁vehic	-2581
▁Gl	-2582
undred	-2583
.m.	-2584
▁border	-2585
uters	-2586
ude	-2587
▁worth	-2588
▁contact	-2589
▁Net	-2590
▁civil	-2591
▁tele	-2592
▁chair	-2593
▁tried	-2594
▁Mel	-2595
▁independ	-2596
▁looked	-2597
▁rad	-2598
▁Mad	-2599
osition	-2600
▁release	-2601
▁particularly	-2602
▁continued	-2603
hood	-2604
▁East	-2605
▁described	-2606
ray	-2607
▁consider	-2608
▁lack	-2609
▁reb	-2610
ends	-2611
han	-2612
▁thousands	-2613
▁average	-2614
▁jobs	-2615
ett	-2616
ino	-2617
▁port	-2618
raz	-2619
fect	-2620
erc	-2621
oint	-2622
▁Our	-2623
▁Government	-2624
▁claimed	-2625
▁officer	-2626
come	-2627
▁sle	-2628
ental	-2629
ires	-2630
▁pret	-2631
ese	-2632
▁Sch	-2633
▁disp	-2634
▁terms	-2635
▁technology	-2636
▁quickly	-2637
▁either	-2638
▁recogn	-2639
▁hor	-2640
▁performance	-2641
▁measures	-2642
itness	-2643
atory	-2644
▁husband	-2645
rain	-2646
▁previous	-2647
.4	-2648
▁address	-2649
▁assist	-2650
▁Clinton	-2651
▁Even	-2652
▁climate	-2653
▁sense	-2654
istic	-2655
▁27	-2656
▁violence	-2657
▁Dan	-2658
▁cover	-2659
▁Prime	-2660
lus	-2661
ma	-2662
▁voters	-2663
ada	-2664
▁surv	-2665
▁hands	-2666
▁winning	-2667
▁cross	-2668
▁citiz	-2669
▁Cr	-2670
val	-2671
▁extra	-2672
▁Je	-2673
▁Council	-2674
▁helped	-2675
▁seems	-2676
▁prevent	-2677
▁sal	-2678
▁common	-2679
ession	-2680
uted	-2681
▁incident	-2682
bre	-2683
ilities	-2684
▁grand	-2685
ges	-2686
▁increasing	-2687
▁Cons	-2688
▁Phil	-2689
▁Jack	-2690
▁takes	-2691
▁block	-2692
▁Act	-2693
itution	-2694
▁opportunity	-2695
▁Christmas	-2696
▁questions	-2697
oman	-2698
bed	-2699
▁doub	-2700
▁approach	-2701
▁Alex	-2702
▁Senate	-2703
iant	-2704
▁cal	-2705
▁conditions	-2706
▁lower	-2707
▁sales	-2708
▁26	-2709
▁slow	-2710
earchers	-2711
ips	-2712
▁Cov	-2713
cement	-2714
▁appeared	-2715
isc	-2716
eth	-2717
sc	-2718
ruary	-2719
▁crow	-2720
▁decided	-2721
▁negoti	-2722
▁February	-2723
▁rev	-2724
oming	-2725
ams	-2726
ze	-2727
bor	-2728
▁treatment	-2729
orthern	-2730
▁achie	-2731
▁growing	-2732
ole	-2733
▁carry	-2734
ressive	-2735
ding	-2736
lying	-2737
▁agreement	-2738
▁Times	-2739
▁28	-2740
▁danger	-2741
▁nine	-2742
▁shared	-2743
▁knew	-2744
▁efforts	-2745
▁King	-2746
ara	-2747
onst	-2748
▁estab	-2749
▁McC	-2750
▁disapp	-2751
▁George	-2752
▁forced	-2753
▁hous	-2754
▁site	-2755
▁Bo	-2756
▁restrict	-2757
▁cause	-2758
omp	-2759
▁happy	-2760
▁ensure	-2761
▁vers	-2762
▁concerns	-2763
▁Los	-2764
▁events	-2765
▁improve	-2766
▁fem	-2767
▁works	-2768
▁exist	-2769
▁disease	-2770
▁bud	-2771
▁rise	-2772
▁presidential	-2773
▁amb	-2774
▁Ham	-2775
▁customers	-2776
▁create	-2777
hile	-2778
▁Sand	-2779
▁Red	-2780
ension	-2781
asons	-2782
▁schools	-2783
field	-2784
aves	-2785
ements	-2786
▁Bro	-2787
▁trial	-2788
▁Korea	-2789
irst	-2790
▁instead	-2791
▁beat	-2792
▁intro	-2793
▁majority	-2794
uty	-2795
▁victory	-2796
▁clos	-2797
▁restaur	-2798
▁sexual	-2799
▁scient	-2800
▁Islam	-2801
▁2013	-2802
▁Associ	-2803
▁Mart	-2804
▁prior	-2805
▁previously	-2806
▁forces	-2807
onn	-2808
▁hear	-2809
▁County	-2810
iers	-2811
▁sat	-2812
▁197	-2813
.9	-2814
ped	-2815
▁Rich	-2816
aught	-2817
vey	-2818
▁Germany	-2819
ugh	-2820
▁speak	-2821
▁lif	-2822
▁Every	-2823
▁Phot	-2824
▁beaut	-2825
▁vo	-2826
▁moved	-2827
▁webs	-2828
▁included	-2829
▁looks	-2830
▁box	-2831
haps	-2832
▁debate	-2833
▁decl	-2834
agram	-2835
▁influ	-2836
utions	-2837
▁arrested	-2838
▁attacks	-2839
▁largest	-2840
▁conduct	-2841
▁lockdown	-2842
▁Tom	-2843
▁else	-2844
▁flo	-2845
▁products	-2846
▁gone	-2847
▁journal	-2848
▁legisl	-2849
▁conference	-2850
▁businesses	-2851
▁birth	-2852
▁check	-2853
▁pi	-2854
▁hundred	-2855
ester	-2856
▁itself	-2857
▁Africa	-2858
▁message	-2859
oyal	-2860
▁draw	-2861
istan	-2862
▁regul	-2863
▁agency	-2864
off	-2865
olution	-2866
▁happen	-2867
uing	-2868
▁calls	-2869
▁failed	-2870
▁Covid	-2871
▁separ	-2872
▁Angeles	-2873
▁regular	-2874
▁Mex	-2875
▁Ben	-2876
▁ways	-2877
▁Of	-2878
▁Party	-2879
ping	-2880
▁link	-2881
estern	-2882
▁kids	-2883
enced	-2884
bo	-2885
▁dog	-2886
▁60	-2887
▁vacc	-2888
▁closed	-2889
▁cancer	-2890
▁leaving	-2891
▁encour	-2892
▁don	-2893
urt	-2894
itor	-2895
▁esc	-2896
duced	-2897
ceed	-2898
▁spokesman	-2899
▁dram	-2900
▁pair	-2901
▁goes	-2902
▁ready	-2903
▁necess	-2904
▁levels	-2905
▁prim	-2906
▁alleg	-2907
▁range	-2908
ida	-2909
▁towards	-2910
▁Smith	-2911
▁Instagram	-2912
▁prices	-2913
▁Scottish	-2914
▁above	-2915
ris	-2916
▁31	-2917
▁answ	-2918
▁brother	-2919
▁homes	-2920
iter	-2921
▁doll	-2922
por	-2923
▁pers	-2924
▁effective	-2925
ston	-2926
ops	-2927
room	-2928
rief	-2929
▁words	-2930
▁blood	-2931
▁Bor	-2932
▁cell	-2933
▁crim	-2934
ona	-2935
▁Hill	-2936
aced	-2937
▁Fin	-2938
▁lawy	-2939
while	-2940
berg	-2941
▁target	-2942
▁effect	-2943
de	-2944
icket	-2945
Credit	-2946
▁although	-2947
▁Mal	-2948
▁touch	-2949
▁deaths	-2950
▁Getty	-2951
▁dig	-2952
▁scene	-2953
fort	-2954
▁experi	-2955
▁pan	-2956
▁shut	-2957
▁song	-2958
▁costs	-2959
anchester	-2960
▁property	-2961
to	-2962
▁production	-2963
▁stra	-2964
unch	-2965
▁challeng	-2966
erve	-2967
▁effort	-2968
▁Sim	-2969
▁Manchester	-2970
▁caused	-2971
using	-2972
uses	-2973
oph	-2974
▁Many	-2975
▁centre	-2976
urning	-2977
▁simply	-2978
▁score	-2979
▁teams	-2980
mark	-2981
▁adding	-2982
▁mater	-2983
▁numbers	-2984
▁unl	-2985
nings	-2986
▁opening	-2987
▁charges	-2988
▁emb	-2989
▁peace	-2990
ression	-2991
▁Prem	-2992
ellig	-2993
ope	-2994
▁mill	-2995
▁collect	-2996
▁train	-2997
▁sett	-2998
▁redu	-2999
▁spending	-3000
▁associ	-3001
▁challenge	-3002
▁giving	-3003
▁rates	-3004
▁repe	-3005
▁unf	-3006
▁amount	-3007
now	-3008
▁International	-3009
.6	-3010
▁Reuters	-3011
▁fair	-3012
▁Two	-3013
▁easy	-3014
ique	-3015
▁29	-3016
▁ess	-3017
isation	-3018
icted	-3019
▁Tex	-3020
▁talks	-3021
▁sens	-3022
▁gas	-3023
▁date	-3024
▁sil	-3025
▁character	-3026
▁residents	-3027
▁Paris	-3028
▁favour	-3029
▁ful	-3030
▁park	-3031
oper	-3032
yond	-3033
▁bott	-3034
50	-3035
▁raised	-3036
of	-3037
▁1,	-3038
▁fast	-3039
▁behav	-3040
▁rout	-3041
iple	-3042
▁warned	-3043
▁contr	-3044
igration	-3045
▁baby	-3046
▁model	-3047
▁letter	-3048
▁Ire	-3049
▁emergency	-3050
▁particip	-3051
.7	-3052
oul	-3053
jects	-3054
▁named	-3055
▁CN	-3056
inks	-3057
▁Other	-3058
▁Ireland	-3059
lled	-3060
▁Joe	-3061
isions	-3062
▁attention	-3063
▁natur	-3064
ille	-3065
itc	-3066
▁Vict	-3067
RE	-3068
▁sched	-3069
▁followed	-3070
vert	-3071
▁decades	-3072
▁born	-3073
▁agreed	-3074
▁Syria	-3075
▁Ser	-3076
▁perfect	-3077
▁true	-3078
▁Mid	-3079
uclear	-3080
▁concer	-3081
het	-3082
▁citizens	-3083
astic	-3084
ibly	-3085
ya	-3086
▁immediately	-3087
ghan	-3088
ruction	-3089
▁extreme	-3090
▁propos	-3091
▁pus	-3092
▁Ag	-3093
▁created	-3094
uments	-3095
▁clean	-3096
▁2012	-3097
▁Ber	-3098
▁pretty	-3099
▁wel	-3100
light	-3101
▁investment	-3102
▁Bec	-3103
▁Matt	-3104
▁ended	-3105
▁regard	-3106
▁increased	-3107
▁Serv	-3108
▁specific	-3109
ancing	-3110
illed	-3111
▁central	-3112
▁speech	-3113
▁Then	-3114
▁victims	-3115
▁camer	-3116
▁wall	-3117
HS	-3118
▁base	-3119
▁believed	-3120
▁related	-3121
▁education	-3122
ban	-3123
▁compared	-3124
▁Mac	-3125
▁posted	-3126
▁bal	-3127
emb	-3128
ervative	-3129
cy	-3130
▁murder	-3131
▁Franc	-3132
▁website	-3133
▁fourth	-3134
ounts	-3135
▁displ	-3136
yan	-3137
▁gets	-3138
fact	-3139
▁Sam	-3140
vent	-3141
▁High	-3142
▁starting	-3143
▁changed	-3144
▁drive	-3145
▁Bank	-3146
▁Comp	-3147
▁indic	-3148
▁built	-3149
▁talking	-3150
▁moving	-3151
▁value	-3152
▁avoid	-3153
▁demonst	-3154
▁shock	-3155
▁san	-3156
hol	-3157
▁plat	-3158
aches	-3159
▁brand	-3160
vision	-3161
▁north	-3162
eed	-3163
▁First	-3164
▁kept	-3165
ailed	-3166
▁Parliament	-3167
▁population	-3168
▁charged	-3169
▁swe	-3170
▁researchers	-3171
▁Mur	-3172
▁Qu	-3173
▁quality	-3174
▁parts	-3175
▁product	-3176
mp	-3177
▁stock	-3178
▁straight	-3179
▁Gold	-3180
▁alone	-3181
sequ	-3182
▁door	-3183
vere	-3184
▁Sal	-3185
▁lik	-3186
▁Republicans	-3187
▁comments	-3188
▁launch	-3189
iger	-3190
orter	-3191
▁Rob	-3192
apt	-3193
aded	-3194
▁trust	-3195
reng	-3196
▁bat	-3197
▁Ira	-3198
▁govern	-3199
▁kick	-3200
▁includes	-3201
▁From	-3202
▁histor	-3203
▁charge	-3204
▁require	-3205
▁obs	-3206
▁middle	-3207
▁Mil	-3208
▁Syd	-3209
▁fat	-3210
▁income	-3211
▁estim	-3212
▁title	-3213
▁defe	-3214
▁ran	-3215
istry	-3216
resh	-3217
▁Green	-3218
▁pur	-3219
▁injury	-3220
▁Ms.	-3221
▁Iraq	-3222
▁prem	-3223
▁196	-3224
▁calling	-3225
▁Flor	-3226
▁refe	-3227
orney	-3228
▁analy	-3229
▁Star	-3230
▁launched	-3231
▁cat	-3232
▁Secretary	-3233
.8	-3234
▁search	-3235
break	-3236
▁budget	-3237
AS	-3238
▁cash	-3239
▁Gre	-3240
ancy	-3241
▁ten	-3242
sy	-3243
▁Texas	-3244
▁employees	-3245
iction	-3246
▁Jones	-3247
▁Sydney	-3248
igrants	-3249
▁signed	-3250
ny	-3251
▁convers	-3252
iance	-3253
▁reached	-3254
▁Bel	-3255
▁Another	-3256
idered	-3257
▁poor	-3258
inary	-3259
▁aim	-3260
upp	-3261
elligence	-3262
▁league	-3263
▁figures	-3264
itute	-3265
▁movement	-3266
▁strik	-3267
▁deliver	-3268
arent	-3269
▁Andrew	-3270
olute	-3271
▁card	-3272
▁Indian	-3273
▁recomm	-3274
▁School	-3275
▁streng	-3276
elling	-3277
▁flight	-3278
oo	-3279
▁rock	-3280
ashion	-3281
▁partner	-3282
▁Office	-3283
ishing	-3284
▁figure	-3285
▁Wil	-3286
ites	-3287
▁Op	-3288
▁speed	-3289
▁African	-3290
men	-3291
▁wat	-3292
▁request	-3293
▁meant	-3294
▁crime	-3295
▁sector	-3296
▁Val	-3297
▁pul	-3298
vin	-3299
venue	-3300
▁cast	-3301
▁via	-3302
▁highest	-3303
▁candidate	-3304
▁har	-3305
▁movie	-3306
▁Bill	-3307
▁politics	-3308
lined	-3309
rol	-3310
▁nuclear	-3311
▁parties	-3312
▁opened	-3313
ously	-3314
uries	-3315
▁weap	-3316
▁maint	-3317
▁partners	-3318
▁goals	-3319
▁offered	-3320
▁funding	-3321
▁source	-3322
▁defin	-3323
▁beyond	-3324
mit	-3325
▁crowd	-3326
azon	-3327
▁normal	-3328
▁shooting	-3329
▁wild	-3330
IS	-3331
▁AP	-3332
▁passed	-3333
▁Kim	-3334
▁La	-3335
▁English	-3336
▁brief	-3337
▁amid	-3338
angu	-3339
▁condition	-3340
▁screen	-3341
▁wearing	-3342
▁ability	-3343
entially	-3344
▁*	-3345
▁exact	-3346
▁style	-3347
▁miles	-3348
▁material	-3349
▁feeling	-3350
▁appeal	-3351
▁mag	-3352
▁drink	-3353
▁sleep	-3354
▁protest	-3355
▁details	-3356
▁teen	-3357
amb	-3358
sea	-3359
utin	-3360
airs	-3361
▁testing	-3362
▁opposition	-3363
▁202	-3364
▁considered	-3365
▁emot	-3366
▁throughout	-3367
▁react	-3368
estic	-3369
▁Group	-3370
ander	-3371
ha	-3372
▁document	-3373
▁table	-3374
gar	-3375
▁green	-3376
▁Center	-3377
▁O'	-3378
ER	-3379
lands	-3380
▁sun	-3381
▁rap	-3382
▁Jos	-3383
▁General	-3384
▁platform	-3385
▁Ken	-3386
▁dom	-3387
▁paper	-3388
▁Tod	-3389
▁i	-3390
ocks	-3391
▁prime	-3392
▁abuse	-3393
▁jump	-3394
iled	-3395
▁certainly	-3396
arily	-3397
▁drop	-3398
▁Brown	-3399
omen	-3400
▁runs	-3401
TO	-3402
▁sport	-3403
▁experts	-3404
ume	-3405
▁finally	-3406
▁Soc	-3407
▁student	-3408
▁Arab	-3409
▁Premier	-3410
▁Florida	-3411
▁counter	-3412
▁Fore	-3413
▁ult	-3414
itz	-3415
▁CB	-3416
▁Justice	-3417
▁Port	-3418
acts	-3419
▁Uk	-3420
▁returned	-3421
▁female	-3422
▁criminal	-3423
▁Champions	-3424
▁Chris	-3425
▁prec	-3426
EO	-3427
ript	-3428
ties	-3429
ste	-3430
▁mob	-3431
▁Spe	-3432
▁35	-3433
▁reality	-3434
▁driving	-3435
aren	-3436
ken	-3437
pool	-3438
▁din	-3439
▁judge	-3440
▁Apple	-3441
▁Victor	-3442
pect	-3443
▁learn	-3444
▁reform	-3445
▁politic	-3446
▁Committee	-3447
lling	-3448
▁annual	-3449
▁commit	-3450
▁south	-3451
▁Mic	-3452
▁Del	-3453
ady	-3454
▁pm	-3455
iation	-3456
wide	-3457
▁Wales	-3458
▁sound	-3459
arr	-3460
▁provided	-3461
▁myself	-3462
▁street	-3463
▁bi	-3464
▁respect	-3465
▁Over	-3466
▁gold	-3467
hib	-3468
icks	-3469
▁soft	-3470
▁council	-3471
▁Most	-3472
lection	-3473
▁users	-3474
ctions	-3475
▁spoke	-3476
▁IS	-3477
elled	-3478
30	-3479
▁sometimes	-3480
▁leadership	-3481
▁battle	-3482
aming	-3483
▁joined	-3484
▁500	-3485
▁thinking	-3486
▁teac	-3487
▁subst	-3488
outhern	-3489
ey	-3490
▁suggested	-3491
▁double	-3492
ago	-3493
▁assault	-3494
▁scored	-3495
▁station	-3496
▁damage	-3497
▁parliament	-3498
▁places	-3499
▁ones	-3500
▁attract	-3501
▁outbreak	-3502
▁hearing	-3503
▁worst	-3504
▁issued	-3505
▁hundreds	-3506
▁Since	-3507
mar	-3508
▁picture	-3509
▁dark	-3510
▁rare	-3511
ashed	-3512
emper	-3513
▁prosecut	-3514
▁enfor	-3515
▁competition	-3516
▁century	-3517
▁Amazon	-3518
▁Robert	-3519
▁arrived	-3520
FL	-3521
▁refuge	-3522
yright	-3523
▁required	-3524
▁Lou	-3525
▁pun	-3526
▁advis	-3527
▁seeing	-3528
▁#	-3529
▁p.m.	-3530
▁natural	-3531
imately	-3532
▁holiday	-3533
▁Musl	-3534
alys	-3535
▁additional	-3536
▁remember	-3537
▁choice	-3538
▁eye	-3539
▁justice	-3540
▁network	-3541
do	-3542
▁Covid-19	-3543
▁daily	-3544
iful	-3545
▁photo	-3546
▁obv	-3547
▁fighting	-3548
aries	-3549
isters	-3550
▁mist	-3551
▁missing	-3552
▁secretary	-3553
▁sort	-3554
▁vill	-3555
▁evening	-3556
ogle	-3557
ica	-3558
▁Fox	-3559
▁During	-3560
enty	-3561
pping	-3562
▁spend	-3563
▁admitted	-3564
▁il	-3565
▁hotel	-3566
▁copyright	-3567
set	-3568
▁fine	-3569
▁Saud	-3570
inger	-3571
▁Carol	-3572
▁wonder	-3573
▁Prince	-3574
▁absolute	-3575
owers	-3576
▁traff	-3577
▁Mean	-3578
▁inn	-3579
▁Why	-3580
▁Mrs	-3581
▁refer	-3582
▁save	-3583
▁Step	-3584
lor	-3585
▁NHS	-3586
▁Desp	-3587
▁perhaps	-3588
ari	-3589
▁retail	-3590
▁modern	-3591
▁heavy	-3592
▁witness	-3593
anding	-3594
▁committee	-3595
ources	-3596
▁70	-3597
▁injured	-3598
▁dress	-3599
▁appears	-3600
▁rob	-3601
▁Italy	-3602
alled	-3603
▁affected	-3604
▁rule	-3605
▁completely	-3606
jected	-3607
▁dism	-3608
▁Wall	-3609
▁Bay	-3610
imb	-3611
▁complain	-3612
▁Here	-3613
▁benefits	-3614
▁credit	-3615
▁continues	-3616
▁langu	-3617
roy	-3618
▁society	-3619
ological	-3620
▁progress	-3621
▁fresh	-3622
▁illeg	-3623
▁Chel	-3624
▁Oly	-3625
▁2011	-3626
isted	-3627
IN	-3628
▁Chief	-3629
AR	-3630
▁driver	-3631
urance	-3632
▁markets	-3633
▁lose	-3634
makers	-3635
▁Williams	-3636
▁communities	-3637
iders	-3638
ki	-3639
▁hair	-3640
▁tweeted	-3641
▁showing	-3642
▁Google	-3643
ager	-3644
▁unp	-3645
▁policies	-3646
▁protests	-3647
overy	-3648
▁deg	-3649
▁Che	-3650
▁millions	-3651
▁Vir	-3652
▁communic	-3653
▁decade	-3654
▁Despite	-3655
AN	-3656
ugg	-3657
ented	-3658
rey	-3659
▁Olymp	-3660
▁supporters	-3661
▁tough	-3662
ufact	-3663
▁mix	-3664
▁cities	-3665
▁Dis	-3666
mon	-3667
▁storm	-3668
going	-3669
▁culture	-3670
▁brain	-3671
▁Liver	-3672
anced	-3673
▁Dr.	-3674
▁Peter	-3675
▁seemed	-3676
▁upd	-3677
▁Thom	-3678
▁individual	-3679
empor	-3680
▁department	-3681
▁cars	-3682
cing	-3683
▁reduce	-3684
▁path	-3685
▁Meanwhile	-3686
night	-3687
▁Royal	-3688
▁transport	-3689
▁massive	-3690
▁bid	-3691
▁size	-3692
▁drugs	-3693
asc	-3694
▁facing	-3695
▁boost	-3696
▁Law	-3697
▁caught	-3698
▁Mexico	-3699
▁mental	-3700
▁repeated	-3701
▁designed	-3702
▁explained	-3703
▁fully	-3704
▁Miss	-3705
▁CNN	-3706
▁bag	-3707
rim	-3708
▁Play	-3709
▁tack	-3710
▁restrictions	-3711
▁farm	-3712
rs	-3713
▁temper	-3714
▁meaning	-3715
▁Mike	-3716
▁imag	-3717
▁Met	-3718
▁sust	-3719
▁attend	-3720
▁candidates	-3721
▁tested	-3722
▁uns	-3723
▁penal	-3724
▁Ukrain	-3725
▁weight	-3726
ropri	-3727
na	-3728
adium	-3729
bourne	-3730
▁Liverpool	-3731
▁fashion	-3732
▁smart	-3733
▁asking	-3734
arian	-3735
▁Super	-3736
▁RE	-3737
▁coal	-3738
▁80	-3739
▁doz	-3740
▁champ	-3741
anch	-3742
▁Those	-3743
iles	-3744
▁throw	-3745
▁suffered	-3746
▁applic	-3747
▁engine	-3748
ps	-3749
vest	-3750
▁critical	-3751
▁original	-3752
▁Oh	-3753
round	-3754
▁aftern	-3755
well	-3756
▁tro	-3757
▁cong	-3758
▁Francis	-3759
▁putting	-3760
▁weather	-3761
▁elections	-3762
esterday	-3763
▁comfort	-3764
▁Mer	-3765
ux	-3766
▁management	-3767
▁Mos	-3768
▁shares	-3769
▁commer	-3770
ols	-3771
▁feet	-3772
▁allegations	-3773
▁shown	-3774
▁purch	-3775
▁promot	-3776
▁owners	-3777
▁incred	-3778
eless	-3779
▁concerned	-3780
▁boss	-3781
izing	-3782
▁center	-3783
▁Hall	-3784
▁award	-3785
▁Jud	-3786
▁bul	-3787
▁answer	-3788
▁epis	-3789
▁relig	-3790
▁spl	-3791
tt	-3792
▁telling	-3793
▁Turkey	-3794
▁multiple	-3795
iring	-3796
▁word	-3797
asts	-3798
▁confidence	-3799
▁Bur	-3800
▁girls	-3801
▁push	-3802
▁wait	-3803
esters	-3804
▁floor	-3805
▁cook	-3806
▁Under	-3807
imum	-3808
▁whom	-3809
gn	-3810
▁Although	-3811
▁Saudi	-3812
▁Cont	-3813
▁domestic	-3814
▁practice	-3815
▁occur	-3816
▁skin	-3817
▁Harry	-3818
▁Nor	-3819
▁afternoon	-3820
▁television	-3821
▁receive	-3822
▁scen	-3823
▁sports	-3824
▁minute	-3825
zz	-3826
ville	-3827
ipl	-3828
▁lay	-3829
▁Martin	-3830
▁subject	-3831
▁believes	-3832
▁served	-3833
ading	-3834
▁Richard	-3835
▁herself	-3836
▁reporters	-3837
▁inqu	-3838
▁controvers	-3839
▁carried	-3840
ero	-3841
▁Rec	-3842
▁pet	-3843
▁Prof	-3844
▁rain	-3845
▁below	-3846
uals	-3847
▁version	-3848
▁Both	-3849
▁freed	-3850
▁Def	-3851
▁older	-3852
aces	-3853
olf	-3854
▁determin	-3855
encies	-3856
▁struct	-3857
▁trou	-3858
▁active	-3859
cher	-3860
orks	-3861
useum	-3862
▁2010	-3863
▁investors	-3864
▁minor	-3865
▁Pict	-3866
▁winner	-3867
▁coast	-3868
▁actions	-3869
▁Fed	-3870
cl	-3871
BI	-3872
▁hy	-3873
▁necessary	-3874
▁successful	-3875
▁loved	-3876
▁beginning	-3877
▁stars	-3878
▁Canada	-3879
▁dangerous	-3880
▁planned	-3881
▁denied	-3882
▁Sanders	-3883
stein	-3884
omes	-3885
▁killing	-3886
▁tests	-3887
▁manufact	-3888
▁limited	-3889
▁und	-3890
▁powerful	-3891
▁32	-3892
hi	-3893
▁written	-3894
▁actor	-3895
▁Wood	-3896
▁independent	-3897
▁Chelsea	-3898
▁eyes	-3899
▁dropped	-3900
▁Press	-3901
▁operations	-3902
▁exam	-3903
otten	-3904
elly	-3905
estival	-3906
▁seeking	-3907
▁planning	-3908
▁noted	-3909
sych	-3910
▁CEO	-3911
▁Today	-3912
▁strategy	-3913
uled	-3914
▁flag	-3915
▁becoming	-3916
friend	-3917
riage	-3918
▁Islamic	-3919
▁various	-3920
▁greater	-3921
▁domin	-3922
▁addition	-3923
▁achieve	-3924
▁clearly	-3925
▁UN	-3926
ovel	-3927
▁holding	-3928
▁Charl	-3929
▁toward	-3930
▁writing	-3931
▁aid	-3932
▁grad	-3933
▁adop	-3934
▁Good	-3935
▁Holly	-3936
▁resc	-3937
▁stories	-3938
▁ton	-3939
▁ang	-3940
abin	-3941
▁victim	-3942
gent	-3943
ears	-3944
▁90	-3945
▁Post	-3946
▁eventually	-3947
▁commission	-3948
▁plant	-3949
ems	-3950
▁unlike	-3951
▁Melbourne	-3952
▁primary	-3953
▁vul	-3954
▁mount	-3955
▁content	-3956
idel	-3957
▁raise	-3958
arks	-3959
▁image	-3960
▁physical	-3961
▁intelligence	-3962
▁Great	-3963
▁clin	-3964
agues	-3965
▁complex	-3966
anda	-3967
alt	-3968
ran	-3969
▁stopped	-3970
▁artic	-3971
uct	-3972
ledge	-3973
▁traditional	-3974
▁debt	-3975
ification	-3976
▁beg	-3977
▁nomin	-3978
▁alongside	-3979
▁harm	-3980
▁knows	-3981
▁Offic	-3982
▁exch	-3983
▁owner	-3984
▁watching	-3985
▁surf	-3986
▁Well	-3987
▁spir	-3988
ocr	-3989
▁dream	-3990
▁except	-3991
bit	-3992
▁Queen	-3993
▁display	-3994
▁Guard	-3995
▁occas	-3996
▁transfer	-3997
▁doctors	-3998
anta	-3999
▁delay	-4000
▁45	-4001
▁Cap	-4002
unk	-4003
▁exerc	-4004
gen	-4005
ruption	-4006
▁offers	-4007
iar	-4008
erry	-4009
rated	-4010
▁defend	-4011
▁helping	-4012
ewhere	-4013
▁highly	-4014
▁Far	-4015
▁Braz	-4016
▁systems	-4017
▁bomb	-4018
▁vehicle	-4019
▁ver	-4020
la	-4021
▁Their	-4022
▁benefit	-4023
▁reportedly	-4024
▁injuries	-4025
▁sche	-4026
▁Yet	-4027
▁losing	-4028
▁beautiful	-4029
rian	-4030
▁reasons	-4031
rect	-4032
▁fellow	-4033
▁Association	-4034
oes	-4035
▁type	-4036
▁assess	-4037
▁gives	-4038
▁advice	-4039
▁piece	-4040
ilty	-4041
▁Big	-4042
▁professional	-4043
▁Mu	-4044
▁thank	-4045
ours	-4046
▁Ma	-4047
▁MPs	-4048
▁committed	-4049
▁waiting	-4050
▁acqu	-4051
▁God	-4052
▁activity	-4053
bon	-4054
▁consult	-4055
▁medic	-4056
itely	-4057
ections	-4058
house	-4059
▁voice	-4060
▁Images	-4061
iling	-4062
▁strike	-4063
aked	-4064
▁Mill	-4065
▁Ryan	-4066
▁flood	-4067
▁exactly	-4068
▁married	-4069
▁faced	-4070
ola	-4071
▁responsible	-4072
▁bow	-4073
▁usually	-4074
▁defense	-4075
▁funds	-4076
▁fan	-4077
▁trave	-4078
▁implement	-4079
▁novel	-4080
▁secret	-4081
▁isol	-4082
▁fle	-4083
arden	-4084
▁hopes	-4085
engers	-4086
iced	-4087
▁broke	-4088
▁confl	-4089
cel	-4090
▁ign	-4091
▁ir	-4092
▁Let	-4093
oses	-4094
▁managed	-4095
▁sides	-4096
ingly	-4097
▁electric	-4098
▁newsp	-4099
acity	-4100
angers	-4101
ils	-4102
▁Sir	-4103
annel	-4104
▁purp	-4105
time	-4106
▁Tay	-4107
▁vulner	-4108
▁opin	-4109
▁Art	-4110
▁faces	-4111
▁favor	-4112
▁apparent	-4113
▁union	-4114
▁streets	-4115
hire	-4116
▁analyst	-4117
▁aware	-4118
▁liber	-4119
▁finished	-4120
▁36	-4121
▁warning	-4122
▁guilty	-4123
▁lived	-4124
▁blue	-4125
▁serve	-4126
burgh	-4127
ables	-4128
▁vaccine	-4129
▁legislation	-4130
▁worse	-4131
▁Brazil	-4132
▁agree	-4133
▁Northern	-4134
▁Inc	-4135
▁identified	-4136
ala	-4137
▁Virgin	-4138
▁Trans	-4139
▁speaking	-4140
▁Frank	-4141
▁standing	-4142
▁feels	-4143
▁pregn	-4144
▁simple	-4145
▁mention	-4146
bn	-4147
▁clot	-4148
▁sale	-4149
▁cyc	-4150
▁immigration	-4151
▁fif	-4152
▁challenges	-4153
▁Thomas	-4154
▁Ars	-4155
▁Spain	-4156
▁severe	-4157
iplom	-4158
▁crash	-4159
know	-4160
▁votes	-4161
▁establish	-4162
▁language	-4163
▁Ac	-4164
▁offering	-4165
▁overall	-4166
▁mach	-4167
▁Gar	-4168
▁arch	-4169
ipped	-4170
▁developed	-4171
▁doubt	-4172
rid	-4173
▁Hong	-4174
rel	-4175
▁surround	-4176
ube	-4177
▁sympt	-4178
▁Camer	-4179
▁chairman	-4180
ointed	-4181
▁island	-4182
▁Mary	-4183
rial	-4184
▁rose	-4185
▁linked	-4186
asks	-4187
▁appl	-4188
▁twice	-4189
▁decisions	-4190
▁housing	-4191
▁camera	-4192
ucky	-4193
▁afford	-4194
▁option	-4195
lyn	-4196
ware	-4197
▁yesterday	-4198
▁crew	-4199
emy	-4200
arp	-4201
▁corpor	-4202
▁Supreme	-4203
▁row	-4204
▁proposed	-4205
▁wed	-4206
ym	-4207
▁Boris	-4208
▁sad	-4209
▁protection	-4210
▁placed	-4211
▁fix	-4212
▁views	-4213
za	-4214
▁catch	-4215
ground	-4216
▁Tre	-4217
atever	-4218
▁trib	-4219
▁relative	-4220
itals	-4221
iqu	-4222
▁focused	-4223
ota	-4224
▁email	-4225
▁Kong	-4226
▁plane	-4227
▁Ev	-4228
alysis	-4229
▁resources	-4230
▁wear	-4231
▁measure	-4232
▁purs	-4233
▁rank	-4234
▁band	-4235
▁restaurant	-4236
illing	-4237
▁altern	-4238
▁supply	-4239
▁options	-4240
ads	-4241
▁discovered	-4242
issions	-4243
▁page	-4244
gers	-4245
▁send	-4246
▁lines	-4247
▁features	-4248
▁resign	-4249
uke	-4250
▁Jon	-4251
▁aged	-4252
▁plays	-4253
▁college	-4254
▁lawyer	-4255
▁scale	-4256
▁sister	-4257
▁Niger	-4258
▁difference	-4259
icient	-4260
▁directly	-4261
▁Jim	-4262
▁operation	-4263
▁programme	-4264
▁recorded	-4265
▁eat	-4266
▁survey	-4267
cial	-4268
▁maybe	-4269
▁prepared	-4270
▁voted	-4271
apped	-4272
odies	-4273
▁stuff	-4274
▁banks	-4275
▁largely	-4276
▁depart	-4277
▁champion	-4278
▁princ	-4279
▁nature	-4280
▁Institute	-4281
▁champions	-4282
▁Security	-4283
▁expert	-4284
▁acknow	-4285
▁scientists	-4286
tered	-4287
▁missed	-4288
▁advant	-4289
▁Swed	-4290
▁33	-4291
bum	-4292
▁diagn	-4293
▁keeping	-4294
▁Kh	-4295
▁terri	-4296
▁famous	-4297
▁slight	-4298
▁strateg	-4299
▁Like	-4300
▁responsibility	-4301
TV	-4302
▁profit	-4303
▁Tim	-4304
▁Western	-4305
ani	-4306
▁Ital	-4307
antly	-4308
▁status	-4309
▁sea	-4310
▁Chic	-4311
▁Pri	-4312
▁34	-4313
▁Commun	-4314
▁diplom	-4315
vention	-4316
▁rising	-4317
▁Afghan	-4318
▁effects	-4319
▁increasingly	-4320
▁eth	-4321
▁proud	-4322
▁conflict	-4323
▁photos	-4324
▁protesters	-4325
▁text	-4326
▁refused	-4327
▁gather	-4328
▁Open	-4329
▁basis	-4330
▁Mod	-4331
▁origin	-4332
▁audience	-4333
▁Daniel	-4334
▁Service	-4335
▁selling	-4336
abor	-4337
▁withd	-4338
▁Mag	-4339
ns	-4340
▁agg	-4341
▁reflect	-4342
▁psych	-4343
ocracy	-4344
▁healthy	-4345
▁sitting	-4346
▁2008	-4347
▁Atl	-4348
▁generation	-4349
▁thr	-4350
uro	-4351
▁negative	-4352
azing	-4353
ania	-4354
ci	-4355
▁ath	-4356
▁Instead	-4357
▁Out	-4358
▁reop	-4359
▁chem	-4360
▁apart	-4361
▁confident	-4362
▁enter	-4363
▁treated	-4364
rate	-4365
▁seat	-4366
▁Win	-4367
▁fit	-4368
▁Bern	-4369
▁ine	-4370
▁digital	-4371
▁contest	-4372
rick	-4373
▁kid	-4374
▁Bu	-4375
▁ship	-4376
ador	-4377
▁willing	-4378
▁Direct	-4379
▁tourn	-4380
ho	-4381
▁sem	-4382
urb	-4383
acing	-4384
▁Because	-4385
▁cuts	-4386
▁stress	-4387
▁wealth	-4388
▁Liber	-4389
ivity	-4390
▁Sing	-4391
anted	-4392
▁upon	-4393
▁hero	-4394
AD	-4395
▁virt	-4396
mond	-4397
▁essential	-4398
mine	-4399
coming	-4400
▁mostly	-4401
lines	-4402
▁fired	-4403
▁veter	-4404
▁individuals	-4405
▁Pre	-4406
▁Reg	-4407
anks	-4408
antic	-4409
▁signs	-4410
▁limit	-4411
▁steps	-4412
▁fa	-4413
▁absolutely	-4414
▁breat	-4415
▁nice	-4416
▁Lib	-4417
▁onto	-4418
▁Arsenal	-4419
▁cry	-4420
▁meth	-4421
▁voting	-4422
▁professor	-4423
▁truth	-4424
▁scheduled	-4425
▁revenue	-4426
▁passengers	-4427
▁extremely	-4428
▁cred	-4429
▁initi	-4430
▁Lee	-4431
▁weapons	-4432
▁Photo	-4433
▁Cam	-4434
▁books	-4435
▁Jew	-4436
▁fuel	-4437
oral	-4438
▁Dist	-4439
▁Central	-4440
▁arm	-4441
▁album	-4442
▁log	-4443
▁cold	-4444
▁finding	-4445
atures	-4446
▁bought	-4447
▁Steve	-4448
▁surger	-4449
▁images	-4450
▁Att	-4451
▁capacity	-4452
▁ice	-4453
▁Chicago	-4454
arant	-4455
ON	-4456
▁tweet	-4457
▁defeat	-4458
▁declined	-4459
▁backed	-4460
itude	-4461
▁@	-4462
▁consist	-4463
oned	-4464
▁dire	-4465
▁rough	-4466
▁feed	-4467
▁behavi	-4468
agement	-4469
▁happens	-4470
where	-4471
▁Sar	-4472
▁lic	-4473
▁tight	-4474
▁Women	-4475
▁remained	-4476
▁prompt	-4477
▁Pak	-4478
▁qualif	-4479
▁projects	-4480
▁Grand	-4481
▁attorney	-4482
▁Hollywood	-4483
▁Who	-4484
ength	-4485
ulated	-4486
▁Lew	-4487
▁sources	-4488
▁NS	-4489
rang	-4490
▁worry	-4491
▁proposal	-4492
▁comed	-4493
hy	-4494
ado	-4495
▁Island	-4496
▁Es	-4497
▁marriage	-4498
▁male	-4499
▁Louis	-4500
▁ut	-4501
▁pil	-4502
▁Tra	-4503
▁suit	-4504
▁rally	-4505
▁squad	-4506
▁Pac	-4507
▁illegal	-4508
▁suggests	-4509
▁symptoms	-4510
▁debut	-4511
▁activities	-4512
▁influence	-4513
icip	-4514
▁Lat	-4515
▁documents	-4516
▁ongoing	-4517
▁potentially	-4518
▁estimated	-4519
▁Georg	-4520
care	-4521
▁Colle	-4522
ench	-4523
▁commercial	-4524
▁affect	-4525
▁colleagues	-4526
▁separate	-4527
▁records	-4528
▁finish	-4529
▁Ell	-4530
▁ruling	-4531
▁owned	-4532
▁insurance	-4533
▁Sur	-4534
▁governments	-4535
▁Corby	-4536
▁PM	-4537
▁tim	-4538
▁struck	-4539
rom	-4540
▁Camp	-4541
wise	-4542
▁accounts	-4543
rast	-4544
▁ordered	-4545
▁jour	-4546
▁Zeal	-4547
▁animals	-4548
▁university	-4549
▁Ra	-4550
▁changing	-4551
▁circum	-4552
▁fal	-4553
▁Korean	-4554
▁300	-4555
kin	-4556
▁Home	-4557
▁removed	-4558
▁learning	-4559
▁vehicles	-4560
▁wid	-4561
▁defence	-4562
ructure	-4563
gu	-4564
AC	-4565
itation	-4566
▁dismiss	-4567
▁Cle	-4568
▁Jul	-4569
ov.	-4570
▁advoc	-4571
▁MO	-4572
cohol	-4573
▁produced	-4574
▁Taylor	-4575
essor	-4576
ensions	-4577
▁district	-4578
▁Carolina	-4579
▁Sil	-4580
▁names	-4581
/1	-4582
▁guys	-4583
▁cool	-4584
▁fifth	-4585
▁oppon	-4586
▁Jeff	-4587
▁guy	-4588
▁bringing	-4589
▁Mat	-4590
▁II	-4591
▁Corbyn	-4592
▁giant	-4593
▁yards	-4594
▁frequ	-4595
▁paying	-4596
▁announcement	-4597
▁Syrian	-4598
rendum	-4599
▁unable	-4600
iment	-4601
▁politicians	-4602
▁urged	-4603
▁patient	-4604
craft	-4605
▁overse	-4606
▁scr	-4607
▁2009	-4608
kins	-4609
ropriate	-4610
▁Any	-4611
▁select	-4612
▁Stud	-4613
▁Pakistan	-4614
▁pra	-4615
▁providing	-4616
,5	-4617
woman	-4618
▁Fer	-4619
▁cooper	-4620
▁crack	-4621
▁McG	-4622
▁Zealand	-4623
▁consequ	-4624
▁Den	-4625
▁allegedly	-4626
▁Wat	-4627
hens	-4628
eller	-4629
▁advert	-4630
▁adj	-4631
▁tom	-4632
▁object	-4633
▁autom	-4634
igan	-4635
▁heat	-4636
▁Road	-4637
▁doctor	-4638
uter	-4639
AT	-4640
▁37	-4641
▁stret	-4642
▁roll	-4643
eration	-4644
▁hur	-4645
▁nar	-4646
▁Hum	-4647
ighters	-4648
▁Irish	-4649
▁Ari	-4650
▁feature	-4651
dden	-4652
▁filed	-4653
▁vulnerable	-4654
▁inquir	-4655
ula	-4656
▁declared	-4657
icide	-4658
▁accident	-4659
roc	-4660
▁Are	-4661
▁spark	-4662
mission	-4663
▁yourself	-4664
▁length	-4665
erved	-4666
alls	-4667
0,000	-4668
▁equip	-4669
▁Sa	-4670
▁risks	-4671
▁sick	-4672
▁mission	-4673
▁tells	-4674
▁flat	-4675
▁introduced	-4676
iny	-4677
▁referendum	-4678
▁Nick	-4679
▁criticism	-4680
▁allowing	-4681
▁internet	-4682
andal	-4683
▁Haw	-4684
▁note	-4685
hew	-4686
▁traffic	-4687
ini	-4688
dy	-4689
▁secure	-4690
▁actress	-4691
▁Putin	-4692
▁learned	-4693
▁pulled	-4694
▁airport	-4695
▁Italian	-4696
nel	-4697
▁Daily	-4698
▁territ	-4699
▁College	-4700
▁reporting	-4701
▁younger	-4702
▁freedom	-4703
▁Invest	-4704
▁clubs	-4705
loyment	-4706
▁tech	-4707
▁boys	-4708
▁mic	-4709
▁CBS	-4710
▁starts	-4711
▁Bow	-4712
rip	-4713
▁science	-4714
lig	-4715
▁advantage	-4716
▁frust	-4717
▁Christian	-4718
▁neighbour	-4719
▁responded	-4720
ua	-4721
▁joint	-4722
▁church	-4723
▁stores	-4724
ka	-4725
▁founder	-4726
ef	-4727
▁Rod	-4728
LE	-4729
ih	-4730
▁singer	-4731
▁Picture	-4732
▁elected	-4733
▁bigger	-4734
▁conclud	-4735
▁subs	-4736
emporary	-4737
▁opportunities	-4738
▁Up	-4739
▁standards	-4740
▁trading	-4741
▁snow	-4742
▁sudden	-4743
ga	-4744
▁walking	-4745
hered	-4746
▁sanctions	-4747
dom	-4748
aine	-4749
▁pictures	-4750
▁warm	-4751
▁footage	-4752
▁Report	-4753
▁burn	-4754
▁Ant	-4755
▁roy	-4756
▁knock	-4757
ospitals	-4758
▁Add	-4759
enger	-4760
▁newspaper	-4761
▁standard	-4762
▁regional	-4763
▁conversation	-4764
▁Det	-4765
▁Hospital	-4766
▁Speaking	-4767
▁vice	-4768
▁scheme	-4769
ios	-4770
▁38	-4771
▁Former	-4772
▁mum	-4773
▁Sky	-4774
▁Victoria	-4775
▁shel	-4776
rastructure	-4777
▁struggling	-4778
nd	-4779
▁rich	-4780
▁Found	-4781
▁surprise	-4782
▁Middle	-4783
▁Bus	-4784
▁equipment	-4785
.0	-4786
▁creating	-4787
▁east	-4788
▁Ukraine	-4789
▁produce	-4790
▁episode	-4791
▁broken	-4792
▁setting	-4793
▁pitch	-4794
▁Ros	-4795
▁failure	-4796
▁supported	-4797
agon	-4798
▁mer	-4799
▁rival	-4800
▁Beij	-4801
▁dollars	-4802
▁definitely	-4803
▁expand	-4804
C.	-4805
hips	-4806
▁Beijing	-4807
ortion	-4808
▁grew	-4809
▁environmental	-4810
▁happening	-4811
▁mort	-4812
▁Love	-4813
▁thanks	-4814
▁Real	-4815
▁nearby	-4816
BA	-4817
▁governor	-4818
▁distrib	-4819
▁suffering	-4820
▁guard	-4821
▁Cameron	-4822
▁Foreign	-4823
▁glass	-4824
ocal	-4825
▁surgery	-4826
▁Down	-4827
▁wish	-4828
▁negotiations	-4829
▁corner	-4830
▁recovery	-4831
▁stick	-4832
▁od	-4833
▁existing	-4834
▁enforcement	-4835
▁migrants	-4836
oma	-4837
▁appearance	-4838
inn	-4839
▁household	-4840
▁Er	-4841
▁cru	-4842
▁balance	-4843
▁seriously	-4844
▁ded	-4845
▁strength	-4846
lusive	-4847
▁troops	-4848
▁regist	-4849
▁Three	-4850
▁sought	-4851
▁Year	-4852
▁die	-4853
▁approved	-4854
▁era	-4855
board	-4856
▁Ver	-4857
▁Muslim	-4858
▁artist	-4859
resp	-4860
▁devast	-4861
ena	-4862
▁expressed	-4863
▁plenty	-4864
▁emerged	-4865
▁Max	-4866
ivery	-4867
▁alcohol	-4868
ulate	-4869
▁Bol	-4870
ugby	-4871
inated	-4872
▁van	-4873
iot	-4874
▁winter	-4875
▁transform	-4876
▁solid	-4877
OP	-4878
▁Kelly	-4879
▁supposed	-4880
oe	-4881
▁aircraft	-4882
essions	-4883
▁Once	-4884
▁opinion	-4885
▁construction	-4886
▁wedding	-4887
▁guarant	-4888
▁Federal	-4889
▁tournament	-4890
▁hurt	-4891
▁destroy	-4892
▁unique	-4893
▁captain	-4894
▁cruc	-4895
▁som	-4896
▁initial	-4897
▁draft	-4898
icon	-4899
▁Nav	-4900
▁interests	-4901
▁bond	-4902
▁penalty	-4903
right	-4904
▁northern	-4905
▁Test	-4906
▁spring	-4907
NA	-4908
▁democracy	-4909
▁decide	-4910
▁west	-4911
rences	-4912
▁presence	-4913
▁sharp	-4914
▁uncertain	-4915
▁analysis	-4916
▁mobile	-4917
▁studies	-4918
▁Queens	-4919
▁false	-4920
▁task	-4921
illa	-4922
anging	-4923
umn	-4924
▁circumst	-4925
▁pull	-4926
▁Coast	-4927
▁remaining	-4928
▁amazing	-4929
▁proced	-4930
▁Jord	-4931
▁suspect	-4932
eline	-4933
▁spect	-4934
▁Asia	-4935
▁jail	-4936
▁Child	-4937
▁48	-4938
▁Prot	-4939
▁Ve	-4940
▁pushed	-4941
ipe	-4942
▁Public	-4943
▁conservative	-4944
▁smaller	-4945
▁matches	-4946
▁liter	-4947
▁seats	-4948
▁Research	-4949
abinet	-4950
eing	-4951
▁repeatedly	-4952
▁fraud	-4953
▁pled	-4954
PI	-4955
▁FBI	-4956
▁easily	-4957
million	-4958
▁charity	-4959
▁Earth	-4960
▁initially	-4961
▁Rad	-4962
▁experienced	-4963
▁items	-4964
ateg	-4965
▁Jam	-4966
▁Before	-4967
▁rapid	-4968
shire	-4969
▁covered	-4970
▁organization	-4971
▁worried	-4972
ogan	-4973
ogue	-4974
▁behaviour	-4975
▁Kar	-4976
▁pool	-4977
▁larger	-4978
▁der	-4979
lets	-4980
athan	-4981
▁fort	-4982
▁whatever	-4983
▁Inter	-4984
▁Bet	-4985
▁75	-4986
A.	-4987
▁highlight	-4988
▁Jackson	-4989
▁cerem	-4990
▁youth	-4991
▁bottom	-4992
▁lands	-4993
▁apolog	-4994
erate	-4995
▁explos	-4996
▁quiet	-4997
▁Span	-4998
▁consumers	-4999
rawn	-5000
▁Tor	-5001
▁bird	-5002
▁radio	-5003
▁therefore	-5004
oted	-5005
▁moments	-5006
▁reading	-5007
more	-5008
▁welcome	-5009
▁cells	-5010
▁execut	-5011
▁Lord	-5012
▁proceed	-5013
abb	-5014
▁Also	-5015
▁Cal	-5016
HO	-5017
▁exchange	-5018
▁fly	-5019
mes	-5020
▁estate	-5021
olic	-5022
va	-5023
▁contain	-5024
etic	-5025
▁carrying	-5026
itutional	-5027
▁Josh	-5028
▁complic	-5029
▁profile	-5030
▁animal	-5031
cript	-5032
▁flights	-5033
▁Nations	-5034
▁Rel	-5035
▁rail	-5036
vant	-5037
▁Its	-5038
▁developing	-5039
▁wins	-5040
▁Dar	-5041
unte	-5042
▁journey	-5043
▁unlikely	-5044
▁drivers	-5045
▁195	-5046
▁firms	-5047
▁bodies	-5048
▁turning	-5049
▁Os	-5050
▁stun	-5051
▁Charles	-5052
▁masks	-5053
▁Ha	-5054
▁rid	-5055
▁Mail	-5056
▁choose	-5057
pe	-5058
ront	-5059
▁Youn	-5060
▁tend	-5061
▁fears	-5062
▁sharing	-5063
▁infrastructure	-5064
▁window	-5065
▁solution	-5066
▁closer	-5067
▁motor	-5068
▁Hel	-5069
▁recru	-5070
▁collection	-5071
▁Harris	-5072
▁picked	-5073
▁relief	-5074
▁operating	-5075
▁established	-5076
▁fant	-5077
ivered	-5078
▁Brook	-5079
▁hospitals	-5080
ials	-5081
▁Earlier	-5082
ining	-5083
ighter	-5084
▁religious	-5085
▁leaves	-5086
▁exercise	-5087
ennis	-5088
▁recommend	-5089
rison	-5090
▁impe	-5091
▁Edin	-5092
▁District	-5093
▁instit	-5094
lix	-5095
▁messages	-5096
▁gar	-5097
▁delivery	-5098
ici	-5099
azine	-5100
▁gender	-5101
▁coff	-5102
▁NFL	-5103
▁stood	-5104
▁iP	-5105
pir	-5106
▁hoping	-5107
▁Palest	-5108
pm	-5109
▁batt	-5110
oked	-5111
▁weak	-5112
▁Ash	-5113
hab	-5114
▁argued	-5115
▁honest	-5116
gypt	-5117
▁desper	-5118
▁supporting	-5119
▁eating	-5120
▁Jerem	-5121
▁dad	-5122
▁Ins	-5123
▁Card	-5124
▁arms	-5125
owed	-5126
▁armed	-5127
▁pointed	-5128
ked	-5129
▁Fre	-5130
▁serving	-5131
▁beach	-5132
idering	-5133
▁anx	-5134
▁Organ	-5135
▁appre	-5136
outs	-5137
▁article	-5138
▁visitors	-5139
▁Old	-5140
▁cas	-5141
▁falling	-5142
▁loan	-5143
▁wing	-5144
▁Bush	-5145
▁delivered	-5146
▁Van	-5147
▁acting	-5148
▁wood	-5149
oured	-5150
▁provides	-5151
▁determined	-5152
▁method	-5153
▁ven	-5154
▁reduced	-5155
▁Bob	-5156
▁allows	-5157
▁Gra	-5158
▁emotional	-5159
bury	-5160
▁Stephen	-5161
▁knowledge	-5162
▁Francisco	-5163
▁neighbor	-5164
▁Spanish	-5165
▁Ann	-5166
hem	-5167
▁Boy	-5168
▁Egypt	-5169
▁Mem	-5170
▁AF	-5171
ossible	-5172
opp	-5173
▁39	-5174
▁write	-5175
▁Virginia	-5176
▁refugees	-5177
▁restaurants	-5178
▁sav	-5179
▁suspended	-5180
▁194	-5181
▁retire	-5182
▁renew	-5183
▁About	-5184
▁expensive	-5185
▁tast	-5186
▁Rock	-5187
▁findings	-5188
▁violent	-5189
works	-5190
▁Const	-5191
▁trail	-5192
▁trig	-5193
▁seconds	-5194
▁photograph	-5195
▁inspired	-5196
istics	-5197
▁sites	-5198
▁prove	-5199
▁completed	-5200
▁Still	-5201
▁royal	-5202
▁slightly	-5203
▁wake	-5204
▁commitment	-5205
▁southern	-5206
▁pictured	-5207
▁rat	-5208
▁breaking	-5209
▁Penn	-5210
▁Cur	-5211
▁Seattle	-5212
▁obt	-5213
itchen	-5214
▁Luc	-5215
▁deals	-5216
▁Author	-5217
▁Japanese	-5218
▁agencies	-5219
eds	-5220
▁athlet	-5221
▁acad	-5222
▁resist	-5223
▁unit	-5224
▁49	-5225
▁drama	-5226
tery	-5227
▁Tal	-5228
▁Fire	-5229
ano	-5230
▁Wal	-5231
▁Edinburgh	-5232
▁circumstances	-5233
▁acknowled	-5234
▁innov	-5235
▁session	-5236
▁sustain	-5237
▁handed	-5238
ickets	-5239
▁understanding	-5240
▁mask	-5241
▁1,000	-5242
▁Jordan	-5243
ores	-5244
▁vast	-5245
esperson	-5246
▁confirm	-5247
▁Georgia	-5248
▁facilities	-5249
▁Jeremy	-5250
▁shift	-5251
▁infection	-5252
eman	-5253
roll	-5254
▁publicly	-5255
ita	-5256
aped	-5257
▁arrang	-5258
▁tar	-5259
▁species	-5260
▁favourite	-5261
▁laugh	-5262
▁inquiry	-5263
cks	-5264
▁Anth	-5265
▁Lewis	-5266
rier	-5267
▁birthday	-5268
▁Fam	-5269
▁42	-5270
▁trend	-5271
▁films	-5272
▁returning	-5273
▁watched	-5274
ellow	-5275
▁widely	-5276
achment	-5277
▁organiz	-5278
▁crimes	-5279
▁buying	-5280
▁ruled	-5281
osure	-5282
▁degree	-5283
▁Tony	-5284
▁Ram	-5285
▁Us	-5286
▁agent	-5287
▁Bul	-5288
▁Four	-5289
▁split	-5290
ela	-5291
▁conducted	-5292
.C.	-5293
▁express	-5294
▁Tory	-5295
phone	-5296
▁Mosc	-5297
▁helps	-5298
idelines	-5299
▁occup	-5300
▁RT	-5301
▁illness	-5302
▁faith	-5303
▁mand	-5304
▁entertain	-5305
▁marg	-5306
lies	-5307
▁univers	-5308
▁promised	-5309
▁Cru	-5310
▁vent	-5311
▁walked	-5312
▁involve	-5313
▁attended	-5314
▁wave	-5315
flix	-5316
▁earth	-5317
▁direction	-5318
▁stands	-5319
▁Rem	-5320
▁edge	-5321
▁Turk	-5322
▁adults	-5323
▁driven	-5324
orrow	-5325
ecution	-5326
akh	-5327
mates	-5328
▁resol	-5329
burg	-5330
▁Only	-5331
▁easier	-5332
rep	-5333
▁gain	-5334
orders	-5335
▁Hen	-5336
▁sentence	-5337
▁lawmakers	-5338
▁possibility	-5339
▁immediate	-5340
▁shopping	-5341
▁spokesperson	-5342
aint	-5343
▁quarant	-5344
▁programs	-5345
▁fish	-5346
▁unemp	-5347
idency	-5348
▁Carl	-5349
▁Foot	-5350
▁McD	-5351
usion	-5352
▁ring	-5353
▁Kevin	-5354
▁distance	-5355
▁therap	-5356
▁Netflix	-5357
▁55	-5358
▁Sen.	-5359
▁writer	-5360
▁apply	-5361
▁coalition	-5362
▁hun	-5363
▁surge	-5364
▁familiar	-5365
▁Adam	-5366
▁function	-5367
ili	-5368
▁Moscow	-5369
aks	-5370
▁Glas	-5371
▁obviously	-5372
▁correct	-5373
rave	-5374
▁MORE	-5375
▁orders	-5376
▁becomes	-5377
▁soldiers	-5378
▁ideas	-5379
oking	-5380
▁hate	-5381
▁notice	-5382
ivals	-5383
▁corruption	-5384
▁Your	-5385
IC	-5386
▁Work	-5387
isher	-5388
ronic	-5389
▁resident	-5390
▁Mont	-5391
▁Canad	-5392
▁crucial	-5393
▁Kat	-5394
▁volunte	-5395
whel	-5396
▁Dou	-5397
▁targeted	-5398
▁Fe	-5399
▁ultimately	-5400
▁Conservative	-5401
iest	-5402
▁categ	-5403
▁nurs	-5404
▁ABC	-5405
▁banned	-5406
▁plus	-5407
▁statements	-5408
▁Social	-5409
▁remove	-5410
▁Ca	-5411
▁Walk	-5412
▁skills	-5413
▁Turn	-5414
eces	-5415
ader	-5416
cean	-5417
▁Des	-5418
▁alternative	-5419
▁Hot	-5420
▁consumer	-5421
▁Hillary	-5422
▁Young	-5423
▁Israeli	-5424
▁deeply	-5425
encing	-5426
▁insisted	-5427
▁institutions	-5428
▁Brad	-5429
▁blow	-5430
▁considering	-5431
▁interested	-5432
onym	-5433
▁associated	-5434
▁payments	-5435
▁River	-5436
▁rent	-5437
▁Long	-5438
▁parent	-5439
▁44	-5440
▁bench	-5441
▁Show	-5442
▁dollar	-5443
▁perman	-5444
▁max	-5445
▁41	-5446
▁greatest	-5447
▁explain	-5448
▁causing	-5449
gow	-5450
▁St.	-5451
▁2007	-5452
▁Yes	-5453
▁threatened	-5454
▁Ten	-5455
▁editor	-5456
▁Army	-5457
iffs	-5458
vis	-5459
▁Dub	-5460
▁Centre	-5461
▁a.m.	-5462
▁extended	-5463
▁Cast	-5464
▁Sher	-5465
▁Anthony	-5466
aching	-5467
▁Ty	-5468
▁Ol	-5469
▁Cat	-5470
ien	-5471
▁duty	-5472
▁nations	-5473
▁likes	-5474
ES	-5475
▁dinner	-5476
ansion	-5477
▁NSW	-5478
aire	-5479
▁goods	-5480
▁Club	-5481
icious	-5482
▁collabor	-5483
ducing	-5484
inson	-5485
ette	-5486
▁connection	-5487
urd	-5488
▁labor	-5489
▁filled	-5490
▁matters	-5491
▁coverage	-5492
oving	-5493
▁rejected	-5494
▁deputy	-5495
ounded	-5496
▁Professor	-5497
▁Ter	-5498
▁location	-5499
ias	-5500
acked	-5501
usted	-5502
▁village	-5503
▁cultural	-5504
▁entirely	-5505
▁chain	-5506
▁400	-5507
▁eld	-5508
cer	-5509
▁plastic	-5510
reek	-5511
▁exhib	-5512
▁withdraw	-5513
▁Sus	-5514
iana	-5515
▁polls	-5516
RA	-5517
▁Celt	-5518
orry	-5519
▁spirit	-5520
▁struggle	-5521
▁ministers	-5522
▁videos	-5523
▁Lo	-5524
ushed	-5525
▁uses	-5526
▁remind	-5527
▁celeb	-5528
▁nor	-5529
▁Sol	-5530
▁theat	-5531
▁carbon	-5532
▁prefer	-5533
rett	-5534
ilton	-5535
ricult	-5536
▁Cub	-5537
amm	-5538
▁Steven	-5539
ca	-5540
look	-5541
▁predict	-5542
▁Media	-5543
mitted	-5544
ucks	-5545
▁Coll	-5546
oly	-5547
▁mayor	-5548
▁diss	-5549
▁emph	-5550
▁lawyers	-5551
▁Look	-5552
▁Kent	-5553
▁Palestin	-5554
▁identity	-5555
▁Mass	-5556
▁threats	-5557
▁sees	-5558
▁FI	-5559
▁impossible	-5560
▁terrorist	-5561
▁presented	-5562
utch	-5563
eter	-5564
▁internal	-5565
▁authority	-5566
sewhere	-5567
▁controversial	-5568
▁maintain	-5569
▁rein	-5570
▁Sea	-5571
icken	-5572
▁tackle	-5573
▁grown	-5574
▁Church	-5575
▁Squ	-5576
▁Best	-5577
▁Sl	-5578
ption	-5579
▁bath	-5580
▁Glasgow	-5581
ortunately	-5582
▁recover	-5583
▁adds	-5584
▁lux	-5585
itors	-5586
▁distancing	-5587
▁bare	-5588
▁transition	-5589
uate	-5590
▁Whe	-5591
▁raising	-5592
▁Director	-5593
▁hits	-5594
▁receiving	-5595
▁65	-5596
▁regime	-5597
▁flu	-5598
sey	-5599
▁truly	-5600
▁everybody	-5601
▁identify	-5602
▁unus	-5603
▁Disney	-5604
▁cha	-5605
▁egg	-5606
hell	-5607
-p	-5608
lusion	-5609
▁Gal	-5610
ifying	-5611
▁shots	-5612
▁relatively	-5613
▁lawsuit	-5614
▁nom	-5615
▁chances	-5616
▁Watch	-5617
▁43	-5618
▁bright	-5619
▁powers	-5620
▁basic	-5621
▁claiming	-5622
▁allies	-5623
▁Don	-5624
pet	-5625
▁Ju	-5626
▁organis	-5627
▁aband	-5628
▁emissions	-5629
▁glo	-5630
▁Warren	-5631
▁fewer	-5632
ersey	-5633
standing	-5634
▁closely	-5635
.A.	-5636
▁Aff	-5637
▁wine	-5638
uster	-5639
▁entered	-5640
▁corporate	-5641
▁ride	-5642
DA	-5643
▁terrorism	-5644
▁visited	-5645
▁Kate	-5646
▁ceremony	-5647
▁gay	-5648
▁discl	-5649
▁priority	-5650
▁panel	-5651
▁Sports	-5652
▁activists	-5653
▁overwhel	-5654
▁continuing	-5655
iverse	-5656
▁Eliz	-5657
▁princip	-5658
▁swim	-5659
▁festival	-5660
een	-5661
▁historic	-5662
▁gang	-5663
▁army	-5664
▁devices	-5665
▁Jac	-5666
▁worker	-5667
action	-5668
▁interesting	-5669
▁teacher	-5670
▁decline	-5671
NP	-5672
▁Turkish	-5673
▁facility	-5674
▁remark	-5675
▁beauty	-5676
ican	-5677
ocol	-5678
abeth	-5679
atically	-5680
▁empt	-5681
illy	-5682
▁Ba	-5683
▁buildings	-5684
▁ending	-5685
▁leads	-5686
▁overs	-5687
▁independence	-5688
▁Econom	-5689
▁excited	-5690
▁Ministry	-5691
rees	-5692
▁shape	-5693
▁Su	-5694
icated	-5695
erves	-5696
▁Madrid	-5697
▁computer	-5698
▁condem	-5699
ez	-5700
▁Afghanistan	-5701
▁optim	-5702
▁trouble	-5703
▁earned	-5704
apers	-5705
▁values	-5706
▁industrial	-5707
▁flying	-5708
ubb	-5709
▁none	-5710
▁consequences	-5711
▁Jr	-5712
▁vs	-5713
/2	-5714
odes	-5715
orial	-5716
▁colour	-5717
▁possibly	-5718
uests	-5719
▁appoint	-5720
▁Murray	-5721
▁attacked	-5722
▁suicide	-5723
▁belong	-5724
ova	-5725
▁teachers	-5726
▁forg	-5727
▁vital	-5728
ource	-5729
▁incredible	-5730
inder	-5731
ella	-5732
▁Davis	-5733
▁pace	-5734
▁Where	-5735
▁Force	-5736
▁characters	-5737
▁AC	-5738
▁diet	-5739
▁gap	-5740
▁sweet	-5741
empts	-5742
▁vision	-5743
▁Dun	-5744
▁Among	-5745
▁heads	-5746
▁Ariz	-5747
▁Hear	-5748
▁involving	-5749
▁apartment	-5750
alling	-5751
▁unless	-5752
▁Olympic	-5753
ker	-5754
ooth	-5755
▁occurred	-5756
izz	-5757
▁congress	-5758
▁YouT	-5759
▁seasons	-5760
▁magazine	-5761
▁Agency	-5762
echan	-5763
▁equal	-5764
enda	-5765
▁Game	-5766
▁turns	-5767
▁factors	-5768
▁returns	-5769
ipping	-5770
▁GOP	-5771
▁waste	-5772
▁Leg	-5773
▁importance	-5774
▁approval	-5775
▁taxes	-5776
▁discrim	-5777
▁Arabia	-5778
▁convicted	-5779
▁forecast	-5780
ception	-5781
▁scandal	-5782
▁Iranian	-5783
▁Queensland	-5784
▁Str	-5785
▁chemical	-5786
▁shortly	-5787
▁Human	-5788
▁aimed	-5789
▁zone	-5790
▁Foundation	-5791
▁Tour	-5792
▁infections	-5793
▁outs	-5794
che	-5795
▁reaction	-5796
▁package	-5797
▁purpose	-5798
▁garden	-5799
rog	-5800
ervation	-5801
▁surface	-5802
▁contributed	-5803
▁neck	-5804
▁Greece	-5805
▁spokeswoman	-5806
emen	-5807
▁aggressive	-5808
▁ast	-5809
▁Care	-5810
▁Int	-5811
▁Valley	-5812
▁dry	-5813
▁Wilson	-5814
ixt	-5815
▁Pacific	-5816
▁Follow	-5817
▁bound	-5818
▁pushing	-5819
▁pal	-5820
▁kitchen	-5821
▁Bost	-5822
ellor	-5823
▁friendly	-5824
asters	-5825
bridge	-5826
ali	-5827
gas	-5828
▁rescue	-5829
ashes	-5830
verse	-5831
▁Labor	-5832
▁Back	-5833
resa	-5834
▁Av	-5835
▁Asian	-5836
▁assistant	-5837
ologist	-5838
igrant	-5839
▁generally	-5840
▁Business	-5841
▁ISIS	-5842
▁attempted	-5843
▁prosecutors	-5844
itarian	-5845
enders	-5846
▁Photograph	-5847
▁Hou	-5848
▁Ross	-5849
ius	-5850
▁dance	-5851
▁Hu	-5852
erous	-5853
▁user	-5854
LA	-5855
▁meat	-5856
▁meetings	-5857
▁coord	-5858
▁pen	-5859
▁ment	-5860
▁Company	-5861
▁Beach	-5862
inct	-5863
▁Stadium	-5864
▁appropriate	-5865
arch	-5866
echn	-5867
▁occasion	-5868
▁passing	-5869
osite	-5870
▁NA	-5871
▁tow	-5872
▁harass	-5873
▁Conn	-5874
uts	-5875
▁assets	-5876
▁roughly	-5877
▁infected	-5878
▁earnings	-5879
▁Stan	-5880
▁toll	-5881
loyd	-5882
▁lob	-5883
embly	-5884
▁critics	-5885
▁proved	-5886
iat	-5887
▁device	-5888
▁losses	-5889
▁46	-5890
▁Though	-5891
▁apparently	-5892
▁horri	-5893
▁lots	-5894
SP	-5895
▁models	-5896
▁nav	-5897
▁Bud	-5898
▁hat	-5899
▁Ox	-5900
aze	-5901
▁impeachment	-5902
pective	-5903
ishes	-5904
adow	-5905
▁Osc	-5906
▁summit	-5907
ibr	-5908
▁ends	-5909
▁otherwise	-5910
▁Senator	-5911
▁busy	-5912
▁county	-5913
▁47	-5914
pects	-5915
▁attempts	-5916
▁Elizabeth	-5917
▁usual	-5918
▁notes	-5919
uated	-5920
▁replace	-5921
▁Lu	-5922
▁understood	-5923
▁regularly	-5924
▁comfortable	-5925
▁Nic	-5926
▁advance	-5927
berts	-5928
▁core	-5929
ket	-5930
imin	-5931
▁suspected	-5932
▁doors	-5933
▁tonight	-5934
▁embr	-5935
▁flow	-5936
▁territory	-5937
▁Boston	-5938
▁artists	-5939
▁ties	-5940
▁Jess	-5941
place	-5942
road	-5943
keep	-5944
▁fundament	-5945
▁dogs	-5946
▁Life	-5947
▁significantly	-5948
▁ing	-5949
▁determine	-5950
▁moves	-5951
▁intended	-5952
▁boat	-5953
▁scoring	-5954
▁listen	-5955
▁trick	-5956
▁Credit	-5957
▁viewers	-5958
EC	-5959
▁Time	-5960
▁cricket	-5961
▁brill	-5962
MA	-5963
gl	-5964
▁Treas	-5965
enez	-5966
▁resolution	-5967
▁journalists	-5968
▁Ep	-5969
▁belief	-5970
ING	-5971
▁compar	-5972
▁route	-5973
▁heavily	-5974
▁talent	-5975
▁Jenn	-5976
▁manage	-5977
▁causes	-5978
OR	-5979
▁effectively	-5980
iversary	-5981
▁UPI	-5982
▁Fund	-5983
▁minimum	-5984
ko	-5985
▁alive	-5986
▁sending	-5987
rig	-5988
▁sand	-5989
hone	-5990
▁motiv	-5991
▁planet	-5992
▁offensive	-5993
▁adviser	-5994
▁Mount	-5995
▁popul	-5996
▁cy	-5997
▁rom	-5998
▁investigating	-5999
▁shif	-6000
▁surprised	-6001
enses	-6002
▁coffee	-6003
▁transp	-6004
▁pray	-6005
▁Marc	-6006
▁strengt	-6007
▁semi	-6008
SE	-6009
▁Moham	-6010
▁behavior	-6011
▁Market	-6012
▁stated	-6013
▁YouTube	-6014
▁targets	-6015
▁introdu	-6016
▁Nigeria	-6017
▁2,	-6018
▁houses	-6019
▁disaster	-6020
▁memory	-6021
▁ble	-6022
▁celebrate	-6023
▁Di	-6024
utation	-6025
onnell	-6026
wan	-6027
▁ourselves	-6028
▁Rog	-6029
▁lit	-6030
▁integr	-6031
▁Canadian	-6032
▁remote	-6033
▁combined	-6034
▁holds	-6035
▁drawn	-6036
▁Associated	-6037
▁encourage	-6038
▁listed	-6039
▁cutting	-6040
▁brut	-6041
uting	-6042
▁exposed	-6043
pton	-6044
▁Arizona	-6045
▁farmers	-6046
▁yes	-6047
▁relax	-6048
otic	-6049
gment	-6050
▁neighborhood	-6051
▁pattern	-6052
▁controlled	-6053
▁Ly	-6054
▁curren	-6055
▁Global	-6056
▁Simon	-6057
aled	-6058
ja	-6059
▁Celtic	-6060
▁fill	-6061
▁Judge	-6062
▁depend	-6063
▁Cath	-6064
▁employment	-6065
,500	-6066
▁2021	-6067
ussels	-6068
▁nomine	-6069
▁substant	-6070
▁brings	-6071
▁Food	-6072
▁customer	-6073
▁tiny	-6074
▁master	-6075
ancellor	-6076
▁Vide	-6077
▁index	-6078
▁guests	-6079
▁zero	-6080
▁narrow	-6081
▁USA	-6082
▁accepted	-6083
▁Roberts	-6084
isa	-6085
acks	-6086
amin	-6087
▁Fair	-6088
▁dozens	-6089
▁Gall	-6090
▁magn	-6091
▁requires	-6092
▁Week	-6093
▁museum	-6094
▁Rangers	-6095
▁thinks	-6096
▁pieces	-6097
▁improved	-6098
▁scenes	-6099
icking	-6100
amples	-6101
▁mechan	-6102
▁trop	-6103
ere	-6104
▁Hay	-6105
▁heading	-6106
▁journalist	-6107
▁stake	-6108
▁emphas	-6109
▁struggled	-6110
▁Morgan	-6111
▁passion	-6112
▁cup	-6113
▁Blo	-6114
▁Ko	-6115
▁Mah	-6116
azz	-6117
▁surve	-6118
▁Matthew	-6119
▁dozen	-6120
▁impressive	-6121
▁Tes	-6122
▁keen	-6123
▁detail	-6124
assador	-6125
▁pregnant	-6126
fit	-6127
▁Michigan	-6128
▁photograp	-6129
▁enjoyed	-6130
▁Space	-6131
▁Lind	-6132
▁fake	-6133
▁shirt	-6134
▁Top	-6135
▁assistance	-6136
▁regulations	-6137
▁Mir	-6138
▁healthcare	-6139
▁stab	-6140
add	-6141
▁Barcel	-6142
resents	-6143
▁assum	-6144
▁anc	-6145
▁harder	-6146
okes	-6147
▁failing	-6148
fied	-6149
▁sets	-6150
▁tie	-6151
osis	-6152
▁plants	-6153
▁color	-6154
▁2006	-6155
▁imagine	-6156
▁outcome	-6157
mosp	-6158
iser	-6159
▁af	-6160
▁anticip	-6161
▁Sarah	-6162
▁demands	-6163
▁Somet	-6164
▁Reporting	-6165
▁worldwide	-6166
▁positions	-6167
▁Barcelona	-6168
acking	-6169
inem	-6170
▁talked	-6171
▁Spec	-6172
▁broadcast	-6173
▁52	-6174
▁Michel	-6175
▁drinking	-6176
umm	-6177
▁promise	-6178
▁stretch	-6179
▁retired	-6180
▁unemployment	-6181
▁Member	-6182
▁TH	-6183
▁Sk	-6184
▁tree	-6185
ively	-6186
▁background	-6187
▁finance	-6188
▁Ohio	-6189
▁Book	-6190
▁Houston	-6191
▁competitive	-6192
▁software	-6193
▁captured	-6194
▁€	-6195
▁satis	-6196
▁symb	-6197
▁directed	-6198
▁grab	-6199
▁Six	-6200
▁explains	-6201
▁Ok	-6202
▁kil	-6203
▁temperatures	-6204
▁51	-6205
▁machine	-6206
▁fallen	-6207
▁Pel	-6208
▁Hun	-6209
▁anniversary	-6210
ielder	-6211
▁tradition	-6212
▁IC	-6213
aug	-6214
▁originally	-6215
oor	-6216
▁Rose	-6217
▁Palace	-6218
▁guidelines	-6219
ylum	-6220
astern	-6221
▁accus	-6222
▁icon	-6223
iami	-6224
ba	-6225
▁sugar	-6226
▁dealing	-6227
▁signing	-6228
▁unclear	-6229
fall	-6230
▁2005	-6231
▁section	-6232
anny	-6233
▁Bir	-6234
▁routine	-6235
▁tomorrow	-6236
▁100,000	-6237
essed	-6238
▁forget	-6239
▁behalf	-6240
▁excell	-6241
aid	-6242
▁truck	-6243
ulf	-6244
FA	-6245
▁knee	-6246
▁headed	-6247
▁mir	-6248
▁stuck	-6249
▁evac	-6250
▁tact	-6251
▁2000	-6252
▁monit	-6253
▁hal	-6254
▁typically	-6255
▁expectations	-6256
▁Kl	-6257
pro	-6258
▁Ford	-6259
▁spoken	-6260
▁Brussels	-6261
verty	-6262
▁threatening	-6263
▁Bry	-6264
▁Moore	-6265
▁blame	-6266
owa	-6267
▁Editing	-6268
▁Miami	-6269
▁Eric	-6270
▁closing	-6271
olit	-6272
under	-6273
▁Blue	-6274
west	-6275
▁defensive	-6276
nown	-6277
▁Ut	-6278
▁Kr	-6279
EN	-6280
▁racism	-6281
abled	-6282
▁extraord	-6283
▁agents	-6284
▁escape	-6285
▁ticket	-6286
▁featured	-6287
▁obvious	-6288
▁veteran	-6289
▁clients	-6290
apping	-6291
▁regarding	-6292
▁quarantine	-6293
▁AFP	-6294
▁Southern	-6295
holders	-6296
▁tied	-6297
▁square	-6298
▁Sn	-6299
da	-6300
▁150	-6301
▁rum	-6302
ovic	-6303
▁challenging	-6304
▁registered	-6305
▁poverty	-6306
iley	-6307
▁Hur	-6308
▁discussion	-6309
▁structure	-6310
▁represents	-6311
weight	-6312
▁organisation	-6313
▁deadly	-6314
arity	-6315
ords	-6316
nic	-6317
▁clothes	-6318
▁girlfriend	-6319
eled	-6320
▁rivals	-6321
▁FA	-6322
▁promin	-6323
▁upset	-6324
bro	-6325
ria	-6326
apse	-6327
▁Pen	-6328
ervatives	-6329
▁Way	-6330
ato	-6331
▁custody	-6332
▁trees	-6333
▁regions	-6334
▁eastern	-6335
espread	-6336
▁Medical	-6337
▁remarks	-6338
maker	-6339
▁Theresa	-6340
▁classic	-6341
▁Gh	-6342
▁angry	-6343
▁Belg	-6344
incess	-6345
▁cooperation	-6346
▁Science	-6347
ocratic	-6348
iral	-6349
▁pit	-6350
▁agenda	-6351
athered	-6352
▁Mueller	-6353
life	-6354
▁Little	-6355
▁Ali	-6356
▁Medic	-6357
▁bedroom	-6358
▁Journal	-6359
▁surprising	-6360
▁reaching	-6361
▁argument	-6362
▁surrounding	-6363
▁rooms	-6364
▁horse	-6365
▁division	-6366
▁brilliant	-6367
▁Vice	-6368
▁experiences	-6369
▁prepare	-6370
▁Channel	-6371
▁profession	-6372
▁drag	-6373
rations	-6374
▁producer	-6375
ED	-6376
:30	-6377
fire	-6378
▁hall	-6379
▁Meghan	-6380
▁stronger	-6381
ele	-6382
▁Graham	-6383
▁spotted	-6384
bl	-6385
▁staying	-6386
▁extrem	-6387
▁km	-6388
▁Games	-6389
▁compens	-6390
▁Supp	-6391
aron	-6392
▁connect	-6393
▁begins	-6394
quar	-6395
▁accur	-6396
▁roads	-6397
▁Jewish	-6398
▁Venez	-6399
▁Iowa	-6400
▁contrast	-6401
▁Sweden	-6402
▁discussed	-6403
▁comedy	-6404
IA	-6405
▁Cook	-6406
CA	-6407
rell	-6408
PA	-6409
asy	-6410
▁courts	-6411
▁Plan	-6412
▁fees	-6413
▁rural	-6414
▁wore	-6415
▁asylum	-6416
▁bail	-6417
▁spons	-6418
▁stadium	-6419
▁tur	-6420
FC	-6421
▁widespread	-6422
▁proposals	-6423
"s	-6424
iable	-6425
▁Venezuel	-6426
▁combat	-6427
▁Jen	-6428
▁racist	-6429
▁radical	-6430
▁bac	-6431
iences	-6432
▁concent	-6433
▁dating	-6434
ario	-6435
▁sight	-6436
▁GM	-6437
▁Roman	-6438
▁Video	-6439
▁analysts	-6440
▁delight	-6441
▁empty	-6442
sex	-6443
▁basket	-6444
▁jury	-6445
▁rape	-6446
fl	-6447
▁Hamilton	-6448
▁Hy	-6449
▁payment	-6450
▁instance	-6451
▁myster	-6452
isan	-6453
▁stocks	-6454
▁accomp	-6455
▁Acad	-6456
▁songs	-6457
▁earn	-6458
▁granted	-6459
▁types	-6460
▁pension	-6461
anna	-6462
vit	-6463
▁ge	-6464
▁connected	-6465
▁oblig	-6466
▁divor	-6467
▁atmosp	-6468
▁replaced	-6469
adi	-6470
▁performed	-6471
win	-6472
izes	-6473
▁Uber	-6474
▁Fil	-6475
▁unusual	-6476
▁factor	-6477
▁Pa	-6478
▁Independ	-6479
▁actual	-6480
▁humans	-6481
▁Delhi	-6482
▁lunch	-6483
▁54	-6484
▁follows	-6485
cious	-6486
ship	-6487
▁Vol	-6488
igg	-6489
▁shops	-6490
▁reveals	-6491
rooms	-6492
▁dramatic	-6493
▁coin	-6494
aret	-6495
▁Mayor	-6496
▁immigrants	-6497
▁Andy	-6498
▁comprom	-6499
▁intention	-6500
▁promote	-6501
▁mistake	-6502
DP	-6503
▁homeless	-6504
cho	-6505
▁Bru	-6506
▁Miller	-6507
▁Sud	-6508
▁Museum	-6509
▁ministry	-6510
▁elsewhere	-6511
▁Az	-6512
▁Dev	-6513
▁Men	-6514
▁tun	-6515
eph	-6516
▁Naz	-6517
▁western	-6518
▁hoped	-6519
▁Die	-6520
stone	-6521
▁forest	-6522
▁mouth	-6523
▁Broad	-6524
▁writes	-6525
▁Come	-6526
inals	-6527
▁Abd	-6528
▁1.5	-6529
uine	-6530
▁NAS	-6531
▁Town	-6532
put	-6533
▁concluded	-6534
▁Services	-6535
▁convention	-6536
▁pilot	-6537
ae	-6538
▁engaged	-6539
▁puts	-6540
10	-6541
▁Guardian	-6542
fast	-6543
▁enh	-6544
away	-6545
▁racial	-6546
▁bars	-6547
▁Sever	-6548
icing	-6549
▁movies	-6550
▁switch	-6551
▁stead	-6552
▁Nob	-6553
▁luxury	-6554
ansas	-6555
▁liberal	-6556
▁veget	-6557
▁10,000	-6558
▁lucky	-6559
▁sixth	-6560
▁complaint	-6561
▁Santa	-6562
▁Der	-6563
iants	-6564
▁finals	-6565
▁welcom	-6566
▁Ah	-6567
▁adult	-6568
▁elder	-6569
▁desire	-6570
▁Bang	-6571
▁newly	-6572
rage	-6573
uls	-6574
▁suc	-6575
́n	-6576
icit	-6577
▁properties	-6578
▁opposed	-6579
▁Commissioner	-6580
osen	-6581
▁Barack	-6582
▁Brian	-6583
▁visiting	-6584
▁Second	-6585
exp	-6586
▁subsid	-6587
▁Championship	-6588
▁spin	-6589
tering	-6590
▁studio	-6591
▁Elect	-6592
ommod	-6593
isb	-6594
▁golf	-6595
▁Attorney	-6596
▁posts	-6597
▁Mot	-6598
▁imposed	-6599
▁fought	-6600
▁strict	-6601
▁practices	-6602
▁permanent	-6603
▁193	-6604
▁manufacture	-6605
rators	-6606
▁mut	-6607
▁chat	-6608
idance	-6609
▁partnership	-6610
▁hitting	-6611
▁technical	-6612
▁abroad	-6613
▁cards	-6614
▁Wind	-6615
▁Mun	-6616
▁appreci	-6617
▁subsequ	-6618
▁Techn	-6619
respond	-6620
▁indeed	-6621
▁Patrick	-6622
▁traum	-6623
▁Rights	-6624
▁plot	-6625
acle	-6626
▁Develop	-6627
▁Greg	-6628
▁Las	-6629
▁Khan	-6630
▁investigators	-6631
▁acts	-6632
▁code	-6633
lers	-6634
▁entry	-6635
▁Wild	-6636
▁succeed	-6637
▁Family	-6638
▁loans	-6639
▁referred	-6640
▁53	-6641
▁genuine	-6642
uations	-6643
▁Polit	-6644
agh	-6645
▁Water	-6646
▁ped	-6647
▁informed	-6648
.30	-6649
uction	-6650
abilities	-6651
▁marked	-6652
▁exit	-6653
oves	-6654
▁NBA	-6655
OS	-6656
▁appointed	-6657
force	-6658
▁abortion	-6659
▁counsel	-6660
▁purchase	-6661
IV	-6662
inho	-6663
▁Burn	-6664
▁prospect	-6665
nergy	-6666
▁replied	-6667
▁Administ	-6668
formation	-6669
▁outdo	-6670
▁airline	-6671
▁amend	-6672
▁Anton	-6673
▁creative	-6674
▁recalled	-6675
▁suddenly	-6676
bell	-6677
▁laid	-6678
▁Roy	-6679
▁Orig	-6680
olk	-6681
▁Ul	-6682
▁roles	-6683
▁temporary	-6684
▁passenger	-6685
▁accommod	-6686
▁fatal	-6687
▁READ	-6688
▁application	-6689
▁intense	-6690
▁dial	-6691
▁gathered	-6692
▁opponents	-6693
▁respective	-6694
▁Crown	-6695
▁Hor	-6696
▁ec	-6697
▁employee	-6698
▁Having	-6699
▁finds	-6700
▁Bell	-6701
▁mail	-6702
die	-6703
▁stayed	-6704
▁NBC	-6705
yo	-6706
▁joining	-6707
▁escal	-6708
raph	-6709
▁peak	-6710
▁located	-6711
▁saved	-6712
w.	-6713
▁Lyn	-6714
▁sac	-6715
▁missile	-6716
▁Jersey	-6717
▁obst	-6718
▁update	-6719
▁Rub	-6720
▁craz	-6721
▁bom	-6722
▁totally	-6723
▁lift	-6724
▁instruct	-6725
▁percentage	-6726
▁Marg	-6727
▁scientific	-6728
ricane	-6729
▁strongly	-6730
uches	-6731
▁lie	-6732
▁overt	-6733
▁height	-6734
▁gall	-6735
▁presidency	-6736
▁hyp	-6737
▁Educ	-6738
▁aside	-6739
▁Fort	-6740
ww.	-6741
loyed	-6742
town	-6743
▁properly	-6744
▁pin	-6745
▁relationships	-6746
▁Dam	-6747
▁agricult	-6748
TA	-6749
▁guidance	-6750
▁investigate	-6751
▁Power	-6752
▁overseas	-6753
▁Children	-6754
▁estimates	-6755
▁enth	-6756
uous	-6757
▁numerous	-6758
▁Jason	-6759
▁Radio	-6760
▁exciting	-6761
▁exclusive	-6762
▁Justin	-6763
▁stepped	-6764
▁judges	-6765
▁Argent	-6766
earing	-6767
▁Iv	-6768
▁calc	-6769
▁explo	-6770
▁legend	-6771
▁documentary	-6772
▁dismissed	-6773
uce	-6774
igned	-6775
▁handle	-6776
▁wonderful	-6777
▁bear	-6778
▁upcoming	-6779
▁announce	-6780
▁Asked	-6781
▁Board	-6782
▁prote	-6783
▁diagnosed	-6784
▁mal	-6785
▁sentenced	-6786
▁pounds	-6787
▁sky	-6788
▁Andre	-6789
▁knowing	-6790
▁sounds	-6791
▁Ever	-6792
▁Football	-6793
▁temperature	-6794
▁wage	-6795
▁gained	-6796
▁du	-6797
ulous	-6798
▁Exp	-6799
▁destroyed	-6800
▁unw	-6801
▁Eth	-6802
▁archit	-6803
▁preparing	-6804
▁excess	-6805
▁franch	-6806
▁Live	-6807
AP	-6808
▁founded	-6809
▁mere	-6810
▁scre	-6811
▁Pros	-6812
reced	-6813
▁athletes	-6814
bec	-6815
▁Vegas	-6816
▁cart	-6817
▁OK	-6818
recedented	-6819
▁materials	-6820
▁alert	-6821
▁variety	-6822
▁anonym	-6823
▁increases	-6824
▁bills	-6825
▁unve	-6826
▁euro	-6827
▁lad	-6828
▁trained	-6829
▁Gov.	-6830
▁stim	-6831
▁please	-6832
▁province	-6833
▁Several	-6834
ait	-6835
▁Jr.	-6836
▁borrow	-6837
,9	-6838
▁tourists	-6839
▁virtual	-6840
ologies	-6841
icy	-6842
▁incredibly	-6843
▁joy	-6844
▁retirement	-6845
▁adopted	-6846
▁locations	-6847
▁resort	-6848
▁Abb	-6849
▁Jose	-6850
▁Som	-6851
▁travelling	-6852
▁Lake	-6853
aun	-6854
▁Kn	-6855
idden	-6856
▁phase	-6857
▁Ill	-6858
rene	-6859
usal	-6860
▁Sport	-6861
▁cheap	-6862
▁extraordinary	-6863
▁mixed	-6864
▁complaints	-6865
oles	-6866
▁2004	-6867
hat	-6868
▁Cooper	-6869
▁SNP	-6870
▁pup	-6871
▁musc	-6872
▁Oper	-6873
▁Treasury	-6874
▁neither	-6875
▁shout	-6876
▁participants	-6877
▁N.	-6878
fielder	-6879
ounced	-6880
▁unprecedented	-6881
▁Five	-6882
▁strikes	-6883
▁survive	-6884
▁Berlin	-6885
▁reputation	-6886
▁insist	-6887
▁56	-6888
▁pod	-6889
▁Emer	-6890
▁anxiety	-6891
▁constit	-6892
▁wider	-6893
▁dedicated	-6894
▁deleg	-6895
pper	-6896
▁Jay	-6897
pay	-6898
ordon	-6899
▁troub	-6900
aling	-6901
ext	-6902
▁paint	-6903
▁conspir	-6904
▁Major	-6905
kes	-6906
▁Ren	-6907
▁organizations	-6908
▁pow	-6909
heast	-6910
▁anywhere	-6911
▁capable	-6912
▁sequ	-6913
▁manufacturing	-6914
▁Alexander	-6915
▁privacy	-6916
▁maximum	-6917
▁Pan	-6918
ded	-6919
▁entering	-6920
▁protected	-6921
ilit	-6922
ography	-6923
▁calm	-6924
▁recovered	-6925
▁anger	-6926
▁currency	-6927
▁lies	-6928
ye	-6929
▁shoulder	-6930
▁Maybe	-6931
▁Anderson	-6932
▁Bal	-6933
▁unn	-6934
▁formal	-6935
▁57	-6936
iveness	-6937
▁64	-6938
▁Golden	-6939
▁Dod	-6940
▁Defense	-6941
▁detect	-6942
▁Greek	-6943
met	-6944
▁forms	-6945
uits	-6946
▁uncertainty	-6947
▁Each	-6948
▁questioned	-6949
▁discussions	-6950
▁terrible	-6951
▁schedule	-6952
▁Energy	-6953
▁adapt	-6954
▁legs	-6955
▁Sum	-6956
▁acknowledged	-6957
▁Trust	-6958
▁investigations	-6959
▁2003	-6960
▁fighters	-6961
▁arrival	-6962
.99	-6963
▁inflation	-6964
lete	-6965
▁supplies	-6966
▁argue	-6967
iti	-6968
▁PA	-6969
iscal	-6970
▁GP	-6971
assy	-6972
▁followers	-6973
▁Night	-6974
▁Cruz	-6975
known	-6976
▁Academy	-6977
▁faster	-6978
ylv	-6979
▁tank	-6980
ta	-6981
▁73	-6982
▁pleas	-6983
▁touchdown	-6984
▁suggesting	-6985
▁spr	-6986
▁jack	-6987
adel	-6988
▁surviv	-6989
▁opposite	-6990
▁excellent	-6991
▁Gi	-6992
eping	-6993
▁breast	-6994
xy	-6995
IT	-6996
▁Bloom	-6997
▁musical	-6998
▁Following	-6999
▁Girl	-7000
▁Fred	-7001
▁rugby	-7002
PR	-7003
▁grounds	-7004
▁boyfriend	-7005
▁arrive	-7006
▁loyal	-7007
aph	-7008
▁advanced	-7009
ST	-7010
▁operate	-7011
▁incidents	-7012
▁Brisb	-7013
real	-7014
▁Pu	-7015
uties	-7016
▁context	-7017
▁Brisbane	-7018
▁minority	-7019
idays	-7020
▁Leices	-7021
sters	-7022
nam	-7023
▁Ray	-7024
▁favorite	-7025
amber	-7026
▁pock	-7027
▁achieved	-7028
▁Totten	-7029
▁chose	-7030
▁initiative	-7031
▁Cost	-7032
▁hole	-7033
worth	-7034
▁wal	-7035
▁mentioned	-7036
can	-7037
iano	-7038
▁dies	-7039
▁prompted	-7040
▁landsc	-7041
▁iPhone	-7042
hetic	-7043
▁referring	-7044
▁Fur	-7045
▁yield	-7046
▁Ret	-7047
▁clinical	-7048
rehens	-7049
▁brands	-7050
▁flex	-7051
▁marketing	-7052
ylvania	-7053
▁encouraged	-7054
▁cameras	-7055
▁waters	-7056
▁helic	-7057
▁stro	-7058
▁somebody	-7059
▁Tottenham	-7060
irty	-7061
▁quarterback	-7062
▁+	-7063
▁hang	-7064
▁Penns	-7065
▁helicop	-7066
▁Color	-7067
▁Tok	-7068
▁personnel	-7069
▁guide	-7070
▁slam	-7071
▁Philipp	-7072
▁applied	-7073
▁Perhaps	-7074
▁teenager	-7075
▁Everyone	-7076
▁invited	-7077
▁epid	-7078
▁specifically	-7079
▁tariffs	-7080
▁Gun	-7081
▁yellow	-7082
boy	-7083
▁overnight	-7084
▁liqu	-7085
oster	-7086
▁selection	-7087
//	-7088
▁solutions	-7089
▁tickets	-7090
market	-7091
▁Ap	-7092
arrass	-7093
▁affairs	-7094
▁extend	-7095
imp	-7096
▁mine	-7097
▁scrutin	-7098
▁channel	-7099
▁blast	-7100
how	-7101
▁LG	-7102
riers	-7103
igen	-7104
stream	-7105
▁adopt	-7106
ework	-7107
▁murd	-7108
▁nut	-7109
eding	-7110
▁Bowl	-7111
▁shocked	-7112
▁Jer	-7113
ighth	-7114
▁deliber	-7115
elfare	-7116
ika	-7117
▁boot	-7118
▁fee	-7119
ureau	-7120
▁Prog	-7121
udd	-7122
▁Such	-7123
▁extent	-7124
▁Chair	-7125
ensus	-7126
▁Pennsylvania	-7127
▁Henry	-7128
▁reporter	-7129
▁Represent	-7130
▁Da	-7131
▁600	-7132
DC	-7133
://	-7134
▁lowest	-7135
mate	-7136
▁cert	-7137
ynam	-7138
▁Airport	-7139
▁weapon	-7140
rant	-7141
▁thoughts	-7142
▁cited	-7143
▁enorm	-7144
▁reforms	-7145
▁dispute	-7146
▁Bridge	-7147
▁Joseph	-7148
▁drove	-7149
▁Viet	-7150
▁compete	-7151
▁tensions	-7152
▁termin	-7153
▁postp	-7154
neys	-7155
▁desperate	-7156
ifer	-7157
anes	-7158
▁Call	-7159
▁gift	-7160
▁Muslims	-7161
▁Govern	-7162
▁transl	-7163
▁revolution	-7164
▁saving	-7165
▁DNA	-7166
rates	-7167
ushing	-7168
▁fled	-7169
▁wheel	-7170
▁nomination	-7171
▁concert	-7172
▁correspond	-7173
▁managing	-7174
▁playoff	-7175
▁tries	-7176
▁Rom	-7177
▁interact	-7178
▁Bab	-7179
▁actors	-7180
▁borders	-7181
▁gains	-7182
▁drew	-7183
▁Rep.	-7184
hatt	-7185
raid	-7186
▁Cra	-7187
▁fires	-7188
▁72	-7189
▁fruit	-7190
▁vess	-7191
▁phones	-7192
▁collapse	-7193
▁combination	-7194
▁Walker	-7195
▁58	-7196
▁democratic	-7197
▁blog	-7198
▁reven	-7199
▁detailed	-7200
▁Ian	-7201
▁2001	-7202
▁river	-7203
▁officially	-7204
▁probe	-7205
▁Education	-7206
▁offices	-7207
▁embarrass	-7208
▁syn	-7209
▁gent	-7210
▁clim	-7211
▁citing	-7212
▁thrown	-7213
▁atmosphere	-7214
▁Nad	-7215
▁Eve	-7216
imal	-7217
▁encoun	-7218
achel	-7219
▁reducing	-7220
▁sorry	-7221
▁sparked	-7222
▁Jonathan	-7223
▁streaming	-7224
▁king	-7225
▁Ast	-7226
▁Ball	-7227
▁Jean	-7228
itage	-7229
▁tribute	-7230
▁Awards	-7231
▁racing	-7232
▁ballot	-7233
▁stable	-7234
olen	-7235
▁Laur	-7236
onom	-7237
ernand	-7238
areness	-7239
▁profits	-7240
▁Olympics	-7241
▁keeps	-7242
▁guess	-7243
▁cream	-7244
▁Indones	-7245
▁smoke	-7246
▁traged	-7247
▁Again	-7248
▁limits	-7249
mo	-7250
▁intent	-7251
▁sch	-7252
▁Pay	-7253
▁striker	-7254
▁intens	-7255
▁Square	-7256
▁formed	-7257
▁ham	-7258
geon	-7259
ether	-7260
▁Local	-7261
▁tennis	-7262
▁climb	-7263
▁reli	-7264
ei	-7265
▁winds	-7266
▁blocked	-7267
▁threw	-7268
▁Domin	-7269
▁bon	-7270
▁Commons	-7271
▁cabinet	-7272
castle	-7273
▁AN	-7274
itzer	-7275
aro	-7276
▁Oscar	-7277
▁tall	-7278
zy	-7279
▁unknown	-7280
▁beating	-7281
▁chosen	-7282
11	-7283
▁59	-7284
▁backing	-7285
▁degrees	-7286
▁checks	-7287
▁performing	-7288
▁prize	-7289
▁sup	-7290
▁Cro	-7291
gage	-7292
▁McK	-7293
▁units	-7294
▁Columb	-7295
onduct	-7296
illance	-7297
▁Lam	-7298
▁sevent	-7299
▁Festival	-7300
▁Mour	-7301
▁expansion	-7302
▁extr	-7303
▁milk	-7304
▁funny	-7305
▁harassment	-7306
orage	-7307
▁Charlie	-7308
▁punish	-7309
RC	-7310
emble	-7311
▁collaps	-7312
▁Id	-7313
▁featuring	-7314
▁welcomed	-7315
▁damaged	-7316
kel	-7317
oric	-7318
▁advised	-7319
▁misc	-7320
▁Princess	-7321
▁Micro	-7322
▁represented	-7323
▁speaks	-7324
▁lying	-7325
▁endors	-7326
▁clash	-7327
▁Barb	-7328
▁gre	-7329
▁rapp	-7330
▁activist	-7331
▁alarm	-7332
state	-7333
▁Did	-7334
▁Cross	-7335
cts	-7336
ports	-7337
▁Leon	-7338
▁hosts	-7339
▁motion	-7340
▁string	-7341
lan	-7342
▁Macron	-7343
▁nobody	-7344
▁mainly	-7345
▁tum	-7346
▁stunning	-7347
▁networks	-7348
▁settlement	-7349
▁accel	-7350
▁lights	-7351
▁sli	-7352
▁counts	-7353
▁ethnic	-7354
▁casual	-7355
▁strategic	-7356
▁tools	-7357
▁Mexican	-7358
▁66	-7359
▁theory	-7360
athy	-7361
aser	-7362
▁begun	-7363
▁advertising	-7364
▁multi	-7365
▁nominee	-7366
rating	-7367
▁Hard	-7368
▁solar	-7369
▁J.	-7370
▁urban	-7371
▁Others	-7372
▁Dall	-7373
▁Hotel	-7374
▁Navy	-7375
▁enthus	-7376
▁Gordon	-7377
▁62	-7378
▁cycle	-7379
▁strange	-7380
▁Sept.	-7381
umped	-7382
▁reass	-7383
▁prominent	-7384
▁sensitive	-7385
▁fest	-7386
▁barely	-7387
▁Right	-7388
▁childhood	-7389
onia	-7390
▁Leicester	-7391
▁UC	-7392
▁marks	-7393
▁innings	-7394
▁delayed	-7395
▁facts	-7396
gered	-7397
▁normally	-7398
▁Atlanta	-7399
▁handling	-7400
▁Jamie	-7401
▁auth	-7402
▁Yemen	-7403
▁disappointed	-7404
▁mos	-7405
▁expects	-7406
▁departure	-7407
lad	-7408
▁Sub	-7409
▁instr	-7410
▁contracts	-7411
▁flav	-7412
▁championship	-7413
eland	-7414
phia	-7415
▁ups	-7416
▁concept	-7417
▁implic	-7418
bb	-7419
▁Atlantic	-7420
ateful	-7421
▁jailed	-7422
▁reopen	-7423
▁legit	-7424
▁performances	-7425
▁Series	-7426
▁deadline	-7427
▁Newcastle	-7428
▁discrimination	-7429
▁gym	-7430
▁consecutive	-7431
▁barrel	-7432
IL	-7433
▁classes	-7434
▁detained	-7435
▁Community	-7436
▁designer	-7437
▁Administration	-7438
▁cinem	-7439
▁settle	-7440
▁Team	-7441
▁cann	-7442
▁command	-7443
olly	-7444
▁native	-7445
▁frequently	-7446
▁Floyd	-7447
▁suffer	-7448
15	-7449
▁taste	-7450
▁ramp	-7451
▁nationwide	-7452
▁absence	-7453
aved	-7454
▁executives	-7455
acement	-7456
▁Society	-7457
ira	-7458
▁devastating	-7459
▁adjust	-7460
▁Hist	-7461
etime	-7462
▁savings	-7463
▁Indust	-7464
▁End	-7465
heless	-7466
▁Philadel	-7467
▁jet	-7468
▁Craig	-7469
▁trials	-7470
▁extension	-7471
▁tears	-7472
▁Duke	-7473
▁funded	-7474
▁shr	-7475
▁entertainment	-7476
writ	-7477
▁defender	-7478
▁prepar	-7479
ancer	-7480
▁elig	-7481
▁sustainable	-7482
▁Kenned	-7483
▁Palestinian	-7484
▁bridge	-7485
▁fiscal	-7486
▁slowly	-7487
iner	-7488
▁iron	-7489
rative	-7490
▁85	-7491
▁Philadelphia	-7492
abet	-7493
▁rig	-7494
▁Alab	-7495
yer	-7496
▁fantastic	-7497
▁file	-7498
▁differences	-7499
▁Rs	-7500
UT	-7501
▁Oxford	-7502
▁Gary	-7503
▁Hamp	-7504
▁fab	-7505
▁disag	-7506
▁demanding	-7507
oir	-7508
▁stations	-7509
▁electricity	-7510
▁fundamental	-7511
▁relevant	-7512
▁senator	-7513
▁Bas	-7514
▁Land	-7515
SA	-7516
▁ease	-7517
▁communications	-7518
▁rub	-7519
order	-7520
▁races	-7521
▁AM	-7522
▁Take	-7523
▁honor	-7524
▁Morning	-7525
▁dressed	-7526
▁contacted	-7527
▁frag	-7528
▁Free	-7529
▁improving	-7530
apol	-7531
▁campus	-7532
▁2,000	-7533
pass	-7534
igation	-7535
▁innoc	-7536
▁Next	-7537
▁awareness	-7538
▁conce	-7539
▁Minnes	-7540
▁passes	-7541
▁monitoring	-7542
▁Marsh	-7543
▁pollution	-7544
quarters	-7545
▁tort	-7546
▁jumped	-7547
▁roof	-7548
ati	-7549
agan	-7550
▁micro	-7551
▁requirements	-7552
▁Kennedy	-7553
▁discover	-7554
▁Sant	-7555
▁tool	-7556
agger	-7557
▁mel	-7558
▁Aut	-7559
▁ideal	-7560
▁chicken	-7561
▁emails	-7562
▁predicted	-7563
minster	-7564
▁Special	-7565
▁jun	-7566
▁scores	-7567
▁pip	-7568
▁shadow	-7569
▁sty	-7570
▁conversations	-7571
▁blamed	-7572
ahu	-7573
▁Scient	-7574
BT	-7575
▁praised	-7576
▁midfielder	-7577
▁cancelled	-7578
▁Development	-7579
▁architect	-7580
▁fasc	-7581
osi	-7582
▁map	-7583
appy	-7584
▁Lady	-7585
.uk	-7586
▁mountain	-7587
▁Neil	-7588
▁winners	-7589
▁buyers	-7590
▁Boeing	-7591
▁Cambridge	-7592
▁Thank	-7593
▁depression	-7594
▁Russell	-7595
▁coc	-7596
▁Minnesota	-7597
uros	-7598
▁alt	-7599
▁Evans	-7600
▁welfare	-7601
▁fro	-7602
▁recommended	-7603
▁Music	-7604
▁extensive	-7605
▁Dallas	-7606
▁elderly	-7607
▁NY	-7608
▁conspiracy	-7609
▁LA	-7610
▁blind	-7611
▁Rev	-7612
▁Philip	-7613
uable	-7614
▁franchise	-7615
▁celebrated	-7616
▁criticised	-7617
agers	-7618
▁Pot	-7619
▁march	-7620
▁stream	-7621
▁ske	-7622
▁witnesses	-7623
▁mood	-7624
box	-7625
▁Env	-7626
▁locked	-7627
▁67	-7628
▁Emp	-7629
▁inevit	-7630
▁dying	-7631
▁packed	-7632
▁Stock	-7633
▁viral	-7634
▁recip	-7635
ules	-7636
▁na	-7637
▁perspective	-7638
▁crazy	-7639
▁afraid	-7640
▁Never	-7641
ila	-7642
▁narr	-7643
▁Through	-7644
▁breath	-7645
▁isolation	-7646
iy	-7647
▁answers	-7648
▁phil	-7649
▁refugee	-7650
▁diplomatic	-7651
▁reject	-7652
▁manner	-7653
▁Stone	-7654
▁tourism	-7655
▁grass	-7656
▁managers	-7657
▁Dutch	-7658
▁diversity	-7659
▁Catholic	-7660
▁decre	-7661
▁chef	-7662
▁campaigns	-7663
▁Sometimes	-7664
▁Wels	-7665
▁Colorado	-7666
▁Run	-7667
▁knife	-7668
▁brothers	-7669
▁Given	-7670
▁Stand	-7671
oration	-7672
▁promises	-7673
equ	-7674
▁Diego	-7675
like	-7676
▁encouraging	-7677
▁unexp	-7678
▁beaten	-7679
cription	-7680
▁Brand	-7681
▁requests	-7682
uana	-7683
▁eval	-7684
▁antib	-7685
erald	-7686
instein	-7687
▁recognition	-7688
▁Rio	-7689
▁Writ	-7690
▁engage	-7691
▁strengthen	-7692
▁ow	-7693
▁awards	-7694
▁blo	-7695
▁Tokyo	-7696
▁rapidly	-7697
▁assessment	-7698
▁discip	-7699
▁uncom	-7700
▁thin	-7701
▁interp	-7702
▁walls	-7703
40	-7704
▁consistent	-7705
▁prin	-7706
▁Rh	-7707
▁honour	-7708
▁2002	-7709
rum	-7710
▁Alabama	-7711
▁Stew	-7712
▁Na	-7713
▁communication	-7714
▁Project	-7715
estyle	-7716
▁reduction	-7717
▁reck	-7718
▁Portug	-7719
▁links	-7720
▁parliamentary	-7721
opher	-7722
▁Kir	-7723
wick	-7724
orted	-7725
▁weigh	-7726
▁Welsh	-7727
heim	-7728
▁Tai	-7729
▁pleased	-7730
▁reference	-7731
▁guarantee	-7732
ME	-7733
▁letters	-7734
▁je	-7735
▁involvement	-7736
lessly	-7737
▁ju	-7738
▁Latin	-7739
▁pharm	-7740
lights	-7741
▁expecting	-7742
▁Alan	-7743
▁testim	-7744
▁Allen	-7745
▁pink	-7746
hattan	-7747
▁fed	-7748
umer	-7749
▁meal	-7750
▁bull	-7751
▁Financ	-7752
▁hung	-7753
▁unexpected	-7754
▁Canber	-7755
▁interviews	-7756
▁equival	-7757
rah	-7758
▁Bulgar	-7759
▁Maria	-7760
▁Manhattan	-7761
▁overwhelming	-7762
▁legacy	-7763
▁Thanks	-7764
▁Low	-7765
N.	-7766
▁Rick	-7767
apore	-7768
▁historical	-7769
▁medicine	-7770
inations	-7771
▁Independent	-7772
▁800	-7773
▁addressed	-7774
ibb	-7775
orous	-7776
▁Mitc	-7777
▁ambassador	-7778
▁Bat	-7779
▁fitness	-7780
▁noticed	-7781
▁sole	-7782
▁Dur	-7783
auc	-7784
▁producers	-7785
▁Phill	-7786
▁silver	-7787
▁habit	-7788
▁Jane	-7789
▁forth	-7790
▁advent	-7791
▁swing	-7792
▁reward	-7793
mad	-7794
▁Dri	-7795
▁unac	-7796
▁Corn	-7797
▁htt	-7798
▁titles	-7799
▁diseases	-7800
king	-7801
otte	-7802
▁Lau	-7803
▁visits	-7804
wich	-7805
▁kiss	-7806
▁resulted	-7807
▁beer	-7808
ocolate	-7809
aka	-7810
▁Balt	-7811
▁guns	-7812
▁upp	-7813
▁cig	-7814
▁chaos	-7815
▁emerging	-7816
▁depth	-7817
▁ingred	-7818
▁spaces	-7819
▁Ronald	-7820
▁99	-7821
IP	-7822
▁AT	-7823
▁theme	-7824
▁Adela	-7825
▁complicated	-7826
onto	-7827
▁pleaded	-7828
▁tea	-7829
enny	-7830
aping	-7831
▁tragedy	-7832
▁prosecutor	-7833
▁Talib	-7834
▁Singapore	-7835
▁Raj	-7836
▁toler	-7837
▁surveillance	-7838
▁cloud	-7839
▁stolen	-7840
▁necessarily	-7841
erb	-7842
dog	-7843
▁literally	-7844
19	-7845
▁attacking	-7846
▁Hom	-7847
▁Mess	-7848
▁parking	-7849
▁Coronavirus	-7850
▁Adelaide	-7851
▁Exper	-7852
ERS	-7853
▁badly	-7854
▁falls	-7855
▁Liberal	-7856
mann	-7857
ogether	-7858
▁obtained	-7859
ocked	-7860
iamond	-7861
▁hyd	-7862
▁68	-7863
▁apps	-7864
▁Pence	-7865
▁survived	-7866
aza	-7867
▁Storm	-7868
war	-7869
▁platforms	-7870
▁indicated	-7871
▁clothing	-7872
▁Wars	-7873
▁explore	-7874
▁steel	-7875
▁striking	-7876
▁criticized	-7877
▁cents	-7878
▁Affairs	-7879
▁thus	-7880
▁headquarters	-7881
▁Bernie	-7882
▁Mitchell	-7883
▁chest	-7884
▁guest	-7885
**	-7886
umes	-7887
▁fault	-7888
▁Westminster	-7889
▁moon	-7890
▁Without	-7891
▁awarded	-7892
▁Oct.	-7893
▁Transport	-7894
▁metal	-7895
▁Wisc	-7896
▁cul	-7897
rena	-7898
▁Sean	-7899
▁Financial	-7900
▁representative	-7901
xic	-7902
▁Common	-7903
▁lifted	-7904
fying	-7905
▁lean	-7906
▁efficient	-7907
▁covering	-7908
▁Playing	-7909
▁applications	-7910
▁tracks	-7911
▁Les	-7912
▁shall	-7913
▁Div	-7914
▁liked	-7915
-2	-7916
apes	-7917
▁Cow	-7918
dale	-7919
▁unfair	-7920
▁rely	-7921
▁confront	-7922
icial	-7923
▁protecting	-7924
bel	-7925
▁subur	-7926
▁kilomet	-7927
▁Mother	-7928
▁prohib	-7929
▁outrage	-7930
▁Whit	-7931
▁aims	-7932
▁enormous	-7933
▁privile	-7934
▁Hope	-7935
zen	-7936
,6	-7937
▁crude	-7938
onsin	-7939
▁Leban	-7940
▁basketball	-7941
olved	-7942
▁Canberra	-7943
▁steal	-7944
▁dict	-7945
▁approx	-7946
▁Wisconsin	-7947
AL	-7948
▁neighb	-7949
▁Taliban	-7950
▁feelings	-7951
▁Ven	-7952
▁personally	-7953
▁Ted	-7954
ijuana	-7955
reprene	-7956
adesh	-7957
▁taxpay	-7958
▁investments	-7959
▁everywhere	-7960
iration	-7961
▁Nat	-7962
,2	-7963
▁universities	-7964
▁civilians	-7965
▁controversy	-7966
▁detention	-7967
▁collected	-7968
▁describe	-7969
OU	-7970
▁exposure	-7971
▁possession	-7972
▁Merkel	-7973
ointing	-7974
▁convin	-7975
▁entit	-7976
▁63	-7977
▁constantly	-7978
▁Origin	-7979
▁Clar	-7980
▁defended	-7981
anka	-7982
▁Ho	-7983
▁tens	-7984
▁gathering	-7985
▁immune	-7986
▁medium	-7987
▁ranked	-7988
▁pregnancy	-7989
▁stages	-7990
ateral	-7991
▁ITV	-7992
▁NE	-7993
▁toile	-7994
sen	-7995
▁Sov	-7996
▁brown	-7997
▁tweets	-7998
▁Whether	-7999
▁babies	-8000
▁Amy	-8001
▁Hart	-8002
▁odds	-8003
▁CC	-8004
▁Toronto	-8005
▁client	-8006
▁Cohen	-8007
rapped	-8008
ache	-8009
▁Trade	-8010
▁ancient	-8011
▁kicked	-8012
▁storage	-8013
▁filmed	-8014
▁therapy	-8015
▁successfully	-8016
▁neut	-8017
▁creation	-8018
water	-8019
▁regulation	-8020
anged	-8021
▁holidays	-8022
beat	-8023
▁Bloomberg	-8024
▁NASA	-8025
▁compensation	-8026
▁fier	-8027
▁Dave	-8028
▁proport	-8029
▁organisations	-8030
▁grant	-8031
▁quit	-8032
▁enjoying	-8033
▁Gill	-8034
ev	-8035
▁Inc.	-8036
▁bottle	-8037
▁pure	-8038
▁tear	-8039
▁factory	-8040
ogg	-8041
irts	-8042
▁Capital	-8043
▁suspic	-8044
▁Ale	-8045
▁Brooklyn	-8046
▁appearances	-8047
list	-8048
▁Gri	-8049
▁Environment	-8050
▁progressive	-8051
▁conver	-8052
ulating	-8053
str	-8054
▁contained	-8055
▁stone	-8056
▁Norm	-8057
▁Vill	-8058
rows	-8059
▁Stur	-8060
▁ocean	-8061
▁Governor	-8062
▁representing	-8063
▁elite	-8064
▁defending	-8065
▁cock	-8066
,7	-8067
▁Stewart	-8068
▁battery	-8069
▁weekly	-8070
▁upgr	-8071
▁opens	-8072
aughters	-8073
▁Dec.	-8074
▁Pelosi	-8075
▁broader	-8076
▁conced	-8077
▁landed	-8078
▁Iraqi	-8079
▁constant	-8080
▁Aber	-8081
▁drawing	-8082
▁realised	-8083
▁Euro	-8084
▁rarely	-8085
urse	-8086
▁Civil	-8087
▁dominated	-8088
▁seed	-8089
5,000	-8090
▁Which	-8091
rete	-8092
soft	-8093
▁soul	-8094
▁Pres	-8095
▁lung	-8096
▁persu	-8097
▁bags	-8098
▁amounts	-8099
▁dynam	-8100
▁Read	-8101
▁useful	-8102
▁sufficient	-8103
▁Class	-8104
▁engagement	-8105
▁category	-8106
▁Gab	-8107
▁phen	-8108
etary	-8109
▁breaks	-8110
uild	-8111
mingham	-8112
▁convinced	-8113
▁burning	-8114
▁250	-8115
.co	-8116
▁elements	-8117
▁recruit	-8118
▁bread	-8119
load	-8120
stan	-8121
umph	-8122
▁Indeed	-8123
dict	-8124
▁Mourinho	-8125
▁nin	-8126
inating	-8127
istle	-8128
▁Short	-8129
▁realise	-8130
▁drinks	-8131
▁Jun	-8132
▁Eastern	-8133
▁Sudan	-8134
▁latter	-8135
▁congressional	-8136
phy	-8137
▁thick	-8138
▁urgent	-8139
▁proof	-8140
▁fu	-8141
▁Head	-8142
▁supports	-8143
regon	-8144
iture	-8145
▁stressed	-8146
▁abandoned	-8147
▁loud	-8148
▁meals	-8149
▁Saf	-8150
▁somewhere	-8151
▁precise	-8152
▁broadc	-8153
▁que	-8154
▁reun	-8155
▁intervention	-8156
▁wire	-8157
esty	-8158
▁settled	-8159
▁Birmingham	-8160
▁Michelle	-8161
▁trag	-8162
▁Conf	-8163
▁relatives	-8164
▁mo	-8165
▁partly	-8166
argo	-8167
▁updated	-8168
▁Perth	-8169
ima	-8170
▁constitutional	-8171
▁shame	-8172
▁opponent	-8173
viously	-8174
vard	-8175
▁satell	-8176
▁Jacob	-8177
▁shoes	-8178
rics	-8179
▁Ple	-8180
▁wages	-8181
▁prol	-8182
▁appointment	-8183
vy	-8184
▁humanitarian	-8185
▁Nik	-8186
▁targeting	-8187
▁metres	-8188
iform	-8189
▁finger	-8190
▁Executive	-8191
▁Oregon	-8192
▁meanwhile	-8193
▁incor	-8194
aska	-8195
▁Organization	-8196
▁69	-8197
▁Microsoft	-8198
▁Li	-8199
▁Hug	-8200
▁attempting	-8201
▁anybody	-8202
▁Vlad	-8203
▁THE	-8204
▁hotels	-8205
▁hosted	-8206
▁□	-8207
▁▨	-8208
▁funeral	-8209
▁nerv	-8210
▁accusations	-8211
▁Stat	-8212
▁teaching	-8213
▁Hung	-8214
▁authors	-8215
▁shutdown	-8216
▁Xi	-8217
keeper	-8218
▁publish	-8219
▁Dor	-8220
▁PS	-8221
▁rall	-8222
▁Lisa	-8223
▁conven	-8224
▁Teleg	-8225
▁perfectly	-8226
,4	-8227
▁recording	-8228
▁Taiwan	-8229
itious	-8230
▁tone	-8231
▁deficit	-8232
▁taught	-8233
▁approached	-8234
▁carefully	-8235
▁77	-8236
foot	-8237
ternal	-8238
▁install	-8239
▁specialist	-8240
▁Cole	-8241
▁ho	-8242
▁Nov.	-8243
▁McDonald	-8244
umber	-8245
▁dates	-8246
▁Cu	-8247
▁Inf	-8248
▁chap	-8249
▁promising	-8250
▁immun	-8251
▁Control	-8252
▁Lt	-8253
▁trigger	-8254
▁hardly	-8255
▁sustained	-8256
▁scar	-8257
▁id	-8258
▁windows	-8259
▁comprehens	-8260
▁wounded	-8261
emed	-8262
▁Tesla	-8263
▁Jennifer	-8264
▁74	-8265
▁coaches	-8266
▁LGBT	-8267
▁forever	-8268
▁silence	-8269
org	-8270
▁76	-8271
ulance	-8272
▁salary	-8273
▁grateful	-8274
▁handful	-8275
,8	-8276
▁clip	-8277
▁firef	-8278
▁spreading	-8279
▁Bron	-8280
▁banking	-8281
lied	-8282
▁briefing	-8283
eah	-8284
▁bacter	-8285
▁remarkable	-8286
▁cooking	-8287
▁owns	-8288
▁cyber	-8289
har	-8290
▁suspects	-8291
▁bik	-8292
eries	-8293
▁auction	-8294
uchess	-8295
▁electoral	-8296
▁Rand	-8297
▁Swiss	-8298
▁seventh	-8299
asp	-8300
▁stability	-8301
imir	-8302
▁Kurd	-8303
▁colon	-8304
▁DC	-8305
abetes	-8306
▁establishment	-8307
▁equivalent	-8308
▁crop	-8309
▁fulf	-8310
▁procedures	-8311
▁Doct	-8312
▁throwing	-8313
▁Price	-8314
ardo	-8315
▁labour	-8316
▁essentially	-8317
▁venue	-8318
▁representatives	-8319
▁monitor	-8320
▁substantial	-8321
▁Arch	-8322
▁construct	-8323
ras	-8324
▁fishing	-8325
,3	-8326
▁fairly	-8327
▁Poland	-8328
▁vig	-8329
▁iconic	-8330
▁hell	-8331
▁equity	-8332
▁arriving	-8333
▁exhibition	-8334
▁selected	-8335
▁spell	-8336
▁undert	-8337
axy	-8338
▁posed	-8339
▁inequ	-8340
▁gentle	-8341
▁Nich	-8342
▁constitu	-8343
▁crowds	-8344
▁hired	-8345
▁testimony	-8346
17	-8347
▁landing	-8348
▁asks	-8349
▁bowl	-8350
▁volunteers	-8351
▁Ts	-8352
orious	-8353
▁hel	-8354
tle	-8355
▁divorce	-8356
oping	-8357
▁Collins	-8358
▁Tam	-8359
▁upper	-8360
▁memories	-8361
▁entr	-8362
▁Unf	-8363
▁Laura	-8364
▁Leader	-8365
▁Management	-8366
▁U.N.	-8367
▁Thomp	-8368
▁describes	-8369
▁controls	-8370
▁Kingdom	-8371
▁basically	-8372
▁toug	-8373
▁McConnell	-8374
ompl	-8375
▁IP	-8376
▁voter	-8377
BO	-8378
iop	-8379
▁Venezuela	-8380
▁households	-8381
▁Soviet	-8382
▁Corp	-8383
BS	-8384
▁choices	-8385
hand	-8386
▁Swedish	-8387
▁A.	-8388
▁Netany	-8389
▁qual	-8390
▁1999	-8391
▁symp	-8392
▁rushed	-8393
▁Luke	-8394
▁luck	-8395
▁celebrity	-8396
▁bes	-8397
▁replacement	-8398
annon	-8399
▁attending	-8400
▁mph	-8401
▁Fif	-8402
▁Modi	-8403
▁demanded	-8404
▁dish	-8405
▁procedure	-8406
▁gif	-8407
eals	-8408
ouch	-8409
▁Bond	-8410
▁Enter	-8411
iece	-8412
▁Officials	-8413
▁employers	-8414
▁trillion	-8415
phones	-8416
tr	-8417
▁Jan.	-8418
▁cos	-8419
▁NATO	-8420
▁S&	-8421
▁fundra	-8422
▁peaceful	-8423
▁fixed	-8424
star	-8425
▁Thompson	-8426
▁backl	-8427
▁tail	-8428
itol	-8429
▁hide	-8430
olitan	-8431
▁narrative	-8432
▁Netanyahu	-8433
▁L.A.	-8434
▁trains	-8435
▁Carter	-8436
▁equally	-8437
▁label	-8438
▁jur	-8439
▁scared	-8440
▁killer	-8441
TON	-8442
▁joke	-8443
▁Internet	-8444
▁scrutiny	-8445
▁affair	-8446
▁Gulf	-8447
▁landscape	-8448
▁capture	-8449
▁protective	-8450
lah	-8451
eo	-8452
▁dialogue	-8453
▁centres	-8454
▁breakfast	-8455
▁ft	-8456
▁divided	-8457
▁ensuring	-8458
istol	-8459
▁improvement	-8460
▁producing	-8461
▁1.2	-8462
▁entreprene	-8463
▁tor	-8464
▁Watson	-8465
12	-8466
pan	-8467
▁accompl	-8468
▁liquid	-8469
▁nights	-8470
▁quant	-8471
▁2.5	-8472
▁Equ	-8473
▁Near	-8474
▁hopeful	-8475
▁tag	-8476
elson	-8477
onic	-8478
▁hopefully	-8479
▁affordable	-8480
▁foundation	-8481
.co.uk	-8482
▁listening	-8483
▁Cleve	-8484
▁moral	-8485
▁pledged	-8486
▁GB	-8487
▁MS	-8488
▁Warner	-8489
▁Chancellor	-8490
▁industries	-8491
▁craft	-8492
▁caution	-8493
▁erup	-8494
▁lady	-8495
▁seized	-8496
olas	-8497
▁elev	-8498
▁Pop	-8499
.com/	-8500
▁swimming	-8501
▁Conference	-8502
▁crown	-8503
▁Nas	-8504
▁See	-8505
▁daughters	-8506
icked	-8507
▁polling	-8508
▁hidden	-8509
▁sexually	-8510
▁1980s	-8511
▁NR	-8512
▁bike	-8513
▁error	-8514
▁register	-8515
▁ads	-8516
▁Hills	-8517
ieg	-8518
▁retailers	-8519
▁ballots	-8520
avan	-8521
▁arguing	-8522
▁element	-8523
alia	-8524
▁Researchers	-8525
▁maker	-8526
ses	-8527
iller	-8528
omo	-8529
▁Spring	-8530
igenous	-8531
▁Cleveland	-8532
▁distract	-8533
▁diverse	-8534
▁approximately	-8535
▁Barr	-8536
zed	-8537
▁uniform	-8538
▁Pent	-8539
▁Tories	-8540
iro	-8541
▁ru	-8542
▁politician	-8543
wa	-8544
▁Was	-8545
▁lovely	-8546
▁explan	-8547
▁militants	-8548
▁Charlotte	-8549
▁Wu	-8550
iev	-8551
▁participate	-8552
▁Opp	-8553
▁anyway	-8554
▁association	-8555
▁pill	-8556
▁hack	-8557
▁chocolate	-8558
▁outstanding	-8559
ora	-8560
▁eggs	-8561
▁cleared	-8562
▁Anne	-8563
▁Christopher	-8564
▁Hunt	-8565
▁petition	-8566
▁premium	-8567
▁safely	-8568
▁delivering	-8569
mun	-8570
▁admits	-8571
▁Kansas	-8572
ockey	-8573
omed	-8574
▁scream	-8575
▁Buck	-8576
▁et	-8577
▁resistance	-8578
▁Py	-8579
▁premie	-8580
▁awa	-8581
▁Wol	-8582
▁GDP	-8583
▁reasonable	-8584
▁permission	-8585
▁seemingly	-8586
▁Aaron	-8587
▁deserve	-8588
▁membership	-8589
▁burst	-8590
▁Albert	-8591
▁Hop	-8592
▁butter	-8593
▁Assembly	-8594
▁complained	-8595
▁lessons	-8596
▁Robinson	-8597
▁Pomp	-8598
▁waves	-8599
▁smile	-8600
▁delays	-8601
▁Libya	-8602
▁revel	-8603
▁baseball	-8604
▁attrib	-8605
▁Switzer	-8606
▁pursue	-8607
▁momentum	-8608
▁Airl	-8609
▁eligible	-8610
rors	-8611
agen	-8612
▁smooth	-8613
▁5,000	-8614
▁towns	-8615
owing	-8616
CO	-8617
▁camps	-8618
roit	-8619
ecess	-8620
▁Benn	-8621
▁Jimmy	-8622
▁warnings	-8623
▁Vietnam	-8624
mother	-8625
▁explosion	-8626
▁employed	-8627
▁viewed	-8628
▁sectors	-8629
anth	-8630
▁Amb	-8631
▁Harvey	-8632
▁mistakes	-8633
▁Nev	-8634
▁academic	-8635
▁frame	-8636
play	-8637
▁contribute	-8638
▁portray	-8639
▁terrorists	-8640
K.	-8641
ibilities	-8642
▁web	-8643
▁Has	-8644
▁61	-8645
â	-8646
orses	-8647
ura	-8648
▁Election	-8649
ewhat	-8650
oval	-8651
--	-8652
▁sits	-8653
▁margin	-8654
▁singing	-8655
▁personality	-8656
▁discovery	-8657
▁Pass	-8658
etts	-8659
▁snap	-8660
ello	-8661
▁AS	-8662
▁politically	-8663
ixture	-8664
▁dub	-8665
isive	-8666
▁rounds	-8667
▁exclud	-8668
elle	-8669
▁Murphy	-8670
▁tent	-8671
▁blank	-8672
don	-8673
▁Rome	-8674
▁D.C.	-8675
anges	-8676
ito	-8677
▁gra	-8678
▁salt	-8679
▁disorder	-8680
oli	-8681
▁Hold	-8682
ihad	-8683
▁clock	-8684
▁lifestyle	-8685
▁illust	-8686
iac	-8687
▁horror	-8688
▁resear	-8689
laim	-8690
▁decent	-8691
▁outdoor	-8692
▁ridic	-8693
▁deployed	-8694
▁Later	-8695
▁depos	-8696
▁typical	-8697
▁Switzerland	-8698
▁odd	-8699
▁Chap	-8700
▁distribution	-8701
▁Colomb	-8702
▁uncon	-8703
▁Australians	-8704
▁pig	-8705
▁publication	-8706
▁cro	-8707
ulus	-8708
▁noise	-8709
ucker	-8710
▁Reserve	-8711
▁Ay	-8712
▁readers	-8713
▁mile	-8714
▁consumption	-8715
-m	-8716
apolis	-8717
▁column	-8718
ounce	-8719
▁Oklah	-8720
▁shocking	-8721
▁speculation	-8722
▁generations	-8723
▁Gard	-8724
▁McL	-8725
▁Cabinet	-8726
▁loose	-8727
▁Friend	-8728
▁expanded	-8729
▁wealthy	-8730
guard	-8731
▁Kam	-8732
itary	-8733
▁collective	-8734
bery	-8735
▁Vladimir	-8736
irates	-8737
▁Airlines	-8738
▁providers	-8739
pers	-8740
▁tip	-8741
▁bin	-8742
▁contribution	-8743
orable	-8744
▁cruise	-8745
▁Du	-8746
▁secured	-8747
▁Officer	-8748
▁recommendations	-8749
▁Cele	-8750
▁Nation	-8751
▁Arm	-8752
▁attitude	-8753
▁intim	-8754
abis	-8755
▁1990s	-8756
▁stem	-8757
▁Lar	-8758
▁forcing	-8759
▁Unt	-8760
▁moderate	-8761
▁respectively	-8762
▁Howard	-8763
▁signal	-8764
▁May.	-8765
▁wanting	-8766
▁helicopter	-8767
▁78	-8768
▁Aud	-8769
▁resulting	-8770
▁Ferg	-8771
▁pages	-8772
▁agreements	-8773
▁highlighted	-8774
▁brutal	-8775
▁•	-8776
▁conscious	-8777
▁Cy	-8778
▁trips	-8779
AM	-8780
▁bol	-8781
▁S&P	-8782
rait	-8783
▁Capt	-8784
▁urging	-8785
▁Detroit	-8786
▁sons	-8787
▁crashed	-8788
▁somewhat	-8789
▁sacri	-8790
▁filming	-8791
▁Oklahoma	-8792
▁gross	-8793
▁symbol	-8794
ington	-8795
▁mate	-8796
▁exceed	-8797
▁71	-8798
▁decor	-8799
▁pump	-8800
▁emotion	-8801
▁conclusion	-8802
ishop	-8803
▁scenario	-8804
▁regardless	-8805
▁tired	-8806
rets	-8807
▁Staff	-8808
▁voices	-8809
stal	-8810
zing	-8811
▁loves	-8812
▁nose	-8813
▁95	-8814
▁valuable	-8815
▁situations	-8816
▁marijuana	-8817
▁Unfortunately	-8818
▁Economic	-8819
▁birds	-8820
atar	-8821
▁chronic	-8822
▁Bad	-8823
▁proven	-8824
▁hip	-8825
▁Network	-8826
otal	-8827
▁prisoners	-8828
▁Moon	-8829
▁aver	-8830
▁professionals	-8831
▁astron	-8832
▁careful	-8833
▁Rugby	-8834
▁trem	-8835
▁somehow	-8836
▁promoting	-8837
▁Eag	-8838
▁Nov	-8839
▁noting	-8840
:00	-8841
▁Award	-8842
▁dining	-8843
▁Ky	-8844
▁Assad	-8845
▁investigated	-8846
▁celebration	-8847
▁poison	-8848
▁Make	-8849
▁sporting	-8850
oen	-8851
inking	-8852
▁Hampshire	-8853
▁Sem	-8854
▁Prosecut	-8855
bi	-8856
▁Had	-8857
▁nervous	-8858
▁Singh	-8859
▁caps	-8860
achus	-8861
▁foods	-8862
▁serves	-8863
▁spots	-8864
▁Authorities	-8865
▁ages	-8866
▁Ka	-8867
▁WHO	-8868
▁enable	-8869
▁Shan	-8870
▁Roger	-8871
▁Telegraph	-8872
▁colleague	-8873
▁Simp	-8874
▁Bright	-8875
▁Abbott	-8876
▁branch	-8877
▁pupils	-8878
acher	-8879
▁femin	-8880
▁theatre	-8881
▁regulatory	-8882
▁Authority	-8883
▁firing	-8884
▁resolve	-8885
awn	-8886
▁survivors	-8887
▁Mars	-8888
▁Kenya	-8889
▁Conservatives	-8890
▁Massachus	-8891
▁stance	-8892
father	-8893
▁neutral	-8894
▁eighth	-8895
▁Duchess	-8896
▁Massachusetts	-8897
amework	-8898
▁citizen	-8899
▁plate	-8900
▁ordinary	-8901
▁flooding	-8902
▁Malays	-8903
▁Sams	-8904
▁Oli	-8905
▁equality	-8906
▁mad	-8907
▁Capitol	-8908
▁contains	-8909
▁elimin	-8910
▁headlines	-8911
erto	-8912
▁requested	-8913
ET	-8914
▁toxic	-8915
▁innovation	-8916
▁monthly	-8917
▁print	-8918
▁nurse	-8919
▁perpet	-8920
▁sleeping	-8921
▁organised	-8922
fol	-8923
▁Spurs	-8924
iciency	-8925
ampton	-8926
▁recession	-8927
anne	-8928
▁Maryland	-8929
▁resigned	-8930
▁photographs	-8931
▁sear	-8932
▁mini	-8933
orough	-8934
▁experiment	-8935
▁physically	-8936
▁maintained	-8937
rends	-8938
▁economies	-8939
▁Hon	-8940
▁Further	-8941
▁Jes	-8942
▁pound	-8943
▁Grant	-8944
oren	-8945
point	-8946
▁principle	-8947
▁Ton	-8948
▁backs	-8949
uration	-8950
▁Pow	-8951
▁exports	-8952
▁Kentucky	-8953
▁Pier	-8954
▁proceedings	-8955
burn	-8956
▁Kaz	-8957
▁Rest	-8958
▁thousand	-8959
▁resume	-8960
rator	-8961
ilateral	-8962
▁rush	-8963
▁Emma	-8964
▁insists	-8965
▁diabetes	-8966
▁survival	-8967
▁Pit	-8968
▁fighter	-8969
▁Hal	-8970
bal	-8971
▁Gil	-8972
astrop	-8973
▁epidemic	-8974
▁technologies	-8975
wear	-8976
▁recognise	-8977
▁Sav	-8978
▁mortgage	-8979
▁grade	-8980
▁Fle	-8981
▁groc	-8982
▁ambitious	-8983
borne	-8984
▁Campbell	-8985
▁nominated	-8986
arency	-8987
▁earthqu	-8988
▁smoking	-8989
▁AI	-8990
▁protein	-8991
llers	-8992
era	-8993
ologists	-8994
inate	-8995
▁fields	-8996
▁regret	-8997
▁Light	-8998
ulations	-8999
lining	-9000
▁Reporter	-9001
▁rhet	-9002
▁Ak	-9003
▁Wright	-9004
▁flash	-9005
▁Yorks	-9006
▁Speaker	-9007
gate	-9008
unction	-9009
▁revers	-9010
▁directors	-9011
▁warming	-9012
▁collapsed	-9013
▁provision	-9014
▁Tit	-9015
▁Bureau	-9016
▁introduce	-9017
▁experim	-9018
awei	-9019
▁intensive	-9020
▁rot	-9021
▁comprehensive	-9022
▁Clarke	-9023
▁suspension	-9024
▁rating	-9025
▁surely	-9026
▁Cop	-9027
▁Soph	-9028
▁delighted	-9029
▁Antonio	-9030
oub	-9031
GA	-9032
▁Seven	-9033
▁billions	-9034
▁prosecution	-9035
▁concrete	-9036
▁tourist	-9037
asion	-9038
▁donations	-9039
▁disappear	-9040
▁Clark	-9041
▁Huawei	-9042
aven	-9043
▁Pope	-9044
imore	-9045
▁writers	-9046
▁bump	-9047
▁mothers	-9048
urities	-9049
▁compon	-9050
▁Woods	-9051
▁genetic	-9052
▁aspects	-9053
▁transmission	-9054
▁Fal	-9055
▁airlines	-9056
▁papers	-9057
▁picking	-9058
▁gig	-9059
▁crossing	-9060
▁breach	-9061
▁volume	-9062
▁Dise	-9063
▁Aberde	-9064
▁Samsung	-9065
▁Nether	-9066
lings	-9067
▁1997	-9068
▁dropping	-9069
▁Anna	-9070
isons	-9071
▁appearing	-9072
▁PC	-9073
▁IT	-9074
uan	-9075
▁distinct	-9076
icate	-9077
aga	-9078
▁1970s	-9079
▁legislative	-9080
gender	-9081
▁Chairman	-9082
▁Dow	-9083
onna	-9084
▁schol	-9085
▁walks	-9086
▁exha	-9087
▁Ethiop	-9088
▁quoted	-9089
▁torn	-9090
▁methods	-9091
▁Belgium	-9092
▁shelter	-9093
▁surrounded	-9094
arsh	-9095
▁Hunter	-9096
▁Constitution	-9097
▁recall	-9098
▁Sturgeon	-9099
▁practical	-9100
▁incent	-9101
▁estimate	-9102
▁120	-9103
▁aer	-9104
▁AFL	-9105
▁Ext	-9106
▁hanging	-9107
ogs	-9108
▁religion	-9109
▁pose	-9110
lynn	-9111
▁Griff	-9112
▁Ta	-9113
▁solve	-9114
:4	-9115
▁vowed	-9116
▁Dj	-9117
▁drone	-9118
▁Pompeo	-9119
▁arts	-9120
▁exception	-9121
ctic	-9122
▁3,000	-9123
oning	-9124
EL	-9125
▁foss	-9126
▁Yorkshire	-9127
ht	-9128
▁Bull	-9129
▁phr	-9130
▁migrant	-9131
▁Argentina	-9132
urer	-9133
▁weird	-9134
▁visible	-9135
▁unveiled	-9136
▁reads	-9137
▁isolated	-9138
▁700	-9139
▁Have	-9140
▁teenage	-9141
▁deemed	-9142
▁flaw	-9143
▁encounter	-9144
35	-9145
▁Freed	-9146
▁studied	-9147
▁thri	-9148
▁tragic	-9149
▁treatments	-9150
JP	-9151
▁Patri	-9152
▁Catal	-9153
▁affili	-9154
▁Bruce	-9155
wered	-9156
▁Epstein	-9157
▁x	-9158
▁balls	-9159
▁unions	-9160
front	-9161
▁Armen	-9162
usting	-9163
▁Deputy	-9164
▁Perry	-9165
▁vaccines	-9166
▁compromise	-9167
▁Field	-9168
▁attracted	-9169
▁blocks	-9170
▁occasions	-9171
OT	-9172
▁competing	-9173
▁thorough	-9174
▁valid	-9175
▁closure	-9176
▁ignored	-9177
▁painting	-9178
▁tempor	-9179
▁Ukrainian	-9180
▁observed	-9181
▁Kyle	-9182
▁pulling	-9183
child	-9184
▁20,000	-9185
▁kinds	-9186
▁smartphone	-9187
▁Hend	-9188
▁cheese	-9189
▁Season	-9190
▁celebrating	-9191
▁expression	-9192
▁Brazilian	-9193
▁jew	-9194
▁Corpor	-9195
igate	-9196
▁Protection	-9197
▁manif	-9198
▁appreciate	-9199
▁1998	-9200
rez	-9201
▁Row	-9202
▁Morris	-9203
mont	-9204
inge	-9205
▁longest	-9206
▁Dean	-9207
inding	-9208
aya	-9209
▁gest	-9210
▁50,000	-9211
▁conviction	-9212
▁rolled	-9213
▁couples	-9214
yang	-9215
▁punch	-9216
▁Indonesia	-9217
▁reluct	-9218
▁Cardiff	-9219
▁arguments	-9220
▁Utah	-9221
▁overd	-9222
▁acquis	-9223
▁Members	-9224
▁involves	-9225
▁unaccept	-9226
▁overcome	-9227
▁ranks	-9228
▁Program	-9229
▁panic	-9230
▁parks	-9231
▁longtime	-9232
ppers	-9233
▁divid	-9234
▁disappointing	-9235
▁ships	-9236
▁planes	-9237
▁centers	-9238
▁Baltimore	-9239
▁Netherlands	-9240
▁infect	-9241
▁statistics	-9242
▁senators	-9243
ype	-9244
▁Ow	-9245
▁covers	-9246
▁anymore	-9247
▁golden	-9248
▁wet	-9249
▁shed	-9250
":	-9251
▁engineering	-9252
▁knocked	-9253
▁episodes	-9254
▁Tun	-9255
▁accord	-9256
▁inspect	-9257
▁associate	-9258
▁libr	-9259
▁migration	-9260
▁offences	-9261
▁comparison	-9262
▁deny	-9263
▁sne	-9264
▁Ker	-9265
▁bathroom	-9266
18	-9267
▁mainstream	-9268
▁whis	-9269
ione	-9270
▁Oak	-9271
▁rolling	-9272
▁searching	-9273
▁forec	-9274
▁withdrawal	-9275
▁euros	-9276
gged	-9277
aba	-9278
-yard	-9279
▁Circ	-9280
▁Everything	-9281
▁resignation	-9282
▁cope	-9283
▁burden	-9284
▁speaker	-9285
▁Weinstein	-9286
▁assert	-9287
▁shareholders	-9288
ropolitan	-9289
rical	-9290
▁pointing	-9291
▁Baker	-9292
▁bold	-9293
▁feared	-9294
▁showc	-9295
▁Fergus	-9296
▁artific	-9297
▁Ref	-9298
▁letting	-9299
▁1.1	-9300
▁damaging	-9301
▁defined	-9302
▁focusing	-9303
▁sessions	-9304
▁stamp	-9305
▁painful	-9306
tic	-9307
▁weaken	-9308
▁Mand	-9309
lobally	-9310
▁hub	-9311
▁defeated	-9312
▁duties	-9313
▁confron	-9314
▁ownership	-9315
▁announcing	-9316
▁Kings	-9317
▁soccer	-9318
▁ally	-9319
icts	-9320
▁Kurdish	-9321
▁Sheriff	-9322
▁ST	-9323
anded	-9324
▁disturb	-9325
▁wildlife	-9326
anz	-9327
▁Oliver	-9328
▁FC	-9329
▁IN	-9330
▁Snow	-9331
▁implemented	-9332
▁E.	-9333
▁Until	-9334
▁Pentagon	-9335
▁collaboration	-9336
ews	-9337
ricts	-9338
▁Everton	-9339
▁ingredients	-9340
▁Stu	-9341
▁robust	-9342
▁accompan	-9343
▁mining	-9344
▁finishing	-9345
inch	-9346
▁flew	-9347
▁Abu	-9348
iffe	-9349
acular	-9350
▁virtually	-9351
▁kidn	-9352
ressing	-9353
▁gon	-9354
▁travelled	-9355
▁Fel	-9356
▁Alp	-9357
rities	-9358
▁Rams	-9359
▁nurses	-9360
riors	-9361
▁posting	-9362
25	-9363
▁Son	-9364
▁challenged	-9365
▁tips	-9366
▁rocket	-9367
▁catastrop	-9368
▁furn	-9369
born	-9370
▁CA	-9371
▁soph	-9372
▁export	-9373
▁trapped	-9374
▁Butt	-9375
▁Tenness	-9376
▁Being	-9377
▁Austin	-9378
itar	-9379
▁Intelligence	-9380
▁clar	-9381
lim	-9382
▁lifetime	-9383
▁Angela	-9384
andom	-9385
▁Key	-9386
vereign	-9387
▁temp	-9388
▁AL	-9389
▁Downing	-9390
▁sovereign	-9391
▁citizenship	-9392
▁Avenue	-9393
▁Cust	-9394
▁EC	-9395
▁soil	-9396
▁horses	-9397
▁Hawai	-9398
otes	-9399
▁samples	-9400
▁entitled	-9401
▁charging	-9402
▁hook	-9403
▁continent	-9404
▁wre	-9405
▁inaug	-9406
▁portfol	-9407
▁proportion	-9408
▁Easter	-9409
▁Yan	-9410
abwe	-9411
▁unacceptable	-9412
:0	-9413
▁machines	-9414
▁Current	-9415
▁minds	-9416
▁experiencing	-9417
▁System	-9418
▁strain	-9419
lects	-9420
olds	-9421
▁courage	-9422
▁HIV	-9423
▁anticipated	-9424
▁Box	-9425
▁Teh	-9426
▁Ocean	-9427
▁merely	-9428
▁stir	-9429
▁Danny	-9430
ss	-9431
-day	-9432
▁Var	-9433
▁Edward	-9434
inity	-9435
▁inner	-9436
▁highlights	-9437
▁epic	-9438
eps	-9439
▁impressed	-9440
▁Aug.	-9441
16	-9442
▁Zimb	-9443
▁Nevada	-9444
rupted	-9445
▁1.3	-9446
izar	-9447
▁intel	-9448
▁briefly	-9449
▁coaching	-9450
▁misconduct	-9451
▁Crime	-9452
▁Resp	-9453
▁Dick	-9454
col	-9455
▁Roll	-9456
▁Source	-9457
ums	-9458
▁framework	-9459
▁screening	-9460
▁Tower	-9461
rd	-9462
verning	-9463
▁outlets	-9464
▁crossed	-9465
▁invent	-9466
▁79	-9467
▁Cuba	-9468
olph	-9469
▁imper	-9470
▁accurate	-9471
chest	-9472
▁Around	-9473
▁quarters	-9474
bar	-9475
▁Columbia	-9476
▁Gib	-9477
▁Blair	-9478
▁menu	-9479
▁cannabis	-9480
▁urge	-9481
▁SA	-9482
inois	-9483
▁magic	-9484
▁Morrison	-9485
▁ward	-9486
▁Sad	-9487
▁Policy	-9488
▁processes	-9489
▁temporarily	-9490
ubble	-9491
▁Sab	-9492
▁expanding	-9493
▁Zimbabwe	-9494
eling	-9495
▁Hurricane	-9496
▁halt	-9497
liest	-9498
▁Joshua	-9499
▁veterans	-9500
▁Barn	-9501
▁exempt	-9502
reement	-9503
▁electronic	-9504
▁perce	-9505
▁medal	-9506
irm	-9507
ycle	-9508
ocation	-9509
ilst	-9510
▁depending	-9511
▁BJP	-9512
ls	-9513
▁clinic	-9514
TS	-9515
▁C.	-9516
▁riding	-9517
owski	-9518
▁acted	-9519
▁Tennessee	-9520
ictions	-9521
▁manip	-9522
▁gear	-9523
lett	-9524
▁W.	-9525
▁fate	-9526
▁teach	-9527
▁cleaning	-9528
▁studying	-9529
ni	-9530
▁junior	-9531
▁admit	-9532
▁Margaret	-9533
▁Pant	-9534
▁oldest	-9535
▁heritage	-9536
▁Beat	-9537
▁disrupt	-9538
▁inject	-9539
.org	-9540
▁movements	-9541
▁ultimate	-9542
▁Woman	-9543
▁Brother	-9544
▁condemned	-9545
▁Jong	-9546
▁PHO	-9547
thy	-9548
mans	-9549
▁ank	-9550
▁Film	-9551
ographic	-9552
▁Nicola	-9553
▁transparency	-9554
▁popularity	-9555
▁Bart	-9556
▁suspicion	-9557
abbing	-9558
▁alliance	-9559
▁Feb.	-9560
▁ranging	-9561
▁Vis	-9562
▁interviewed	-9563
▁impose	-9564
▁triggered	-9565
▁cheaper	-9566
▁Ult	-9567
▁carries	-9568
▁Form	-9569
▁Cas	-9570
▁signature	-9571
▁Technology	-9572
▁Dodgers	-9573
▁diagnosis	-9574
▁timing	-9575
▁deeper	-9576
atre	-9577
▁downtown	-9578
▁dancing	-9579
▁screens	-9580
▁grandmother	-9581
▁primarily	-9582
▁enterpr	-9583
▁Bolton	-9584
▁shaped	-9585
▁struggles	-9586
▁manifest	-9587
,"	-9588
▁reopening	-9589
▁runner	-9590
▁Illinois	-9591
▁solo	-9592
▁inches	-9593
▁CDC	-9594
omach	-9595
oga	-9596
▁developments	-9597
▁murdered	-9598
▁Ku	-9599
▁autonom	-9600
▁recognised	-9601
encer	-9602
▁modest	-9603
usive	-9604
▁expenses	-9605
▁swift	-9606
▁eager	-9607
▁Farm	-9608
14	-9609
▁Cher	-9610
▁grey	-9611
utor	-9612
ixon	-9613
▁revealing	-9614
▁consistently	-9615
▁filing	-9616
▁venture	-9617
roid	-9618
change	-9619
▁rebels	-9620
▁fortun	-9621
▁trends	-9622
mart	-9623
▁inapp	-9624
▁Adv	-9625
▁Cry	-9626
▁destination	-9627
▁Comey	-9628
▁legally	-9629
▁streak	-9630
▁risen	-9631
▁physic	-9632
▁submitted	-9633
▁interven	-9634
▁boxes	-9635
▁periods	-9636
▁Much	-9637
▁seeks	-9638
▁congrat	-9639
▁edition	-9640
▁Thous	-9641
▁Tehran	-9642
▁cake	-9643
▁persist	-9644
rome	-9645
▁destruction	-9646
▁principles	-9647
▁echo	-9648
▁smugg	-9649
▁describing	-9650
▁integ	-9651
▁tracking	-9652
orate	-9653
pa	-9654
▁preced	-9655
▁restore	-9656
oln	-9657
▁treating	-9658
▁stopping	-9659
▁Norway	-9660
▁Finally	-9661
▁Gray	-9662
▁Mob	-9663
▁Does	-9664
▁launching	-9665
aders	-9666
tain	-9667
▁obser	-9668
▁Nazi	-9669
▁reverse	-9670
▁beds	-9671
▁toilet	-9672
▁Country	-9673
▁Hous	-9674
▁ric	-9675
iola	-9676
▁removal	-9677
▁relie	-9678
▁Blues	-9679
▁constitution	-9680
▁repeat	-9681
▁gard	-9682
▁mystery	-9683
▁sed	-9684
▁governing	-9685
▁globe	-9686
▁Sussex	-9687
▁Fernand	-9688
acc	-9689
▁difficulties	-9690
▁Dead	-9691
▁steady	-9692
▁philos	-9693
▁gut	-9694
▁Victorian	-9695
jo	-9696
oca	-9697
▁generated	-9698
▁teeth	-9699
▁civilian	-9700
▁arrangements	-9701
▁tap	-9702
oons	-9703
▁investing	-9704
▁inspiration	-9705
ailand	-9706
▁supermarket	-9707
▁Pad	-9708
▁â	-9709
▁asset	-9710
▁script	-9711
▁Ferguson	-9712
acre	-9713
▁interior	-9714
▁PHOTO	-9715
▁dust	-9716
▁scientist	-9717
ifications	-9718
US	-9719
▁consideration	-9720
▁frustrated	-9721
▁Marine	-9722
▁Lives	-9723
▁Story	-9724
▁Slo	-9725
▁pride	-9726
▁rhetoric	-9727
▁rehab	-9728
▁rebuild	-9729
▁Thailand	-9730
▁accompanied	-9731
▁stomach	-9732
▁Ald	-9733
EP	-9734
▁containing	-9735
▁everyday	-9736
▁ski	-9737
▁starring	-9738
▁Beck	-9739
ikh	-9740
▁arrests	-9741
orge	-9742
▁frustration	-9743
▁bats	-9744
▁commander	-9745
▁Linc	-9746
▁random	-9747
erer	-9748
▁contributions	-9749
▁whistle	-9750
▁institution	-9751
▁discussing	-9752
▁Kard	-9753
▁Cos	-9754
▁youngest	-9755
▁offense	-9756
empl	-9757
▁Hann	-9758
embered	-9759
▁Should	-9760
▁repair	-9761
▁intellect	-9762
▁warns	-9763
▁reviews	-9764
ji	-9765
▁Rachel	-9766
▁autumn	-9767
▁Swan	-9768
▁regulators	-9769
rich	-9770
▁Adams	-9771
▁acquired	-9772
alo	-9773
▁Aberdeen	-9774
oner	-9775
▁researcher	-9776
idal	-9777
▁volunt	-9778
licit	-9779
▁Sex	-9780
▁Treat	-9781
▁Trip	-9782
atherine	-9783
▁Nancy	-9784
eta	-9785
▁advocates	-9786
▁Crit	-9787
▁missiles	-9788
▁Lakers	-9789
▁Forest	-9790
izarre	-9791
backs	-9792
izer	-9793
▁Scientists	-9794
▁adequ	-9795
▁88	-9796
iques	-9797
▁plea	-9798
▁stops	-9799
▁Dublin	-9800
▁20th	-9801
▁denies	-9802
▁bacteria	-9803
▁bankrupt	-9804
▁Bangl	-9805
ranean	-9806
▁Ban	-9807
▁plun	-9808
OC	-9809
▁bombs	-9810
▁dealt	-9811
▁Galaxy	-9812
▁billionaire	-9813
▁locals	-9814
▁romantic	-9815
▁barg	-9816
▁porn	-9817
▁recognize	-9818
▁cease	-9819
▁Bristol	-9820
▁transgender	-9821
hill	-9822
▁wound	-9823
▁Ur	-9824
asty	-9825
▁presenter	-9826
▁Flynn	-9827
▁gotten	-9828
manuel	-9829
▁Erd	-9830
▁cow	-9831
▁Emily	-9832
▁Alexand	-9833
▁Please	-9834
▁triumph	-9835
▁overlook	-9836
abe	-9837
▁Joy	-9838
▁chann	-9839
▁explanation	-9840
▁stabbed	-9841
▁copy	-9842
isms	-9843
▁ET	-9844
aration	-9845
▁loving	-9846
▁glam	-9847
▁brave	-9848
▁buried	-9849
▁Amend	-9850
▁Garden	-9851
zo	-9852
eck	-9853
osh	-9854
wealth	-9855
▁residence	-9856
▁Jessica	-9857
▁Winter	-9858
▁86	-9859
▁backlash	-9860
▁Hand	-9861
▁breathing	-9862
▁CNBC	-9863
rought	-9864
iciary	-9865
▁optimistic	-9866
▁praise	-9867
▁attractive	-9868
▁existence	-9869
▁tiss	-9870
berry	-9871
▁smell	-9872
▁flowers	-9873
▁dreams	-9874
▁integrity	-9875
asio	-9876
izza	-9877
▁witnessed	-9878
bull	-9879
▁Bah	-9880
▁www.	-9881
▁Traff	-9882
▁worn	-9883
▁M.	-9884
loved	-9885
▁S.	-9886
▁spray	-9887
▁enemy	-9888
▁Vik	-9889
▁counties	-9890
▁Dream	-9891
aria	-9892
ami	-9893
▁Lions	-9894
▁Cav	-9895
▁Poll	-9896
▁Sat	-9897
▁pron	-9898
bow	-9899
▁desk	-9900
▁Hind	-9901
▁naturally	-9902
▁workforce	-9903
▁phenomen	-9904
▁dim	-9905
▁bell	-9906
▁ranking	-9907
▁creates	-9908
▁programmes	-9909
▁1994	-9910
week	-9911
▁vit	-9912
▁1996	-9913
▁rebounds	-9914
▁bombing	-9915
▁structures	-9916
ching	-9917
▁god	-9918
▁Obviously	-9919
▁fierce	-9920
▁FILE	-9921
▁neighbours	-9922
osa	-9923
▁Indiana	-9924
▁wars	-9925
▁workplace	-9926
▁Turner	-9927
▁Review	-9928
▁lobby	-9929
▁Holland	-9930
▁judgment	-9931
▁ambulance	-9932
▁output	-9933
▁underlying	-9934
▁Defence	-9935
▁Things	-9936
▁celebrities	-9937
▁absor	-9938
▁mandate	-9939
▁Commer	-9940
▁contemporary	-9941
▁stroke	-9942
lee	-9943
▁Unlike	-9944
▁qualified	-9945
▁Pear	-9946
▁bitter	-9947
▁verdict	-9948
▁crying	-9949
▁flour	-9950
▁opener	-9951
▁embrace	-9952
▁makers	-9953
ocated	-9954
▁Arts	-9955
▁curb	-9956
▁pocket	-9957
▁Kardash	-9958
▁investor	-9959
▁Line	-9960
▁Pack	-9961
▁reviewed	-9962
▁Lincoln	-9963
▁desert	-9964
▁Nine	-9965
▁jacket	-9966
▁McM	-9967
▁earning	-9968
▁coinc	-9969
▁Brady	-9970
fers	-9971
▁mole	-9972
rition	-9973
▁innocent	-9974
▁dramatically	-9975
▁formally	-9976
uzz	-9977
▁islands	-9978
ints	-9979
▁globally	-9980
▁disin	-9981
▁Wimb	-9982
▁dressing	-9983
▁Analy	-9984
▁impression	-9985
▁Merc	-9986
▁Mohammed	-9987
ledon	-9988
▁resil	-9989
▁revenues	-9990
▁principal	-9991
ags	-9992
▁Action	-9993
▁checked	-9994
uched	-9995
onde	-9996
▁U.S.-	-9997
▁trafficking	-9998
▁Blake	-9999
▁Puerto	-10000
▁consent	-10001
▁Billy	-10002
▁buck	-10003
▁Ron	-10004
▁relation	-10005
▁subsequent	-10006
iership	-10007
▁residential	-10008
gence	-10009
thur	-10010
▁chart	-10011
▁facilit	-10012
▁burned	-10013
▁Lim	-10014
▁updates	-10015
▁invested	-10016
awa	-10017
▁Fall	-10018
ulpt	-10019
math	-10020
▁Harvard	-10021
▁objects	-10022
▁differently	-10023
▁concerning	-10024
▁doubled	-10025
▁Ashley	-10026
▁fame	-10027
▁uncomfort	-10028
▁oxy	-10029
▁raw	-10030
▁poet	-10031
▁Vin	-10032
▁84	-10033
▁audiences	-10034
▁1.4	-10035
▁rescued	-10036
▁Eb	-10037
cott	-10038
▁responding	-10039
▁violations	-10040
▁presum	-10041
▁87	-10042
▁hosting	-10043
▁closest	-10044
esh	-10045
▁Bon	-10046
▁disabled	-10047
▁frequent	-10048
udes	-10049
▁prospects	-10050
tail	-10051
▁gate	-10052
▁Qatar	-10053
oting	-10054
AF	-10055
▁participation	-10056
itched	-10057
▁cruel	-10058
▁Wimbledon	-10059
▁thirds	-10060
rov	-10061
▁Heath	-10062
▁Katie	-10063
▁82	-10064
▁demonstrated	-10065
▁assists	-10066
▁warrant	-10067
St	-10068
vi	-10069
▁substance	-10070
eria	-10071
▁Trib	-10072
▁inning	-10073
uru	-10074
▁Full	-10075
▁Maur	-10076
▁photographer	-10077
comes	-10078
▁accommodation	-10079
▁Est	-10080
-h	-10081
▁scrap	-10082
▁touched	-10083
▁bonds	-10084
▁sib	-10085
▁Diana	-10086
▁Susan	-10087
dd	-10088
dering	-10089
▁penalties	-10090
▁hire	-10091
utical	-10092
▁1995	-10093
▁organized	-10094
run	-10095
▁disruption	-10096
▁Silver	-10097
▁populations	-10098
▁nursing	-10099
▁artificial	-10100
ques	-10101
▁Dougl	-10102
▁districts	-10103
▁Related	-10104
▁implementation	-10105
▁warn	-10106
▁Ped	-10107
▁bottles	-10108
idd	-10109
▁Senior	-10110
▁benefic	-10111
▁strip	-10112
▁ratings	-10113
.50	-10114
PS	-10115
▁fol	-10116
▁Serge	-10117
▁talented	-10118
▁Ga	-10119
▁Leeds	-10120
▁addressing	-10121
oded	-10122
ophob	-10123
▁propag	-10124
itable	-10125
▁Barry	-10126
▁purchased	-10127
esy	-10128
▁Kane	-10129
▁disappeared	-10130
▁Mediter	-10131
▁fract	-10132
▁hunt	-10133
▁stimulus	-10134
▁Medicine	-10135
▁embassy	-10136
▁generate	-10137
▁introduction	-10138
acco	-10139
▁Bash	-10140
ingu	-10141
▁wond	-10142
▁Krist	-10143
▁Plus	-10144
▁outfit	-10145
inction	-10146
▁diver	-10147
▁questioning	-10148
aceutical	-10149
▁reflects	-10150
▁outlook	-10151
▁Death	-10152
▁fing	-10153
▁advisers	-10154
athon	-10155
▁Station	-10156
▁visual	-10157
▁fossil	-10158
▁192	-10159
▁Pas	-10160
▁Castle	-10161
iang	-10162
▁Lad	-10163
ardy	-10164
rous	-10165
mat	-10166
mers	-10167
▁Milan	-10168
▁ignore	-10169
▁Drug	-10170
▁Kash	-10171
▁Beng	-10172
▁abused	-10173
▁manufacturers	-10174
▁cous	-10175
asted	-10176
▁grave	-10177
▁absent	-10178
▁Dubai	-10179
▁Musk	-10180
▁afterwards	-10181
hner	-10182
▁meets	-10183
▁tab	-10184
▁tactics	-10185
▁holes	-10186
▁painted	-10187
leep	-10188
▁powered	-10189
▁Prov	-10190
▁boom	-10191
▁priorities	-10192
▁Theatre	-10193
aley	-10194
▁carpet	-10195
una	-10196
▁Dal	-10197
▁BM	-10198
▁attached	-10199
▁Arn	-10200
▁Ib	-10201
▁Mack	-10202
▁devastated	-10203
▁tremend	-10204
J.	-10205
▁reflected	-10206
▁bloc	-10207
▁medication	-10208
▁Nathan	-10209
▁beloved	-10210
▁solidarity	-10211
▁forgotten	-10212
▁satellite	-10213
▁discount	-10214
▁spectacular	-10215
▁publ	-10216
-foot	-10217
▁SU	-10218
▁motivated	-10219
iani	-10220
▁Stuart	-10221
▁Nearly	-10222
attered	-10223
▁teenagers	-10224
▁Mediterranean	-10225
▁humanity	-10226
▁Nig	-10227
▁Mas	-10228
▁barriers	-10229
▁Oliv	-10230
▁McI	-10231
▁raises	-10232
▁grie	-10233
▁Ru	-10234
▁Freedom	-10235
▁1992	-10236
▁Saint	-10237
▁lasting	-10238
arms	-10239
jan	-10240
▁inequality	-10241
▁initiatives	-10242
▁Jews	-10243
▁nick	-10244
▁slammed	-10245
oko	-10246
▁WAS	-10247
acey	-10248
▁assume	-10249
▁shield	-10250
▁mild	-10251
▁Rail	-10252
aware	-10253
▁promotion	-10254
▁refund	-10255
▁Lane	-10256
▁connections	-10257
intend	-10258
▁Pitts	-10259
rist	-10260
-s	-10261
isp	-10262
▁bone	-10263
▁beef	-10264
▁nowhere	-10265
▁installed	-10266
▁Buff	-10267
▁affects	-10268
▁sized	-10269
atoes	-10270
▁commissioner	-10271
▁recyc	-10272
▁bizarre	-10273
▁sauce	-10274
igers	-10275
▁treas	-10276
pts	-10277
▁illegally	-10278
▁sisters	-10279
▁Disease	-10280
▁midnight	-10281
▁Fut	-10282
▁glad	-10283
▁presents	-10284
estone	-10285
▁reign	-10286
▁punishment	-10287
ouri	-10288
artisan	-10289
▁licens	-10290
▁trailer	-10291
▁Erdogan	-10292
▁duo	-10293
▁commented	-10294
▁legitimate	-10295
▁underway	-10296
▁canceled	-10297
▁teammates	-10298
▁trainer	-10299
▁Division	-10300
▁scan	-10301
▁sheet	-10302
▁recognized	-10303
▁external	-10304
▁Rex	-10305
▁retailer	-10306
▁secondary	-10307
▁tables	-10308
▁Eddie	-10309
▁universal	-10310
▁refusing	-10311
oid	-10312
▁Oil	-10313
▁impacts	-10314
▁patterns	-10315
▁visa	-10316
▁graduate	-10317
ois	-10318
endar	-10319
ocking	-10320
▁appeals	-10321
▁demonstrations	-10322
▁desc	-10323
▁economist	-10324
mir	-10325
iary	-10326
▁vocal	-10327
▁assembly	-10328
▁Parker	-10329
overs	-10330
▁fo	-10331
shore	-10332
▁Commonwealth	-10333
▁operators	-10334
orneys	-10335
uther	-10336
wall	-10337
aver	-10338
▁alter	-10339
▁IM	-10340
ifies	-10341
▁intimid	-10342
▁Information	-10343
▁comeback	-10344
▁overh	-10345
▁responses	-10346
▁remembered	-10347
▁statue	-10348
-min	-10349
▁traveling	-10350
▁portfolio	-10351
▁Louisiana	-10352
▁Orle	-10353
▁SP	-10354
▁Investig	-10355
▁Lebanon	-10356
▁ninth	-10357
▁wrest	-10358
oom	-10359
▁1,5	-10360
▁ESP	-10361
▁preferred	-10362
▁rice	-10363
▁oxygen	-10364
▁Tik	-10365
▁versus	-10366
▁WW	-10367
▁negotiating	-10368
▁resum	-10369
▁Hans	-10370
▁aftermath	-10371
outheast	-10372
▁indicate	-10373
▁midfield	-10374
▁reminder	-10375
▁meaningful	-10376
▁depends	-10377
▁imports	-10378
▁removing	-10379
▁Anyone	-10380
▁Age	-10381
▁Gon	-10382
icle	-10383
▁bip	-10384
▁arrives	-10385
▁preventing	-10386
▁stup	-10387
▁Bryant	-10388
▁fabric	-10389
▁interim	-10390
▁postponed	-10391
▁lone	-10392
▁Fro	-10393
▁soldier	-10394
▁preparation	-10395
▁explaining	-10396
▁realize	-10397
▁realized	-10398
▁aspect	-10399
▁Travel	-10400
▁Davies	-10401
▁Secret	-10402
▁instrument	-10403
▁Hughes	-10404
▁inmates	-10405
▁shake	-10406
▁Lawrence	-10407
▁trauma	-10408
▁lesson	-10409
▁maintaining	-10410
▁rebel	-10411
regor	-10412
alle	-10413
▁fever	-10414
▁beaches	-10415
▁Scots	-10416
season	-10417
▁vs.	-10418
▁unnecess	-10419
▁Mom	-10420
zer	-10421
▁Express	-10422
▁vegetables	-10423
HING	-10424
▁actively	-10425
▁Nico	-10426
otherap	-10427
through	-10428
▁mandatory	-10429
▁Money	-10430
▁ankle	-10431
▁demonstrate	-10432
▁EPA	-10433
eda	-10434
▁roots	-10435
▁AR	-10436
▁Nelson	-10437
▁Turnbull	-10438
ewsw	-10439
ication	-10440
▁lip	-10441
▁utter	-10442
▁Wel	-10443
ewswire	-10444
▁gro	-10445
▁Ath	-10446
▁portion	-10447
▁consultant	-10448
▁rook	-10449
▁Partners	-10450
▁Fact	-10451
▁harsh	-10452
▁profound	-10453
▁boxing	-10454
▁respected	-10455
▁Pete	-10456
▁enthusi	-10457
▁Metro	-10458
▁traded	-10459
▁Orleans	-10460
▁muscle	-10461
▁firefighters	-10462
▁Rash	-10463
cover	-10464
▁disappoint	-10465
▁goalkeeper	-10466
▁uncomfortable	-10467
▁donors	-10468
▁Rodrig	-10469
▁pledge	-10470
▁Originally	-10471
▁Russians	-10472
▁leaked	-10473
▁openly	-10474
▁licence	-10475
▁coastal	-10476
▁weakness	-10477
▁consensus	-10478
▁accusing	-10479
kward	-10480
▁consol	-10481
▁disch	-10482
▁1990	-10483
▁Bernard	-10484
mund	-10485
▁operator	-10486
▁Serb	-10487
-minute	-10488
▁Nothing	-10489
borough	-10490
▁supporter	-10491
▁Cuomo	-10492
▁nod	-10493
▁disgr	-10494
▁GMT	-10495
▁determination	-10496
▁orange	-10497
▁booked	-10498
▁cheer	-10499
▁silent	-10500
▁Bi	-10501
▁Sel	-10502
▁Kay	-10503
▁negotiate	-10504
▁Kerry	-10505
▁topic	-10506
▁routes	-10507
month	-10508
▁agricultural	-10509
▁argues	-10510
▁plain	-10511
▁offence	-10512
▁Tax	-10513
▁conservation	-10514
cia	-10515
▁Safety	-10516
▁Warriors	-10517
▁innovative	-10518
▁requiring	-10519
usalem	-10520
▁transferred	-10521
▁entrance	-10522
assion	-10523
▁acceler	-10524
▁dubbed	-10525
tenance	-10526
▁criminals	-10527
▁Emergency	-10528
▁Jesus	-10529
▁Hod	-10530
▁interference	-10531
▁friendship	-10532
▁headline	-10533
▁poore	-10534
,0	-10535
▁item	-10536
▁circle	-10537
▁Build	-10538
▁button	-10539
▁tension	-10540
▁Made	-10541
▁Jerusalem	-10542
isk	-10543
▁apology	-10544
▁Border	-10545
▁Giants	-10546
▁Rah	-10547
▁Tele	-10548
▁reserve	-10549
▁Wayne	-10550
▁Almost	-10551
▁dat	-10552
▁Along	-10553
▁sculpt	-10554
▁Lock	-10555
▁explicit	-10556
▁addiction	-10557
▁immigrant	-10558
bits	-10559
ementia	-10560
▁spotlight	-10561
▁Portugal	-10562
▁NEW	-10563
▁fare	-10564
▁pending	-10565
UTERS	-10566
▁squee	-10567
▁provider	-10568
▁examples	-10569
▁perm	-10570
▁Bulgaria	-10571
▁Douglas	-10572
▁Gabri	-10573
▁Bailey	-10574
▁transportation	-10575
/20	-10576
▁processing	-10577
▁View	-10578
▁renewed	-10579
▁dign	-10580
▁shoppers	-10581
ications	-10582
▁reliable	-10583
▁auto	-10584
▁Imm	-10585
vised	-10586
▁wrapped	-10587
▁outcomes	-10588
▁anch	-10589
▁earthquake	-10590
▁emotions	-10591
▁19th	-10592
▁Christie	-10593
▁promoted	-10594
▁patrol	-10595
▁83	-10596
NC	-10597
▁Inn	-10598
▁Brun	-10599
▁nightm	-10600
umin	-10601
▁mode	-10602
▁Thousands	-10603
▁implications	-10604
▁Lion	-10605
▁vary	-10606
▁hunting	-10607
▁theater	-10608
▁REUTERS	-10609
▁opted	-10610
cont	-10611
▁Deb	-10612
▁Holy	-10613
▁Bagh	-10614
▁None	-10615
▁Tel	-10616
▁escaped	-10617
▁pipeline	-10618
▁89	-10619
▁tatt	-10620
▁qualify	-10621
vals	-10622
▁Toy	-10623
▁gatherings	-10624
▁1960s	-10625
▁Amendment	-10626
▁Cold	-10627
▁Merced	-10628
gets	-10629
oenix	-10630
▁expense	-10631
▁awful	-10632
▁Lanc	-10633
▁violation	-10634
▁chains	-10635
▁Talk	-10636
▁bot	-10637
gor	-10638
▁Philippines	-10639
▁strategies	-10640
ippi	-10641
▁improvements	-10642
▁spac	-10643
▁Pittsburgh	-10644
och	-10645
▁thro	-10646
▁Officers	-10647
stop	-10648
-month	-10649
▁NRL	-10650
▁Dak	-10651
ibbean	-10652
▁channels	-10653
▁Jav	-10654
omy	-10655
▁Friends	-10656
▁prompting	-10657
▁cler	-10658
▁grav	-10659
▁hearts	-10660
▁catching	-10661
▁customs	-10662
▁Set	-10663
▁Could	-10664
▁FDA	-10665
▁inappropriate	-10666
▁debates	-10667
▁Liam	-10668
▁Front	-10669
▁nonpro	-10670
active	-10671
▁21st	-10672
▁premiere	-10673
▁rises	-10674
low	-10675
▁Convention	-10676
▁Climate	-10677
▁Writing	-10678
▁retain	-10679
▁memorial	-10680
rary	-10681
▁Heart	-10682
lay	-10683
eur	-10684
▁mit	-10685
▁worrying	-10686
▁Caribbean	-10687
oug	-10688
cot	-10689
rin	-10690
▁battling	-10691
▁fleet	-10692
▁Benj	-10693
▁Cho	-10694
▁recalls	-10695
▁amendment	-10696
▁aides	-10697
▁tier	-10698
▁Bos	-10699
▁Alaska	-10700
▁Emirates	-10701
▁fold	-10702
▁F.	-10703
▁Powell	-10704
▁Klopp	-10705
aments	-10706
▁Within	-10707
▁Alf	-10708
▁affecting	-10709
▁fence	-10710
▁considerable	-10711
liers	-10712
▁tape	-10713
orse	-10714
▁lect	-10715
▁Gram	-10716
▁purposes	-10717
▁minim	-10718
▁Non	-10719
▁Bangladesh	-10720
▁broadcaster	-10721
▁Villa	-10722
▁waited	-10723
▁ty	-10724
▁awkward	-10725
▁UFC	-10726
▁Matter	-10727
▁generous	-10728
▁cable	-10729
▁Wuhan	-10730
▁fights	-10731
tion	-10732
▁advocate	-10733
lie	-10734
▁Celebr	-10735
ipper	-10736
uez	-10737
▁acknowledge	-10738
▁Ltd	-10739
▁operated	-10740
remlin	-10741
▁technique	-10742
haw	-10743
▁Dad	-10744
▁avoided	-10745
▁stepping	-10746
▁aide	-10747
▁History	-10748
▁span	-10749
▁emerge	-10750
▁Dig	-10751
▁Mississ	-10752
▁frozen	-10753
▁Inside	-10754
▁sentiment	-10755
ieties	-10756
▁Tob	-10757
erse	-10758
oto	-10759
▁myth	-10760
▁gal	-10761
▁Hundred	-10762
GO	-10763
▁Eight	-10764
▁molec	-10765
▁fisher	-10766
▁deport	-10767
iche	-10768
edy	-10769
▁engaging	-10770
▁nort	-10771
▁comply	-10772
▁landl	-10773
▁relaxed	-10774
▁agriculture	-10775
▁FT	-10776
▁chamber	-10777
▁Shel	-10778
▁sacrif	-10779
▁ok	-10780
▁Qa	-10781
▁segment	-10782
lock	-10783
▁swept	-10784
▁hik	-10785
▁Start	-10786
fts	-10787
▁watchdog	-10788
uccess	-10789
▁achievement	-10790
▁slip	-10791
▁Phoenix	-10792
▁regarded	-10793
▁irre	-10794
80	-10795
▁kg	-10796
▁businessman	-10797
▁hardest	-10798
▁trophy	-10799
▁Barbara	-10800
▁compliance	-10801
▁mainland	-10802
▁steep	-10803
▁obtain	-10804
▁....	-10805
▁marry	-10806
▁psychological	-10807
▁wishes	-10808
▁PP	-10809
▁suggestion	-10810
▁Hus	-10811
▁Hit	-10812
▁Hawaii	-10813
▁hiding	-10814
▁worries	-10815
▁tale	-10816
▁bust	-10817
▁fiction	-10818
▁spo	-10819
ivan	-10820
▁fastest	-10821
▁ESPN	-10822
emies	-10823
▁gamb	-10824
▁inevitable	-10825
▁Southampton	-10826
enna	-10827
▁resur	-10828
▁naked	-10829
▁Till	-10830
▁insur	-10831
▁bullet	-10832
▁rear	-10833
fires	-10834
▁extrad	-10835
▁reception	-10836
▁Jake	-10837
▁Small	-10838
▁PR	-10839
▁boats	-10840
▁Univers	-10841
AE	-10842
rien	-10843
▁confirmation	-10844
▁peers	-10845
▁airports	-10846
▁seekers	-10847
▁dump	-10848
▁Rather	-10849
▁Fab	-10850
ghai	-10851
▁List	-10852
▁separated	-10853
▁Brighton	-10854
▁carrier	-10855
▁elim	-10856
▁Obs	-10857
▁Living	-10858
▁ventil	-10859
▁Thr	-10860
▁1,2	-10861
▁sher	-10862
▁bosses	-10863
oh	-10864
▁caut	-10865
▁intr	-10866
▁Mitch	-10867
▁Nobody	-10868
▁Sri	-10869
▁suspicious	-10870
itement	-10871
▁McGregor	-10872
▁hugely	-10873
▁guaranteed	-10874
▁refuse	-10875
▁CCTV	-10876
oop	-10877
▁Experts	-10878
loe	-10879
:5	-10880
▁Costa	-10881
▁telephone	-10882
▁Han	-10883
▁efficiency	-10884
▁wash	-10885
▁HBO	-10886
▁Budget	-10887
▁cancel	-10888
▁Zh	-10889
▁Cz	-10890
▁Mercedes	-10891
giving	-10892
▁Terry	-10893
▁Orange	-10894
▁handled	-10895
▁synd	-10896
▁Tri	-10897
▁chip	-10898
▁Modern	-10899
▁Denmark	-10900
▁pressed	-10901
▁commitments	-10902
▁Keith	-10903
▁200,000	-10904
▁lined	-10905
▁stupid	-10906
▁Palestinians	-10907
▁confusion	-10908
▁parade	-10909
▁Wolf	-10910
stri	-10911
▁influential	-10912
▁prelim	-10913
ceptions	-10914
▁overturn	-10915
▁subsequently	-10916
▁maintenance	-10917
▁Kazakh	-10918
▁bunch	-10919
▁spike	-10920
▁departments	-10921
▁scram	-10922
ori	-10923
▁Case	-10924
▁Chen	-10925
iatric	-10926
sa	-10927
▁lengthy	-10928
▁Put	-10929
▁judicial	-10930
arer	-10931
▁guards	-10932
▁Karen	-10933
▁impl	-10934
▁extract	-10935
▁Denver	-10936
▁comedian	-10937
▁belt	-10938
▁Federer	-10939
ught	-10940
hentic	-10941
▁venues	-10942
▁prevented	-10943
▁Place	-10944
▁Kremlin	-10945
▁Mississippi	-10946
▁unrest	-10947
▁shortage	-10948
▁Brend	-10949
▁Deal	-10950
▁Shanghai	-10951
ige	-10952
▁sweeping	-10953
▁Stanley	-10954
▁dominant	-10955
▁disg	-10956
▁Cult	-10957
izon	-10958
▁1.6	-10959
▁Kal	-10960
▁30,000	-10961
▁Actor	-10962
▁Fisher	-10963
swered	-10964
▁Dame	-10965
▁frank	-10966
▁choosing	-10967
▁Wy	-10968
▁overhaul	-10969
▁pilots	-10970
▁Finance	-10971
▁centuries	-10972
▁350	-10973
▁chop	-10974
theless	-10975
▁riot	-10976
mons	-10977
▁FIFA	-10978
elong	-10979
▁evolution	-10980
▁subjects	-10981
▁Benjamin	-10982
▁divers	-10983
▁preliminary	-10984
▁Luk	-10985
▁Grow	-10986
▁inflamm	-10987
▁renov	-10988
▁Islands	-10989
▁evil	-10990
▁Giul	-10991
▁recon	-10992
itis	-10993
▁unre	-10994
▁Mick	-10995
wart	-10996
▁Ahmed	-10997
▁approve	-10998
uri	-10999
▁Federation	-11000
▁Ug	-11001
aints	-11002
actions	-11003
▁Prevention	-11004
▁shell	-11005
▁prosper	-11006
▁governance	-11007
▁raid	-11008
HINGTON	-11009
▁acceptable	-11010
▁indict	-11011
▁Gav	-11012
▁Juan	-11013
▁lav	-11014
▁Ward	-11015
▁Rud	-11016
▁examined	-11017
▁fines	-11018
▁1989	-11019
▁Cancer	-11020
▁WASHINGTON	-11021
▁simpl	-11022
▁answered	-11023
▁romance	-11024
▁Ry	-11025
oz	-11026
▁10th	-11027
▁Od	-11028
▁92	-11029
▁laughing	-11030
▁WA	-11031
▁volat	-11032
▁fright	-11033
▁assured	-11034
weet	-11035
▁taxi	-11036
aux	-11037
▁repro	-11038
▁wise	-11039
agu	-11040
▁vessel	-11041
▁recre	-11042
▁Rubio	-11043
▁Exchange	-11044
▁undermine	-11045
▁definition	-11046
▁Android	-11047
ogy	-11048
brid	-11049
p://	-11050
▁approaches	-11051
▁Shar	-11052
atural	-11053
▁deserves	-11054
ingham	-11055
▁slipped	-11056
▁Maduro	-11057
▁poses	-11058
▁mates	-11059
elli	-11060
▁Chan	-11061
▁guitar	-11062
▁Sheff	-11063
▁climbed	-11064
▁educational	-11065
▁hiring	-11066
▁imprison	-11067
▁gradually	-11068
▁referee	-11069
▁execution	-11070
▁donated	-11071
▁eleph	-11072
13	-11073
▁haz	-11074
▁fet	-11075
billion	-11076
▁campaigning	-11077
▁Broadway	-11078
▁Brent	-11079
▁mun	-11080
▁Connect	-11081
▁ID	-11082
▁projected	-11083
mouth	-11084
rogen	-11085
▁bonus	-11086
▁Swift	-11087
▁difficulty	-11088
▁articles	-11089
▁crackdown	-11090
▁Belf	-11091
▁Fa	-11092
issa	-11093
essing	-11094
▁bout	-11095
▁hearings	-11096
▁1993	-11097
▁fert	-11098
▁Medicare	-11099
eor	-11100
▁starred	-11101
▁relating	-11102
▁titled	-11103
▁Marcus	-11104
▁spy	-11105
▁assass	-11106
▁Would	-11107
iors	-11108
▁dynamic	-11109
▁dementia	-11110
▁Say	-11111
ups	-11112
▁CH	-11113
▁Edwards	-11114
ummings	-11115
▁neighbors	-11116
▁Austria	-11117
▁ridiculous	-11118
▁tempt	-11119
oard	-11120
▁restricted	-11121
▁Alliance	-11122
▁grandfather	-11123
▁contacts	-11124
▁Scar	-11125
▁phrase	-11126
oser	-11127
▁Imp	-11128
▁heels	-11129
▁qualifying	-11130
▁triple	-11131
▁Chile	-11132
aco	-11133
▁DE	-11134
▁Gene	-11135
▁breakthrough	-11136
▁opio	-11137
pc	-11138
▁Cummings	-11139
▁adap	-11140
▁Eagles	-11141
▁wip	-11142
▁sorts	-11143
▁Ark	-11144
▁skill	-11145
▁sophistic	-11146
▁unity	-11147
▁operational	-11148
▁Conc	-11149
▁beneath	-11150
▁Portland	-11151
umar	-11152
▁understands	-11153
▁acid	-11154
▁Egyptian	-11155
ouses	-11156
▁leather	-11157
▁Mul	-11158
▁accessible	-11159
kee	-11160
▁Farage	-11161
▁tremendous	-11162
▁Point	-11163
▁condemn	-11164
▁gh	-11165
▁sharply	-11166
▁helpful	-11167
esity	-11168
▁NH	-11169
▁Kardashian	-11170
▁safer	-11171
▁barrier	-11172
▁replic	-11173
▁Raf	-11174
-point	-11175
▁mutual	-11176
▁enhance	-11177
▁convince	-11178
▁sued	-11179
▁calendar	-11180
▁recovering	-11181
breaking	-11182
▁protections	-11183
umbled	-11184
▁Robb	-11185
▁Malaysia	-11186
▁checking	-11187
▁depri	-11188
▁supportive	-11189
▁Missouri	-11190
▁notion	-11191
▁Summer	-11192
▁Cli	-11193
▁Tech	-11194
▁councils	-11195
▁engineer	-11196
▁Cox	-11197
▁Herald	-11198
▁branded	-11199
sp	-11200
▁celebrations	-11201
▁rookie	-11202
▁Metropolitan	-11203
▁Arena	-11204
▁Cre	-11205
▁Mumb	-11206
▁phenomenon	-11207
▁crowded	-11208
▁joked	-11209
▁objective	-11210
▁license	-11211
jud	-11212
▁Fitz	-11213
▁cafe	-11214
onder	-11215
▁fool	-11216
acies	-11217
▁McCar	-11218
olo	-11219
▁Sony	-11220
a.	-11221
anim	-11222
▁chancellor	-11223
▁exists	-11224
▁websites	-11225
▁Djok	-11226
fax	-11227
▁discour	-11228
▁Dominic	-11229
▁foul	-11230
▁raped	-11231
▁brew	-11232
▁attorneys	-11233
▁podcast	-11234
▁strongest	-11235
eld	-11236
▁cocaine	-11237
▁inher	-11238
▁desperately	-11239
▁Coal	-11240
▁opinions	-11241
▁teens	-11242
▁Similar	-11243
▁perceived	-11244
▁Djokovic	-11245
▁Lucas	-11246
▁contrad	-11247
▁incomp	-11248
▁Colin	-11249
▁Osborne	-11250
▁Ruth	-11251
▁lapt	-11252
▁conducting	-11253
▁bubble	-11254
▁Peace	-11255
▁philosoph	-11256
▁presidents	-11257
▁capabilities	-11258
uten	-11259
▁Sheffield	-11260
▁Pub	-11261
▁financing	-11262
zone	-11263
▁crews	-11264
▁privilege	-11265
▁97	-11266
▁Hopkins	-11267
▁deterior	-11268
▁ly	-11269
▁Spencer	-11270
▁courses	-11271
▁Shah	-11272
▁sample	-11273
.30pm	-11274
▁coat	-11275
rust	-11276
▁gam	-11277
insula	-11278
▁2022	-11279
▁Phillips	-11280
gi	-11281
LC	-11282
▁U.K.	-11283
▁unh	-11284
▁grabbed	-11285
▁trucks	-11286
urers	-11287
▁pays	-11288
▁incorpor	-11289
▁Patriots	-11290
▁HM	-11291
▁Marshall	-11292
▁bush	-11293
anchez	-11294
arma	-11295
bul	-11296
▁jihad	-11297
▁fantasy	-11298
▁matching	-11299
▁Fury	-11300
▁Nigel	-11301
▁requirement	-11302
▁Hundreds	-11303
60	-11304
▁boots	-11305
▁Web	-11306
licts	-11307
▁lists	-11308
▁employer	-11309
hett	-11310
▁immunity	-11311
ecurity	-11312
▁killings	-11313
▁shower	-11314
▁Kashmir	-11315
▁Sanchez	-11316
▁Snap	-11317
▁taxpayers	-11318
▁Assist	-11319
hall	-11320
▁recipe	-11321
▁10-year	-11322
▁Nadal	-11323
▁mountains	-11324
▁4,000	-11325
▁Peters	-11326
▁ax	-11327
▁suprem	-11328
90	-11329
▁folks	-11330
▁occupied	-11331
▁battles	-11332
weg	-11333
▁Bennett	-11334
▁wreck	-11335
▁expertise	-11336
▁twist	-11337
obb	-11338
▁correspondent	-11339
OL	-11340
▁classified	-11341
▁Baghd	-11342
▁scope	-11343
▁Priv	-11344
▁Mason	-11345
loaded	-11346
sts	-11347
children	-11348
▁repeal	-11349
▁interpret	-11350
▁gallery	-11351
▁explosive	-11352
▁robot	-11353
▁automatically	-11354
▁signals	-11355
▁Stars	-11356
ante	-11357
ps://	-11358
▁3.5	-11359
▁furl	-11360
▁vigil	-11361
▁displayed	-11362
▁dispos	-11363
▁gown	-11364
airo	-11365
ugs	-11366
▁Quest	-11367
▁organic	-11368
▁reminded	-11369
▁Bird	-11370
▁Harrison	-11371
▁topped	-11372
OW	-11373
oa	-11374
▁Prize	-11375
thal	-11376
▁lasted	-11377
▁Jar	-11378
▁1991	-11379
▁filling	-11380
▁consultation	-11381
▁preserve	-11382
▁theft	-11383
▁Standard	-11384
▁finances	-11385
▁developers	-11386
▁purchases	-11387
▁unders	-11388
▁assaulted	-11389
lu	-11390
ouring	-11391
▁versions	-11392
▁shore	-11393
▁prevention	-11394
inging	-11395
▁whenever	-11396
▁Looking	-11397
▁Nash	-11398
▁Rico	-11399
▁Bever	-11400
▁Larry	-11401
▁Guardiola	-11402
▁Mumbai	-11403
▁ware	-11404
otton	-11405
▁lobb	-11406
▁fundraising	-11407
▁unfortunately	-11408
ervations	-11409
▁attendance	-11410
▁rated	-11411
▁Roc	-11412
▁reiter	-11413
nan	-11414
▁Hud	-11415
▁dimin	-11416
▁Carlos	-11417
▁measured	-11418
▁insult	-11419
▁Reds	-11420
▁propaganda	-11421
▁mirror	-11422
▁Using	-11423
▁Kil	-11424
▁blocking	-11425
▁audio	-11426
▁Fans	-11427
Ne	-11428
▁gifts	-11429
▁Hey	-11430
▁dil	-11431
▁Agreement	-11432
▁deliberately	-11433
amy	-11434
▁drives	-11435
yard	-11436
▁yard	-11437
▁clashes	-11438
▁Sophie	-11439
▁SE	-11440
▁Czech	-11441
▁Steel	-11442
www.	-11443
utt	-11444
▁Greater	-11445
▁divide	-11446
▁enact	-11447
▁blaze	-11448
▁unde	-11449
▁Lamp	-11450
▁deciding	-11451
boys	-11452
▁Reid	-11453
▁accepting	-11454
▁ladies	-11455
▁makeup	-11456
▁fined	-11457
▁Communist	-11458
rek	-11459
▁III	-11460
▁horrific	-11461
ampa	-11462
arged	-11463
▁1.7	-11464
ucus	-11465
agne	-11466
▁Nigerian	-11467
▁polar	-11468
▁pione	-11469
▁Grace	-11470
▁Born	-11471
▁Alb	-11472
▁Spr	-11473
▁Lope	-11474
▁cinema	-11475
▁impacted	-11476
▁Guy	-11477
▁rallies	-11478
▁Tommy	-11479
▁Online	-11480
▁USC	-11481
▁Messi	-11482
▁500,000	-11483
▁buses	-11484
▁Data	-11485
▁Belfast	-11486
▁alien	-11487
▁Late	-11488
▁rif	-11489
▁jokes	-11490
▁Banks	-11491
▁mud	-11492
▁intensity	-11493
▁81	-11494
▁Arthur	-11495
▁Marie	-11496
iability	-11497
▁demonstrators	-11498
▁Xin	-11499
▁Kap	-11500
doing	-11501
▁Event	-11502
reshold	-11503
ighed	-11504
▁volunteer	-11505
▁Bradley	-11506
arett	-11507
inator	-11508
▁Anti	-11509
▁patch	-11510
cribed	-11511
▁excuse	-11512
▁Lenn	-11513
▁Lopez	-11514
▁Yeah	-11515
▁infectious	-11516
▁evident	-11517
▁haul	-11518
▁privately	-11519
▁suburbs	-11520
▁Julian	-11521
▁vessels	-11522
▁firmly	-11523
▁Tigers	-11524
▁lifting	-11525
▁chapter	-11526
strong	-11527
isers	-11528
▁Pyong	-11529
▁landmark	-11530
▁ML	-11531
▁administrative	-11532
▁evol	-11533
▁Glo	-11534
▁rapper	-11535
▁buzz	-11536
▁stark	-11537
RI	-11538
▁pleasure	-11539
holder	-11540
▁Vo	-11541
▁Robin	-11542
▁library	-11543
▁Father	-11544
cill	-11545
▁Hond	-11546
▁Revolution	-11547
▁mechanism	-11548
▁occasionally	-11549
▁seg	-11550
▁Left	-11551
▁Sessions	-11552
▁Pap	-11553
▁Early	-11554
▁Jur	-11555
▁memo	-11556
▁Base	-11557
ogen	-11558
▁Captain	-11559
▁drunk	-11560
??	-11561
▁Pers	-11562
▁tougher	-11563
́s	-11564
▁Munich	-11565
itudes	-11566
▁Haz	-11567
heimer	-11568
▁storms	-11569
oria	-11570
▁operates	-11571
▁violated	-11572
▁Masters	-11573
▁Ster	-11574
▁93	-11575
▁Kus	-11576
▁bullying	-11577
▁priced	-11578
▁examine	-11579
▁appealing	-11580
▁insight	-11581
▁Chall	-11582
shine	-11583
▁anonymous	-11584
▁Person	-11585
▁acres	-11586
▁provisions	-11587
▁chase	-11588
▁declaration	-11589
▁threshold	-11590
▁Rw	-11591
▁Job	-11592
▁Wells	-11593
▁Semit	-11594
-hour	-11595
▁wooden	-11596
▁datab	-11597
▁persons	-11598
▁190	-11599
▁scholars	-11600
leted	-11601
▁confused	-11602
▁McA	-11603
▁Change	-11604
▁careers	-11605
▁R.	-11606
▁Pul	-11607
▁cabin	-11608
▁drought	-11609
gun	-11610
▁Dund	-11611
▁resolved	-11612
▁picks	-11613
▁Eli	-11614
▁honey	-11615
▁unch	-11616
▁festive	-11617
▁CIA	-11618
PM	-11619
▁notably	-11620
▁Lin	-11621
▁orchest	-11622
▁furniture	-11623
yon	-11624
▁indication	-11625
▁authentic	-11626
On	-11627
▁criteria	-11628
▁flames	-11629
▁unfold	-11630
▁exceptional	-11631
▁counted	-11632
▁patri	-11633
▁screaming	-11634
osy	-11635
▁Pyongyang	-11636
wind	-11637
▁credits	-11638
▁techniques	-11639
▁pedest	-11640
▁pupp	-11641
▁Whatever	-11642
▁twin	-11643
▁washing	-11644
vet	-11645
ulent	-11646
herent	-11647
▁sentences	-11648
▁horrible	-11649
▁Oval	-11650
▁shootings	-11651
▁1.8	-11652
▁retreat	-11653
▁Hungary	-11654
▁hyper	-11655
▁Kas	-11656
▁96	-11657
colm	-11658
▁flags	-11659
▁oppose	-11660
oken	-11661
orship	-11662
▁misle	-11663
▁Leave	-11664
▁130	-11665
▁Additional	-11666
▁hed	-11667
script	-11668
▁Myan	-11669
▁Forces	-11670
vation	-11671
▁Neither	-11672
▁Core	-11673
▁Markle	-11674
▁converted	-11675
▁Against	-11676
▁acquisition	-11677
▁nonprofit	-11678
duction	-11679
▁Jin	-11680
atter	-11681
▁D.	-11682
▁Seoul	-11683
▁Malcolm	-11684
▁precisely	-11685
▁touching	-11686
anches	-11687
▁conventional	-11688
▁categories	-11689
▁Myanmar	-11690
▁Britons	-11691
▁Ing	-11692
▁Gro	-11693
▁merc	-11694
▁batter	-11695
▁Lauren	-11696
▁evacuated	-11697
nity	-11698
fits	-11699
▁shy	-11700
otherapy	-11701
ibs	-11702
▁tissue	-11703
▁Campaign	-11704
ridge	-11705
plus	-11706
hyth	-11707
▁Giuliani	-11708
▁McCarthy	-11709
▁94	-11710
▁torture	-11711
▁transparent	-11712
▁lod	-11713
▁horm	-11714
▁jets	-11715
acles	-11716
▁fer	-11717
lected	-11718
drop	-11719
▁musician	-11720
▁Girls	-11721
D.	-11722
▁Citiz	-11723
▁Belgian	-11724
▁Kirk	-11725
▁assumed	-11726
▁collision	-11727
▁Ele	-11728
▁pressing	-11729
▁Corporation	-11730
▁passionate	-11731
▁Ronaldo	-11732
▁forecasts	-11733
▁mac	-11734
▁Andrews	-11735
▁Motor	-11736
▁Beaut	-11737
igious	-11738
agg	-11739
hum	-11740
▁chemicals	-11741
▁competitors	-11742
▁unnecessary	-11743
▁aboard	-11744
▁harmful	-11745
▁troubled	-11746
▁Rivers	-11747
▁quietly	-11748
iki	-11749
▁Carson	-11750
▁Jeffrey	-11751
▁bias	-11752
▁Simpson	-11753
▁Inte	-11754
▁Cand	-11755
▁toss	-11756
uating	-11757
▁98	-11758
▁Omar	-11759
▁representation	-11760
▁Helen	-11761
immer	-11762
▁facial	-11763
/11	-11764
▁dishes	-11765
▁Derby	-11766
rose	-11767
▁severely	-11768
▁conflicts	-11769
▁Spot	-11770
▁Il	-11771
▁joins	-11772
▁Emmanuel	-11773
▁tex	-11774
▁Article	-11775
▁shoulders	-11776
▁aviation	-11777
▁accountable	-11778
Tok	-11779
▁Claud	-11780
▁renewable	-11781
▁CS	-11782
▁grocery	-11783
▁compr	-11784
▁Baby	-11785
rection	-11786
▁Minne	-11787
▁O'B	-11788
▁cheek	-11789
▁TM	-11790
ferences	-11791
▁Todd	-11792
▁excitement	-11793
▁demonstration	-11794
▁transformed	-11795
▁soap	-11796
▁tower	-11797
▁ambition	-11798
▁Representatives	-11799
▁respir	-11800
▁Isa	-11801
omi	-11802
▁Po	-11803
▁travellers	-11804
▁Colombia	-11805
▁reserves	-11806
▁gunman	-11807
▁skept	-11808
▁Got	-11809
arettes	-11810
▁traveled	-11811
▁Si	-11812
dam	-11813
IM	-11814
▁ori	-11815
bes	-11816
mail	-11817
▁Minneapolis	-11818
aki	-11819
▁Gas	-11820
▁Kath	-11821
▁Curt	-11822
uber	-11823
▁telecom	-11824
▁excessive	-11825
▁Mn	-11826
▁Ric	-11827
▁Et	-11828
▁futures	-11829
▁outbreaks	-11830
ylan	-11831
▁Crystal	-11832
▁tunnel	-11833
▁colours	-11834
▁wounds	-11835
▁Mort	-11836
▁intellectual	-11837
eness	-11838
▁Rou	-11839
▁commod	-11840
▁comic	-11841
rer	-11842
▁fleeing	-11843
:3	-11844
▁Prosecutors	-11845
omers	-11846
▁commem	-11847
▁dual	-11848
▁conservatives	-11849
▁bra	-11850
▁transformation	-11851
▁Fashion	-11852
nered	-11853
eli	-11854
pat	-11855
▁Rodgers	-11856
▁defendant	-11857
▁DJ	-11858
▁Essex	-11859
▁TikTok	-11860
▁suburb	-11861
▁Caroline	-11862
▁Meet	-11863
▁fingers	-11864
▁bases	-11865
rams	-11866
▁Champ	-11867
▁Workers	-11868
▁prost	-11869
▁sail	-11870
▁trusted	-11871
▁Europa	-11872
▁fortune	-11873
▁equipped	-11874
▁kicking	-11875
▁offs	-11876
▁Mach	-11877
▁Gaza	-11878
umbling	-11879
:2	-11880
▁Area	-11881
▁tackling	-11882
▁Vi	-11883
uity	-11884
▁pursuit	-11885
-20	-11886
▁Tunis	-11887
armed	-11888
urred	-11889
▁charities	-11890
▁shirts	-11891
":"	-11892
CC	-11893
▁Buttig	-11894
▁computers	-11895
I.	-11896
▁enforce	-11897
enz	-11898
▁economists	-11899
▁Mum	-11900
▁Athlet	-11901
▁sacked	-11902
▁Norweg	-11903
▁cough	-11904
▁villages	-11905
▁habits	-11906
▁undermin	-11907
▁Hass	-11908
▁format	-11909
uv	-11910
▁grid	-11911
▁Kel	-11912
▁dependent	-11913
▁elabor	-11914
atri	-11915
▁portrait	-11916
▁breakdown	-11917
▁Winds	-11918
▁neighbourhood	-11919
▁Obam	-11920
▁sheer	-11921
▁transactions	-11922
gic	-11923
▁Buttigieg	-11924
100	-11925
▁dece	-11926
▁dirty	-11927
▁benchmark	-11928
▁Advis	-11929
▁counting	-11930
???	-11931
▁minimal	-11932
ullivan	-11933
▁Wallace	-11934
▁giants	-11935
▁passport	-11936
▁https://	-11937
ancies	-11938
▁anonymity	-11939
▁Clear	-11940
▁deserved	-11941
▁valued	-11942
▁Keep	-11943
▁Zucker	-11944
▁bones	-11945
▁grief	-11946
▁structural	-11947
▁policing	-11948
yers	-11949
▁ol	-11950
▁rushing	-11951
▁Nicole	-11952
▁180	-11953
uma	-11954
cos	-11955
▁annually	-11956
▁exploring	-11957
▁dragged	-11958
▁astronaut	-11959
▁gene	-11960
▁Shares	-11961
▁universe	-11962
▁monetary	-11963
▁shouting	-11964
part	-11965
▁releasing	-11966
pin	-11967
▁suppliers	-11968
▁similarly	-11969
▁ug	-11970
▁cm	-11971
▁stakes	-11972
▁Mall	-11973
▁sends	-11974
▁marine	-11975
▁cigarettes	-11976
▁18th	-11977
▁suits	-11978
erm	-11979
▁B.	-11980
GE	-11981
▁Smart	-11982
▁nerve	-11983
▁permitted	-11984
▁Kos	-11985
▁athlete	-11986
▁lun	-11987
▁Brooks	-11988
▁leak	-11989
icism	-11990
▁shipping	-11991
▁Prim	-11992
▁regulator	-11993
▁underground	-11994
▁eliminate	-11995
▁commerce	-11996
bris	-11997
▁trace	-11998
▁HS	-11999
▁celebrates	-12000
▁Rain	-12001
▁Studies	-12002
▁obesity	-12003
▁Know	-12004
▁Happy	-12005
archy	-12006
▁threaten	-12007
▁overwhelmed	-12008
▁Bes	-12009
▁fails	-12010
▁tune	-12011
ationally	-12012
▁Representative	-12013
▁Dark	-12014
▁easing	-12015
▁communicate	-12016
▁registration	-12017
IR	-12018
▁zones	-12019
▁declare	-12020
▁Jerry	-12021
▁hill	-12022
▁Resc	-12023
▁eleg	-12024
▁hurricane	-12025
▁successor	-12026
erts	-12027
▁partisan	-12028
▁anxious	-12029
▁dispar	-12030
▁intimate	-12031
▁flexible	-12032
▁aired	-12033
itty	-12034
70	-12035
stage	-12036
▁peer	-12037
▁Oc	-12038
▁designs	-12039
▁Julie	-12040
▁passage	-12041
▁obsc	-12042
▁nightmare	-12043
▁Johnny	-12044
▁nickn	-12045
▁educated	-12046
▁rental	-12047
▁railway	-12048
▁leaf	-12049
▁grip	-12050
▁sheriff	-12051
▁ma	-12052
▁Sign	-12053
▁replacing	-12054
▁winger	-12055
▁Arctic	-12056
▁nationals	-12057
▁Sac	-12058
▁clever	-12059
▁pubs	-12060
▁furious	-12061
teen	-12062
▁oversight	-12063
avis	-12064
▁seeds	-12065
▁unanim	-12066
▁trio	-12067
▁Orland	-12068
▁spare	-12069
▁Memorial	-12070
▁Cass	-12071
▁bure	-12072
▁famously	-12073
▁Walmart	-12074
▁drops	-12075
ateur	-12076
▁Try	-12077
▁Gare	-12078
▁restart	-12079
▁diamond	-12080
▁chips	-12081
▁acute	-12082
airy	-12083
utton	-12084
▁cycl	-12085
▁playoffs	-12086
▁Gw	-12087
▁turb	-12088
▁Richmond	-12089
iott	-12090
▁fiance	-12091
ullah	-12092
▁boo	-12093
▁Maj	-12094
▁pursuing	-12095
▁minded	-12096
olsk	-12097
▁Emb	-12098
▁hungry	-12099
▁Ess	-12100
▁Wals	-12101
▁Ethiopia	-12102
▁Kur	-12103
▁Kab	-12104
▁bipartisan	-12105
iah	-12106
▁Knight	-12107
▁ultra	-12108
▁whilst	-12109
▁Greens	-12110
▁grants	-12111
▁Confed	-12112
▁Based	-12113
▁speakers	-12114
▁20-year	-12115
▁cher	-12116
▁conceded	-12117
xual	-12118
▁Weather	-12119
▁examination	-12120
▁integration	-12121
face	-12122
organ	-12123
▁schemes	-12124
▁rubb	-12125
▁gri	-12126
▁cats	-12127
▁indigenous	-12128
▁Dakota	-12129
▁scary	-12130
▁contracted	-12131
▁wicket	-12132
▁avoiding	-12133
▁distributed	-12134
▁designated	-12135
▁amendments	-12136
▁mentally	-12137
▁stere	-12138
▁Rebec	-12139
▁tally	-12140
▁shifted	-12141
▁poly	-12142
▁invasion	-12143
▁Ferr	-12144
▁traditionally	-12145
fa	-12146
▁Doctors	-12147
▁drones	-12148
▁approaching	-12149
▁auster	-12150
▁academy	-12151
storm	-12152
▁sophisticated	-12153
▁tang	-12154
▁draws	-12155
▁piv	-12156
itionally	-12157
▁Bund	-12158
stand	-12159
▁reluctant	-12160
▁tob	-12161
▁proc	-12162
▁Bishop	-12163
-3	-12164
zb	-12165
▁accounting	-12166
henko	-12167
▁austerity	-12168
▁priorit	-12169
▁Kend	-12170
▁sells	-12171
▁newspapers	-12172
iox	-12173
▁arrangement	-12174
▁Centers	-12175
osystem	-12176
elta	-12177
▁Bed	-12178
▁Strate	-12179
▁Om	-12180
▁prest	-12181
▁Reed	-12182
▁Marvel	-12183
▁Rosen	-12184
western	-12185
▁genuinely	-12186
▁realistic	-12187
▁Harper	-12188
▁Saints	-12189
▁Cricket	-12190
▁olds	-12191
▁merch	-12192
▁tenure	-12193
ciation	-12194
▁balanced	-12195
dles	-12196
▁airstri	-12197
▁Bayern	-12198
▁jumping	-12199
▁Polish	-12200
▁Exc	-12201
▁vegan	-12202
▁Schumer	-12203
▁millenn	-12204
▁detected	-12205
▁Soon	-12206
▁participating	-12207
▁caring	-12208
▁Sure	-12209
▁altogether	-12210
parts	-12211
▁Gay	-12212
▁Reagan	-12213
▁jeans	-12214
▁financially	-12215
▁feeding	-12216
▁disclosed	-12217
▁mansion	-12218
NS	-12219
▁H.	-12220
▁Entertain	-12221
▁Move	-12222
▁relent	-12223
▁notable	-12224
held	-12225
▁united	-12226
angel	-12227
▁Lag	-12228
▁Marco	-12229
▁Chiefs	-12230
▁petrol	-12231
▁Crim	-12232
▁Orlando	-12233
grounds	-12234
▁Future	-12235
▁staged	-12236
▁spectrum	-12237
▁heroes	-12238
▁Rebecca	-12239
▁Thanksgiving	-12240
bast	-12241
▁Trop	-12242
▁siblings	-12243
▁Ebola	-12244
▁900	-12245
▁bankruptcy	-12246
▁Bra	-12247
▁doubts	-12248
▁releg	-12249
▁OP	-12250
▁restored	-12251
aney	-12252
▁releases	-12253
mi	-12254
ilder	-12255
▁tonnes	-12256
▁compassion	-12257
gal	-12258
▁clarity	-12259
▁resource	-12260
itivity	-12261
uz	-12262
▁lin	-12263
▁insisting	-12264
▁shifts	-12265
▁Solsk	-12266
asive	-12267
▁Between	-12268
▁http://	-12269
▁cab	-12270
▁Page	-12271
▁Rat	-12272
▁Master	-12273
▁roster	-12274
ortunate	-12275
▁Fairfax	-12276
Newswire	-12277
▁Norwegian	-12278
arus	-12279
▁Main	-12280
▁Garcia	-12281
▁militant	-12282
▁inquest	-12283
onny	-12284
▁Croat	-12285
▁cancell	-12286
▁devoted	-12287
▁hostile	-12288
▁rumours	-12289
▁Final	-12290
▁snaps	-12291
▁toy	-12292
▁revol	-12293
▁Mrs.	-12294
▁Nort	-12295
▁chairs	-12296
ignment	-12297
▁disappointment	-12298
▁wondering	-12299
▁Sterling	-12300
▁victories	-12301
B.	-12302
▁Lucy	-12303
▁Swansea	-12304
▁treaty	-12305
▁editing	-12306
▁importantly	-12307
umble	-12308
▁diesel	-12309
▁blown	-12310
▁ceiling	-12311
▁Henderson	-12312
▁launches	-12313
▁cens	-12314
▁aspir	-12315
▁Sin	-12316
▁motorc	-12317
▁counterparts	-12318
▁analys	-12319
▁Diamond	-12320
▁appealed	-12321
▁Ec	-12322
▁disability	-12323
▁Environmental	-12324
▁Half	-12325
▁sidel	-12326
▁gaming	-12327
leges	-12328
▁Qual	-12329
▁antibiot	-12330
▁Ja	-12331
▁advocacy	-12332
▁Franklin	-12333
fare	-12334
▁Notting	-12335
▁cub	-12336
App	-12337
ested	-12338
▁meters	-12339
▁Tyler	-12340
▁optimism	-12341
▁Whats	-12342
▁Slam	-12343
▁memoir	-12344
▁diplomats	-12345
▁2.2	-12346
▁abandon	-12347
▁Barrett	-12348
▁UCLA	-12349
▁Tro	-12350
markets	-12351
▁detain	-12352
▁empower	-12353
▁institutional	-12354
▁Wang	-12355
▁grat	-12356
▁load	-12357
▁Stephan	-12358
▁pizza	-12359
▁toys	-12360
ecessor	-12361
▁boards	-12362
▁stays	-12363
▁Crow	-12364
▁touchdowns	-12365
▁stating	-12366
▁flexibility	-12367
▁incumb	-12368
▁mm	-12369
▁remem	-12370
▁enemies	-12371
▁annoy	-12372
▁DU	-12373
▁surprisingly	-12374
mel	-12375
▁O'Brien	-12376
▁Brid	-12377
ecraft	-12378
▁lets	-12379
▁tobacco	-12380
▁Hanc	-12381
chi	-12382
▁Chad	-12383
▁considers	-12384
▁indoor	-12385
▁fib	-12386
▁aston	-12387
▁juris	-12388
▁highway	-12389
▁climbing	-12390
▁Support	-12391
▁Think	-12392
▁automatic	-12393
▁une	-12394
▁Julia	-12395
▁Aj	-12396
▁adventure	-12397
▁commonly	-12398
ductions	-12399
▁sin	-12400
▁predecessor	-12401
▁addresses	-12402
ahaw	-12403
▁Islamist	-12404
▁viewing	-12405
▁tasks	-12406
▁farms	-12407
▁decrease	-12408
hot	-12409
▁Potter	-12410
▁MA	-12411
▁musicians	-12412
▁Break	-12413
▁farming	-12414
▁hes	-12415
▁Kushner	-12416
▁errors	-12417
▁McCain	-12418
▁ambitions	-12419
▁Song	-12420
▁beliefs	-12421
▁immense	-12422
▁layer	-12423
▁Gat	-12424
▁lineup	-12425
▁willingness	-12426
▁isolate	-12427
▁buff	-12428
▁resemb	-12429
▁kit	-12430
▁Beyond	-12431
▁economics	-12432
▁corporations	-12433
etheless	-12434
▁Chase	-12435
▁fel	-12436
▁matched	-12437
▁Shane	-12438
▁1,500	-12439
▁delegates	-12440
▁array	-12441
▁Auss	-12442
▁listing	-12443
ecute	-12444
▁gaining	-12445
▁betray	-12446
▁starter	-12447
▁Twenty	-12448
▁satisfied	-12449
▁reopened	-12450
▁lap	-12451
▁credible	-12452
▁cautious	-12453
▁Lyon	-12454
bus	-12455
▁sooner	-12456
▁precious	-12457
▁Qaeda	-12458
▁dangers	-12459
▁Moroc	-12460
▁stabil	-12461
inted	-12462
hedral	-12463
arest	-12464
▁offset	-12465
▁damages	-12466
▁finale	-12467
▁bears	-12468
▁executed	-12469
▁singles	-12470
▁root	-12471
▁bloody	-12472
▁slowing	-12473
▁lawsuits	-12474
▁Lang	-12475
onies	-12476
▁Lynch	-12477
▁Tiger	-12478
▁Cape	-12479
▁debris	-12480
▁Pick	-12481
▁Nature	-12482
emi	-12483
uably	-12484
▁complications	-12485
▁11th	-12486
▁extending	-12487
writer	-12488
urches	-12489
law	-12490
▁vacation	-12491
▁Beh	-12492
▁ghost	-12493
▁governors	-12494
azed	-12495
▁cycling	-12496
▁Tar	-12497
▁admission	-12498
▁Deep	-12499
▁Hearts	-12500
▁unfortunate	-12501
▁introducing	-12502
RS	-12503
▁Alz	-12504
▁Amanda	-12505
▁offshore	-12506
▁Stop	-12507
▁bureauc	-12508
▁Reyn	-12509
▁1984	-12510
▁Duncan	-12511
▁Nin	-12512
icipal	-12513
▁posing	-12514
▁applying	-12515
▁AD	-12516
▁till	-12517
▁Hancock	-12518
▁Very	-12519
▁unlaw	-12520
▁transpl	-12521
▁Palmer	-12522
▁disputed	-12523
▁publishing	-12524
▁O'R	-12525
▁Bald	-12526
▁Elliott	-12527
▁ACT	-12528
▁Oakland	-12529
▁adequate	-12530
print	-12531
▁injust	-12532
▁Tyson	-12533
▁Overall	-12534
▁cogn	-12535
▁socially	-12536
▁dated	-12537
▁Cab	-12538
▁highs	-12539
▁genes	-12540
▁1/2	-12541
atively	-12542
▁mobil	-12543
▁suggestions	-12544
ao	-12545
▁happiness	-12546
▁permit	-12547
▁receiver	-12548
▁minorities	-12549
▁Derek	-12550
▁distant	-12551
▁formation	-12552
▁Homeland	-12553
▁puzz	-12554
▁Zoom	-12555
▁dose	-12556
▁ecosystem	-12557
ixel	-12558
▁Esp	-12559
▁Stef	-12560
▁Bh	-12561
▁historically	-12562
▁compelling	-12563
▁description	-12564
▁consolid	-12565
▁contributing	-12566
▁rocks	-12567
▁testified	-12568
▁Gavin	-12569
▁Koh	-12570
▁Celebrity	-12571
acon	-12572
▁Gonz	-12573
the	-12574
▁Less	-12575
▁Students	-12576
▁Catherine	-12577
igue	-12578
▁bru	-12579
▁sentencing	-12580
▁radar	-12581
▁worthy	-12582
▁cousin	-12583
▁shifting	-12584
▁instructions	-12585
ouds	-12586
ollah	-12587
▁Poc	-12588
▁Luis	-12589
iasm	-12590
ultane	-12591
▁exclusively	-12592
▁instant	-12593
club	-12594
▁Bou	-12595
▁lake	-12596
▁Commerce	-12597
Online	-12598
utter	-12599
▁greatly	-12600
▁1980	-12601
▁Shaw	-12602
▁Engine	-12603
▁abst	-12604
▁recruitment	-12605
▁appropri	-12606
▁voluntary	-12607
▁confronted	-12608
▁/PR	-12609
▁Foster	-12610
piece	-12611
believ	-12612
▁appet	-12613
▁/PRNewswire	-12614
▁Goldman	-12615
▁disturbing	-12616
▁param	-12617
▁Aid	-12618
▁selfie	-12619
▁flooded	-12620
▁Pictures	-12621
▁Cort	-12622
▁Third	-12623
▁agrees	-12624
▁Strict	-12625
▁formerly	-12626
▁Too	-12627
▁pressures	-12628
▁vibr	-12629
apper	-12630
▁circuit	-12631
eches	-12632
▁aller	-12633
▁commissioned	-12634
▁inclusion	-12635
▁Gareth	-12636
▁repay	-12637
▁lending	-12638
▁sid	-12639
▁breathe	-12640
▁Expl	-12641
▁Iron	-12642
▁cooked	-12643
▁arguably	-12644
▁inclusive	-12645
▁blonde	-12646
kees	-12647
jaer	-12648
▁Disc	-12649
▁frustrating	-12650
▁Moreover	-12651
▁Hispan	-12652
▁Remain	-12653
▁pepper	-12654
▁subscrib	-12655
▁wrongdoing	-12656
▁gloves	-12657
zi	-12658
▁discipline	-12659
▁etc	-12660
emics	-12661
▁theories	-12662
▁arranged	-12663
▁Jenner	-12664
▁pad	-12665
▁30-year	-12666
▁1988	-12667
▁endless	-12668
'A	-12669
▁compound	-12670
▁sponsored	-12671
▁focuses	-12672
▁Prop	-12673
▁Aw	-12674
▁contam	-12675
ocols	-12676
advant	-12677
▁mamm	-12678
▁misleading	-12679
▁wis	-12680
▁controlling	-12681
arat	-12682
▁aiming	-12683
▁Castro	-12684
▁partially	-12685
▁mosque	-12686
▁surpass	-12687
▁placing	-12688
▁achieving	-12689
▁Dylan	-12690
▁collecting	-12691
rolled	-12692
▁superb	-12693
▁Cuban	-12694
▁hasht	-12695
di	-12696
▁runners	-12697
▁Kob	-12698
▁developer	-12699
▁Chamber	-12700
▁hike	-12701
otsp	-12702
▁Mans	-12703
▁thanked	-12704
▁Everybody	-12705
▁Hammond	-12706
▁BT	-12707
▁offenders	-12708
▁closures	-12709
▁Tampa	-12710
▁securing	-12711
▁Critics	-12712
▁hailed	-12713
unal	-12714
▁Mountain	-12715
▁enl	-12716
▁slim	-12717
▁vend	-12718
▁moder	-12719
▁shark	-12720
▁bulk	-12721
▁math	-12722
acare	-12723
▁Entertainment	-12724
▁paralle	-12725
▁productivity	-12726
▁25-year	-12727
▁adoption	-12728
▁stranded	-12729
▁entrepreneur	-12730
▁Icel	-12731
▁smiling	-12732
▁bron	-12733
conn	-12734
▁submit	-12735
avery	-12736
▁Calif.	-12737
laimed	-12738
▁locally	-12739
▁Currently	-12740
▁terrifying	-12741
▁Thrones	-12742
leton	-12743
▁Dennis	-12744
ilia	-12745
oret	-12746
▁disprop	-12747
▁distress	-12748
▁stunned	-12749
▁rhyth	-12750
▁directive	-12751
▁slot	-12752
▁respiratory	-12753
▁Nap	-12754
▁satisfact	-12755
zes	-12756
▁91	-12757
95	-12758
▁Industry	-12759
▁0.1	-12760
▁biological	-12761
▁woke	-12762
▁indef	-12763
▁Trafford	-12764
▁Check	-12765
▁compare	-12766
aus	-12767
▁corrupt	-12768
owned	-12769
▁donor	-12770
▁disadvant	-12771
▁Zuckerberg	-12772
▁intrig	-12773
▁Together	-12774
▁grim	-12775
▁outlet	-12776
gie	-12777
▁reply	-12778
▁Solskjaer	-12779
▁thrilled	-12780
duces	-12781
▁dignity	-12782
▁subscript	-12783
▁stealing	-12784
thood	-12785
▁weighed	-12786
arez	-12787
eway	-12788
▁Iceland	-12789
▁Oz	-12790
▁Rogers	-12791
▁Taking	-12792
▁Drag	-12793
CH	-12794
▁arbit	-12795
▁Bear	-12796
▁Maxwell	-12797
iri	-12798
▁demol	-12799
▁Claire	-12800
▁Valent	-12801
uates	-12802
▁18-year	-12803
▁Gates	-12804
▁cure	-12805
▁todd	-12806
▁cam	-12807
▁Hallow	-12808
asse	-12809
stairs	-12810
▁donation	-12811
▁extremist	-12812
▁Charg	-12813
▁tropical	-12814
▁concentration	-12815
▁absurd	-12816
essa	-12817
▁greenhouse	-12818
▁yoga	-12819
▁prolong	-12820
ayed	-12821
walk	-12822
▁marking	-12823
▁adjusted	-12824
▁2.4	-12825
▁formula	-12826
▁certific	-12827
icut	-12828
▁File	-12829
mal	-12830
▁Angels	-12831
▁Rav	-12832
▁Pep	-12833
amous	-12834
▁slavery	-12835
▁juice	-12836
▁Crist	-12837
▁erupted	-12838
▁undergo	-12839
▁grap	-12840
▁obligations	-12841
▁suitable	-12842
▁Holmes	-12843
▁110	-12844
▁shortages	-12845
▁spiritual	-12846
▁chasing	-12847
no	-12848
▁straw	-12849
▁betting	-12850
▁gardens	-12851
▁Alzheimer	-12852
▁Hudson	-12853
▁endorsed	-12854
▁bans	-12855
▁Mend	-12856
▁luc	-12857
ml	-12858
▁Brett	-12859
▁Tesco	-12860
▁Co.	-12861
▁pricing	-12862
▁marginal	-12863
▁Eri	-12864
▁Ot	-12865
▁Alt	-12866
▁bug	-12867
othy	-12868
▁midst	-12869
▁Obamacare	-12870
▁oven	-12871
▁dread	-12872
▁missions	-12873
▁switched	-12874
▁Delta	-12875
▁UAE	-12876
▁tong	-12877
▁Organisation	-12878
beit	-12879
▁sweat	-12880
▁displaced	-12881
gorith	-12882
▁Silva	-12883
▁ED	-12884
▁Palm	-12885
▁guided	-12886
▁Nixon	-12887
▁MailOnline	-12888
rahim	-12889
▁Targ	-12890
▁Band	-12891
▁tons	-12892
▁Jama	-12893
▁disproportion	-12894
▁arena	-12895
heastern	-12896
▁butt	-12897
▁Coalition	-12898
iga	-12899
▁Amber	-12900
raham	-12901
▁poster	-12902
▁Sales	-12903
▁Zel	-12904
▁availability	-12905
▁Rodriguez	-12906
▁crypt	-12907
▁assemb	-12908
▁transit	-12909
▁abol	-12910
emouth	-12911
▁TO	-12912
▁credibility	-12913
▁simultane	-12914
▁premier	-12915
ungle	-12916
▁Leonard	-12917
▁Yankees	-12918
orld	-12919
▁perception	-12920
▁scratch	-12921
▁overc	-12922
▁Indians	-12923
▁embraced	-12924
▁WhatsApp	-12925
▁accum	-12926
▁Coach	-12927
▁Dom	-12928
uition	-12929
▁wors	-12930
-4	-12931
▁Connecticut	-12932
▁leaning	-12933
▁Temp	-12934
▁Nobel	-12935
▁Rap	-12936
▁advisory	-12937
▁loaded	-12938
▁destro	-12939
▁testify	-12940
▁embark	-12941
▁Hopefully	-12942
▁utility	-12943
▁Bobby	-12944
▁subsidies	-12945
▁whereas	-12946
▁Chuck	-12947
▁lane	-12948
isle	-12949
▁Walter	-12950
▁17-year	-12951
▁mysterious	-12952
▁Brew	-12953
▁receives	-12954
▁40,000	-12955
▁protocols	-12956
▁presentation	-12957
kar	-12958
enh	-12959
▁justify	-12960
▁click	-12961
▁Note	-12962
▁mart	-12963
▁messaging	-12964
▁/PRNewswire/	-12965
▁architecture	-12966
▁pharmaceutical	-12967
▁Isis	-12968
▁engineers	-12969
being	-12970
▁inspire	-12971
▁Kyl	-12972
▁fitting	-12973
▁glasses	-12974
▁enthusiasm	-12975
.au	-12976
▁Alice	-12977
▁slee	-12978
▁harvest	-12979
▁casting	-12980
▁Stanford	-12981
▁calories	-12982
▁Trude	-12983
▁chill	-12984
▁documented	-12985
▁reson	-12986
▁feedback	-12987
▁hunger	-12988
▁Louise	-12989
▁Lloyd	-12990
▁Abe	-12991
▁declining	-12992
▁Raiders	-12993
▁15,000	-12994
▁reactions	-12995
▁300,000	-12996
ORK	-12997
▁101	-12998
idi	-12999
hal	-13000
▁garage	-13001
▁Veter	-13002
▁declaring	-13003
otyp	-13004
▁Jared	-13005
▁buyer	-13006
▁Wool	-13007
▁Aub	-13008
▁pants	-13009
▁define	-13010
▁doses	-13011
▁banning	-13012
▁Tonight	-13013
irk	-13014
▁slic	-13015
▁nationalist	-13016
ugged	-13017
▁1986	-13018
▁threatens	-13019
▁indictment	-13020
▁heated	-13021
▁loyalty	-13022
▁enhanced	-13023
▁accompany	-13024
▁okay	-13025
▁unle	-13026
▁bounce	-13027
onel	-13028
▁fixture	-13029
▁legendary	-13030
antle	-13031
rained	-13032
▁Brandon	-13033
▁NCA	-13034
ista	-13035
▁Inspect	-13036
▁costly	-13037
▁revenge	-13038
dated	-13039
▁kicks	-13040
▁O'C	-13041
▁ripped	-13042
▁Trudeau	-13043
▁boundaries	-13044
▁cave	-13045
▁countless	-13046
▁stripped	-13047
▁Finn	-13048
▁Aston	-13049
▁19-year	-13050
▁prince	-13051
▁accountability	-13052
▁Halloween	-13053
▁Bengal	-13054
▁Pic	-13055
ronics	-13056
▁Walsh	-13057
▁editorial	-13058
▁Golf	-13059
▁Political	-13060
▁paintings	-13061
▁rebound	-13062
olan	-13063
▁smashed	-13064
▁Hugh	-13065
▁significance	-13066
▁snapped	-13067
▁admitting	-13068
▁throat	-13069
▁boasts	-13070
▁accomplish	-13071
▁util	-13072
▁ugly	-13073
aman	-13074
▁Investment	-13075
PD	-13076
▁Strictly	-13077
▁opposing	-13078
▁respondents	-13079
eston	-13080
▁Sach	-13081
▁seas	-13082
▁alternatives	-13083
▁factories	-13084
▁shooter	-13085
▁decisive	-13086
▁Heat	-13087
▁manifesto	-13088
▁bite	-13089
▁0.2	-13090
po	-13091
▁branches	-13092
▁rapport	-13093
▁reaches	-13094
▁slide	-13095
▁Round	-13096
▁riders	-13097
▁functions	-13098
▁prescription	-13099
ailing	-13100
/3	-13101
▁tours	-13102
▁Yang	-13103
▁twins	-13104
acht	-13105
▁creator	-13106
▁algorith	-13107
▁pronounced	-13108
▁apologised	-13109
▁emplo	-13110
▁applies	-13111
▁supplement	-13112
▁Treaty	-13113
▁suburban	-13114
▁limiting	-13115
▁uncle	-13116
ocument	-13117
▁prayers	-13118
▁files	-13119
▁Lear	-13120
▁salaries	-13121
▁strategist	-13122
▁awaiting	-13123
▁Juvent	-13124
▁safeguard	-13125
illo	-13126
▁Digital	-13127
▁Lennon	-13128
▁laug	-13129
▁donate	-13130
▁smartphones	-13131
▁notorious	-13132
▁albeit	-13133
▁catastrophic	-13134
▁Century	-13135
▁upgrade	-13136
▁Must	-13137
arc	-13138
▁divisions	-13139
▁Gand	-13140
▁syndrome	-13141
▁hood	-13142
atta	-13143
▁Boys	-13144
HP	-13145
lass	-13146
ittees	-13147
▁alike	-13148
▁ancest	-13149
UR	-13150
abad	-13151
▁Total	-13152
▁flown	-13153
lusions	-13154
▁vet	-13155
▁settings	-13156
▁Clippers	-13157
▁Ice	-13158
▁lighting	-13159
▁bearing	-13160
erving	-13161
▁Fight	-13162
▁Fo	-13163
▁Find	-13164
▁underw	-13165
▁Juventus	-13166
▁influenced	-13167
▁apologise	-13168
uire	-13169
▁Dundee	-13170
▁powder	-13171
▁Nag	-13172
▁induc	-13173
▁endured	-13174
.00	-13175
fish	-13176
▁diplomat	-13177
▁journalism	-13178
▁queen	-13179
▁laughed	-13180
▁Dy	-13181
▁backdrop	-13182
iate	-13183
▁Players	-13184
▁spirits	-13185
▁deck	-13186
▁neighbouring	-13187
▁disclose	-13188
▁1987	-13189
▁perf	-13190
▁distingu	-13191
▁Bannon	-13192
▁batting	-13193
▁cargo	-13194
▁integrated	-13195
▁Thai	-13196
▁contrary	-13197
▁entrepreneurs	-13198
oni	-13199
▁packages	-13200
impse	-13201
▁Nord	-13202
▁emphasis	-13203
▁anthem	-13204
▁revised	-13205
gio	-13206
▁1979	-13207
▁ratio	-13208
▁artistic	-13209
▁identifying	-13210
atican	-13211
▁stole	-13212
lington	-13213
▁Few	-13214
▁tricky	-13215
▁Nep	-13216
▁Carr	-13217
▁engines	-13218
▁sounded	-13219
▁Williamson	-13220
▁premature	-13221
▁delivers	-13222
▁prisons	-13223
▁Mult	-13224
enter	-13225
▁Vatican	-13226
▁footballer	-13227
▁hilar	-13228
▁MC	-13229
▁mounting	-13230
arn	-13231
▁disast	-13232
intage	-13233
▁Dian	-13234
▁BA	-13235
▁Relations	-13236
▁Wenger	-13237
▁Ambassador	-13238
▁sket	-13239
▁Madison	-13240
▁components	-13241
▁gesture	-13242
▁overtime	-13243
▁obligation	-13244
ussion	-13245
▁fancy	-13246
▁speeches	-13247
▁monument	-13248
▁logo	-13249
▁confidential	-13250
▁Darren	-13251
chair	-13252
▁Native	-13253
▁forum	-13254
▁adaptation	-13255
P.	-13256
▁database	-13257
▁unbeliev	-13258
oints	-13259
▁throws	-13260
▁parked	-13261
▁broadly	-13262
▁Gabriel	-13263
▁intellig	-13264
▁Seahaw	-13265
▁Rice	-13266
▁loses	-13267
▁Design	-13268
▁Nicholas	-13269
▁Sah	-13270
▁councill	-13271
▁Luck	-13272
▁Brits	-13273
▁Pin	-13274
▁Battle	-13275
uds	-13276
▁3D	-13277
▁casualties	-13278
ulu	-13279
▁acceptance	-13280
▁kilometres	-13281
▁counterpart	-13282
▁partial	-13283
grad	-13284
ders	-13285
IG	-13286
▁Agricult	-13287
▁seal	-13288
▁Sep	-13289
▁fascinating	-13290
▁embarrassing	-13291
▁cosm	-13292
▁gambling	-13293
▁unhe	-13294
▁glimpse	-13295
arded	-13296
omer	-13297
▁Years	-13298
▁indicates	-13299
▁Vermont	-13300
itime	-13301
▁Mohamed	-13302
▁attributed	-13303
▁searched	-13304
▁recommendation	-13305
bank	-13306
▁pause	-13307
itated	-13308
▁scramb	-13309
▁hospitality	-13310
astics	-13311
▁sacrifice	-13312
asha	-13313
ilitation	-13314
▁Mobile	-13315
▁runway	-13316
▁Shakes	-13317
arter	-13318
▁Glenn	-13319
▁substitute	-13320
cies	-13321
▁140	-13322
▁Lis	-13323
▁sticking	-13324
▁intend	-13325
rawling	-13326
▁Buckingham	-13327
▁pole	-13328
▁flee	-13329
▁Hem	-13330
▁Viv	-13331
▁Stokes	-13332
▁failures	-13333
▁reinfor	-13334
ancers	-13335
▁Bark	-13336
▁attacker	-13337
▁rage	-13338
▁immin	-13339
▁ears	-13340
▁Fat	-13341
▁reflection	-13342
▁Pierre	-13343
▁teammate	-13344
▁productive	-13345
▁shorter	-13346
▁competitions	-13347
▁murders	-13348
hani	-13349
▁2.1	-13350
afe	-13351
▁expressing	-13352
▁mortality	-13353
▁turnout	-13354
▁Windsor	-13355
▁Assistant	-13356
fy	-13357
▁intends	-13358
▁refusal	-13359
▁Brendan	-13360
oubted	-13361
▁Burns	-13362
▁Johns	-13363
▁earliest	-13364
▁Joel	-13365
▁Bourn	-13366
holm	-13367
▁nons	-13368
ductive	-13369
▁dod	-13370
hop	-13371
▁beside	-13372
▁poorly	-13373
▁21-year	-13374
▁Liz	-13375
ucci	-13376
▁unbeat	-13377
▁founding	-13378
▁outp	-13379
▁Forum	-13380
▁apartments	-13381
neath	-13382
▁SUV	-13383
▁solic	-13384
▁advances	-13385
▁Samuel	-13386
▁dear	-13387
▁churches	-13388
van	-13389
▁ought	-13390
▁twenty	-13391
▁Hitler	-13392
bye	-13393
▁produces	-13394
▁default	-13395
▁takeover	-13396
▁corrid	-13397
▁subtle	-13398
▁achievements	-13399
▁doubles	-13400
▁tattoo	-13401
▁topics	-13402
▁colleges	-13403
▁sealed	-13404
▁Cowboys	-13405
▁Seahawks	-13406
▁enabled	-13407
▁sections	-13408
▁sore	-13409
grav	-13410
▁Kazakhstan	-13411
▁Premiership	-13412
▁Muham	-13413
uffed	-13414
adequ	-13415
▁travelers	-13416
alie	-13417
▁Ank	-13418
▁freeze	-13419
▁Rooney	-13420
▁motivation	-13421
▁22-year	-13422
▁Midlands	-13423
unes	-13424
▁Ellis	-13425
ambers	-13426
▁exercises	-13427
▁defenders	-13428
respons	-13429
▁orbit	-13430
ucked	-13431
▁delegation	-13432
▁Tier	-13433
▁Highway	-13434
▁neighborhoods	-13435
▁sovereignty	-13436
▁defendants	-13437
▁maj	-13438
▁exped	-13439
▁Racing	-13440
▁Gren	-13441
▁Pur	-13442
▁colonial	-13443
▁Azerb	-13444
▁Building	-13445
▁Wa	-13446
ometown	-13447
▁rational	-13448
▁tipped	-13449
▁uncons	-13450
▁Room	-13451
▁Azerbai	-13452
▁violating	-13453
▁gorge	-13454
▁cops	-13455
▁mice	-13456
▁laboratory	-13457
nesty	-13458
▁memorable	-13459
lif	-13460
▁Shop	-13461
/4	-13462
▁YORK	-13463
▁Kids	-13464
▁delicious	-13465
▁Arkansas	-13466
▁viable	-13467
▁campaigners	-13468
▁abund	-13469
▁tracing	-13470
▁outlined	-13471
abs	-13472
▁nightclub	-13473
▁merger	-13474
▁lyrics	-13475
power	-13476
▁Robertson	-13477
▁Tan	-13478
mented	-13479
▁Military	-13480
▁Christians	-13481
▁expend	-13482
▁persuade	-13483
▁liver	-13484
▁Bath	-13485
▁2030	-13486
▁Linda	-13487
▁opera	-13488
▁Heathrow	-13489
▁veto	-13490
▁drum	-13491
▁Stakes	-13492
▁L.	-13493
▁disagree	-13494
inos	-13495
▁cord	-13496
▁wellbeing	-13497
▁Camb	-13498
redict	-13499
▁waist	-13500
▁Stay	-13501
▁Sebast	-13502
▁massacre	-13503
oda	-13504
▁instantly	-13505
▁Ki	-13506
▁voiced	-13507
▁robbery	-13508
▁coordinator	-13509
TI	-13510
▁Horn	-13511
▁Drive	-13512
▁Vent	-13513
▁stagger	-13514
▁kilometers	-13515
▁25,000	-13516
▁Martine	-13517
initely	-13518
▁Len	-13519
▁Pf	-13520
▁Consumer	-13521
▁slowed	-13522
▁6,000	-13523
▁literature	-13524
▁CF	-13525
▁indo	-13526
▁meantime	-13527
▁encl	-13528
odox	-13529
▁bilateral	-13530
oker	-13531
ARS	-13532
▁permanently	-13533
▁presenting	-13534
▁15-year	-13535
▁terr	-13536
▁Kavan	-13537
▁Lux	-13538
▁tub	-13539
▁Natural	-13540
.com.au	-13541
▁Universal	-13542
▁Pil	-13543
▁rubber	-13544
▁Joint	-13545
▁grandchildren	-13546
▁sung	-13547
ahl	-13548
▁internationally	-13549
▁crops	-13550
aukee	-13551
stanbul	-13552
▁listened	-13553
▁manufacturer	-13554
UL	-13555
▁autonomous	-13556
▁sanction	-13557
▁wickets	-13558
▁utterly	-13559
▁Andrea	-13560
▁deliveries	-13561
▁disputes	-13562
▁Dancing	-13563
▁Interior	-13564
▁confrontation	-13565
99	-13566
▁Model	-13567
▁hatred	-13568
▁24-year	-13569
▁CBD	-13570
▁Bournemouth	-13571
▁pile	-13572
▁Getting	-13573
▁Istanbul	-13574
▁inadequ	-13575
▁brick	-13576
▁unhappy	-13577
afort	-13578
▁taxpayer	-13579
▁medicines	-13580
▁Magic	-13581
▁Tas	-13582
▁mixture	-13583
▁rehe	-13584
opard	-13585
▁electrical	-13586
oft	-13587
▁convert	-13588
▁establishing	-13589
▁stranger	-13590
▁Vincent	-13591
▁wherever	-13592
itten	-13593
Neill	-13594
▁folk	-13595
▁grace	-13596
▁tooth	-13597
▁Reynolds	-13598
▁negotiated	-13599
▁nominations	-13600
▁0.5	-13601
▁disastrous	-13602
▁forthcoming	-13603
50,000	-13604
ocaust	-13605
-inch	-13606
▁Owen	-13607
▁booking	-13608
▁hedge	-13609
▁displays	-13610
▁Amid	-13611
▁Prior	-13612
▁1950s	-13613
▁Fauc	-13614
▁interfe	-13615
▁speeds	-13616
▁sake	-13617
peare	-13618
▁subjected	-13619
▁fuels	-13620
▁Kumar	-13621
▁convinc	-13622
▁Lanka	-13623
▁extremists	-13624
▁Porter	-13625
▁trim	-13626
▁NC	-13627
rad	-13628
▁160	-13629
▁Manager	-13630
▁judg	-13631
ppo	-13632
▁Therefore	-13633
▁Dog	-13634
▁classroom	-13635
gans	-13636
▁reviewing	-13637
▁honestly	-13638
▁mour	-13639
aky	-13640
▁expectation	-13641
ographer	-13642
atched	-13643
▁quote	-13644
▁Presidential	-13645
core	-13646
▁Belarus	-13647
isy	-13648
▁Schools	-13649
▁Milw	-13650
▁Sha	-13651
▁Someone	-13652
▁copies	-13653
opes	-13654
▁Village	-13655
OM	-13656
ppling	-13657
▁Arnold	-13658
▁sew	-13659
▁misin	-13660
▁pork	-13661
icaid	-13662
▁trous	-13663
▁exploration	-13664
▁Mind	-13665
▁Olivia	-13666
▁Beckham	-13667
▁commentary	-13668
▁Nottingham	-13669
▁Doug	-13670
▁20s	-13671
▁liv	-13672
▁Lampard	-13673
▁interpre	-13674
▁plunged	-13675
▁Shakespeare	-13676
ski	-13677
umps	-13678
▁Sciences	-13679
▁Glen	-13680
▁Moss	-13681
▁Milwaukee	-13682
elihood	-13683
▁Mull	-13684
▁proving	-13685
▁Tillerson	-13686
tha	-13687
▁jazz	-13688
▁printed	-13689
▁inhab	-13690
▁invitation	-13691
▁Immigration	-13692
oding	-13693
▁imagined	-13694
▁disappearance	-13695
▁Command	-13696
▁Bachel	-13697
▁instruments	-13698
▁Latino	-13699
▁Ministers	-13700
▁4.5	-13701
▁recount	-13702
▁transaction	-13703
▁Cinc	-13704
▁Geoff	-13705
▁assigned	-13706
▁US$	-13707
▁infant	-13708
usc	-13709
hou	-13710
▁lease	-13711
▁shouted	-13712
▁championships	-13713
▁lethal	-13714
▁Hernand	-13715
▁lucrative	-13716
▁doping	-13717
▁Mik	-13718
▁Towns	-13719
▁opioid	-13720
ructive	-13721
▁Dim	-13722
▁welcoming	-13723
▁Congressional	-13724
▁Medicaid	-13725
▁accidentally	-13726
bound	-13727
isi	-13728
▁Newsom	-13729
▁solely	-13730
▁Jackie	-13731
▁adverse	-13732
▁deposit	-13733
▁tracked	-13734
▁Brom	-13735
▁Rescue	-13736
▁pic	-13737
▁Clay	-13738
▁margins	-13739
▁sink	-13740
▁bedrooms	-13741
▁rit	-13742
▁dirt	-13743
▁Romney	-13744
▁Karl	-13745
▁hometown	-13746
▁Manafort	-13747
▁Fame	-13748
▁memor	-13749
▁renowned	-13750
▁Stra	-13751
▁brutality	-13752
▁Pakistani	-13753
▁Magn	-13754
▁completing	-13755
▁pave	-13756
feld	-13757
▁regards	-13758
▁abuses	-13759
▁secrets	-13760
cience	-13761
▁scare	-13762
▁floors	-13763
▁spik	-13764
▁lover	-13765
▁likelihood	-13766
▁Silicon	-13767
▁conclude	-13768
▁tense	-13769
▁fragile	-13770
▁barrels	-13771
▁curve	-13772
▁allegation	-13773
▁Norman	-13774
▁Mosul	-13775
▁suite	-13776
75	-13777
▁fits	-13778
card	-13779
▁Barcl	-13780
▁destinations	-13781
▁hospitalized	-13782
▁12th	-13783
▁pockets	-13784
▁GA	-13785
iband	-13786
▁23-year	-13787
▁Singer	-13788
cker	-13789
istically	-13790
▁digit	-13791
▁Melania	-13792
▁wondered	-13793
kinson	-13794
▁Hannah	-13795
▁ram	-13796
▁fluid	-13797
▁imposing	-13798
▁appointments	-13799
▁carn	-13800
kers	-13801
▁Working	-13802
angle	-13803
▁protesting	-13804
▁Rab	-13805
nsic	-13806
▁observers	-13807
▁Race	-13808
▁skilled	-13809
▁loun	-13810
achers	-13811
▁drift	-13812
▁2.3	-13813
▁Cornwall	-13814
▁P.	-13815
▁Fauci	-13816
▁Maine	-13817
itches	-13818
▁rides	-13819
▁Airways	-13820
▁shaking	-13821
▁Abdul	-13822
▁stored	-13823
ller	-13824
oyle	-13825
▁1985	-13826
▁Beth	-13827
▁pensions	-13828
ovo	-13829
asting	-13830
rock	-13831
***	-13832
▁Aleppo	-13833
▁implementing	-13834
▁Daw	-13835
yonce	-13836
▁traumatic	-13837
▁IMF	-13838
▁melt	-13839
▁bother	-13840
▁infamous	-13841
linary	-13842
istrates	-13843
▁Securities	-13844
▁workout	-13845
▁Craw	-13846
▁theaters	-13847
abling	-13848
▁performers	-13849
▁Residents	-13850
▁detectives	-13851
▁Use	-13852
mith	-13853
hening	-13854
▁Sound	-13855
▁constituency	-13856
▁budgets	-13857
▁Remember	-13858
▁whistlebl	-13859
▁Churchill	-13860
▁sizes	-13861
▁HD	-13862
▁Danish	-13863
innati	-13864
onnie	-13865
acerb	-13866
▁Gallery	-13867
▁curf	-13868
anting	-13869
▁neighboring	-13870
string	-13871
ema	-13872
▁ree	-13873
▁irrit	-13874
▁Uganda	-13875
▁Hernandez	-13876
ocate	-13877
matic	-13878
turn	-13879
iances	-13880
dling	-13881
▁foster	-13882
▁saves	-13883
▁mock	-13884
arette	-13885
▁Cincinnati	-13886
▁invite	-13887
▁interactions	-13888
▁disclosure	-13889
▁Ana	-13890
.20	-13891
isha	-13892
▁Mol	-13893
▁spends	-13894
▁Ferrari	-13895
▁assisted	-13896
▁tender	-13897
▁Ce	-13898
▁Yesterday	-13899
▁BE	-13900
▁philosophy	-13901
▁Manuel	-13902
▁frontline	-13903
game	-13904
▁Beyonce	-13905
▁Carrie	-13906
▁extradition	-13907
▁Somalia	-13908
▁curious	-13909
▁Across	-13910
▁masc	-13911
▁imagination	-13912
▁sanct	-13913
bot	-13914
▁thread	-13915
▁mans	-13916
▁SpaceX	-13917
▁Davidson	-13918
▁Jinping	-13919
oubtedly	-13920
▁dealers	-13921
▁packaging	-13922
aults	-13923
▁risky	-13924
aires	-13925
▁echoed	-13926
▁panels	-13927
▁Pun	-13928
amas	-13929
▁26-year	-13930
▁exacerb	-13931
▁frankly	-13932
▁Judiciary	-13933
uis	-13934
erable	-13935
▁inspiring	-13936
▁uncovered	-13937
acker	-13938
▁Pool	-13939
iots	-13940
▁sensible	-13941
▁participated	-13942
▁recommends	-13943
▁Kid	-13944
▁Empire	-13945
▁Youth	-13946
▁Adrian	-13947
▁ber	-13948
▁pard	-13949
▁Eventually	-13950
▁milestone	-13951
▁objectives	-13952
▁themed	-13953
▁cartoon	-13954
▁ports	-13955
▁hammer	-13956
OND	-13957
lon	-13958
▁vib	-13959
▁underneath	-13960
▁Booker	-13961
owners	-13962
▁dairy	-13963
▁consulting	-13964
▁Link	-13965
▁magnitude	-13966
▁submar	-13967
▁ethics	-13968
45	-13969
▁urgency	-13970
▁surged	-13971
▁gaps	-13972
▁Reports	-13973
▁floating	-13974
▁exchanges	-13975
adh	-13976
▁instances	-13977
▁dys	-13978
▁Operation	-13979
▁empire	-13980
▁electorate	-13981
▁surveyed	-13982
▁applaud	-13983
▁remembers	-13984
▁voc	-13985
▁quarterly	-13986
fty	-13987
▁tradem	-13988
▁barred	-13989
icer	-13990
,""	-13991
▁dip	-13992
▁Houth	-13993
▁bun	-13994
▁Certain	-13995
hua	-13996
▁elaborate	-13997
▁supermarkets	-13998
▁Beverly	-13999
▁attitudes	-14000
▁borrowing	-14001
▁Megan	-14002
▁Wag	-14003
▁brush	-14004
▁patience	-14005
think	-14006
▁Citizens	-14007
▁captioned	-14008
▁hackers	-14009
inery	-14010
▁flower	-14011
▁Mario	-14012
▁enterprise	-14013
kov	-14014
▁indul	-14015
uese	-14016
▁appetite	-14017
▁jaw	-14018
▁wears	-14019
▁Patel	-14020
▁favourites	-14021
Daily	-14022
regation	-14023
▁superior	-14024
▁soup	-14025
▁routinely	-14026
isure	-14027
▁Self	-14028
▁Broncos	-14029
▁Fig	-14030
▁Industrial	-14031
▁Investors	-14032
▁reacted	-14033
▁17th	-14034
▁bod	-14035
▁bowling	-14036
▁Making	-14037
▁reckless	-14038
▁Cut	-14039
▁intentions	-14040
▁obsessed	-14041
▁blew	-14042
▁Monica	-14043
▁balcon	-14044
II	-14045
▁Order	-14046
▁interaction	-14047
▁Viol	-14048
▁incons	-14049
▁incumbent	-14050
▁Kenny	-14051
▁Formula	-14052
▁ecl	-14053
▁Access	-14054
ple	-14055
▁Watford	-14056
▁ethical	-14057
▁Mug	-14058
▁farmer	-14059
quir	-14060
vor	-14061
ouncing	-14062
▁tenants	-14063
▁median	-14064
▁Doctor	-14065
▁laying	-14066
▁Holocaust	-14067
▁laptop	-14068
▁dash	-14069
▁terminal	-14070
▁grows	-14071
▁advers	-14072
▁Ashes	-14073
▁Ott	-14074
daq	-14075
▁assessed	-14076
▁occurs	-14077
▁hacking	-14078
▁Assange	-14079
▁Mead	-14080
▁Stein	-14081
▁Eur	-14082
▁Ivanka	-14083
▁unst	-14084
▁Pog	-14085
▁Portuguese	-14086
▁languages	-14087
▁Oscars	-14088
▁tolerance	-14089
▁firearms	-14090
uously	-14091
▁80s	-14092
▁separation	-14093
▁Gian	-14094
▁SW	-14095
ovan	-14096
▁Salman	-14097
angered	-14098
▁corn	-14099
▁Frances	-14100
acious	-14101
▁Ellen	-14102
▁weaker	-14103
▁dumped	-14104
▁parad	-14105
▁conj	-14106
▁abusive	-14107
▁Fraser	-14108
▁Salv	-14109
▁Martinez	-14110
▁RBI	-14111
▁Lie	-14112
▁Sara	-14113
▁Floren	-14114
▁lacking	-14115
omic	-14116
▁lenders	-14117
omatic	-14118
▁LGBTQ	-14119
▁pets	-14120
rot	-14121
▁tweeting	-14122
▁stylish	-14123
▁Shi	-14124
▁intervene	-14125
▁thunder	-14126
▁audit	-14127
▁Nasdaq	-14128
NE	-14129
▁olive	-14130
▁Wade	-14131
▁Miliband	-14132
▁Communications	-14133
▁ScienceDaily	-14134
▁nasty	-14135
▁Fun	-14136
shot	-14137
▁Gem	-14138
amped	-14139
▁Christine	-14140
▁amongst	-14141
ellar	-14142
▁wings	-14143
▁crashes	-14144
▁abrupt	-14145
▁graphic	-14146
▁evolved	-14147
▁nutrition	-14148
▁prayer	-14149
▁bits	-14150
▁feminist	-14151
▁traders	-14152
▁halted	-14153
▁Tu	-14154
▁sweep	-14155
▁dent	-14156
▁processed	-14157
▁succeeded	-14158
▁effectiveness	-14159
▁imminent	-14160
gro	-14161
▁believing	-14162
▁reader	-14163
▁pitched	-14164
▁mobility	-14165
▁Liberty	-14166
▁compan	-14167
▁10-	-14168
▁Sally	-14169
▁Jets	-14170
unning	-14171
L.	-14172
▁mins	-14173
▁synt	-14174
bey	-14175
▁evacuation	-14176
▁Fast	-14177
▁Cash	-14178
▁Curtis	-14179
▁Mirror	-14180
HA	-14181
▁Mi	-14182
▁paramed	-14183
▁denying	-14184
▁Ibrahim	-14185
▁Muhammad	-14186
▁rallied	-14187
net	-14188
▁carriers	-14189
DI	-14190
▁suspend	-14191
keys	-14192
▁ditch	-14193
▁16-year	-14194
▁Wonder	-14195
▁separat	-14196
▁13th	-14197
▁Days	-14198
▁committees	-14199
▁contractors	-14200
▁technological	-14201
▁Ches	-14202
▁bic	-14203
agher	-14204
▁Baghdad	-14205
▁inevitably	-14206
-5	-14207
▁lockdowns	-14208
▁credited	-14209
▁Carroll	-14210
▁unsuccess	-14211
▁angle	-14212
▁kits	-14213
▁Past	-14214
ouver	-14215
▁deploy	-14216
▁convictions	-14217
▁brid	-14218
▁dividend	-14219
claim	-14220
▁needing	-14221
▁Companies	-14222
▁deleted	-14223
▁slowdown	-14224
▁BR	-14225
▁recipes	-14226
wing	-14227
▁T.	-14228
▁photographed	-14229
Y.	-14230
▁unbeaten	-14231
▁downs	-14232
▁intelligent	-14233
▁swiftly	-14234
▁resilience	-14235
▁imported	-14236
moil	-14237
▁IV	-14238
▁beans	-14239
▁accounted	-14240
uchin	-14241
▁cigarette	-14242
heart	-14243
ourt	-14244
aku	-14245
▁critically	-14246
▁handing	-14247
▁injustice	-14248
▁reconst	-14249
▁Vanc	-14250
▁ideology	-14251
▁les	-14252
▁Lav	-14253
▁bands	-14254
▁forests	-14255
▁confessed	-14256
▁consumed	-14257
▁Indigenous	-14258
▁terrified	-14259
▁Robbie	-14260
▁Butler	-14261
▁newborn	-14262
▁Miche	-14263
.95	-14264
▁Wilder	-14265
▁Heritage	-14266
▁beneficial	-14267
hero	-14268
▁Rwanda	-14269
▁rightly	-14270
▁slower	-14271
▁preparations	-14272
▁Grey	-14273
▁genre	-14274
▁foreigners	-14275
▁fortunate	-14276
enge	-14277
▁Bott	-14278
▁conclusions	-14279
▁Private	-14280
▁zoo	-14281
▁authorized	-14282
▁priest	-14283
▁emotionally	-14284
▁Xbox	-14285
▁Armed	-14286
▁poised	-14287
▁haun	-14288
▁prejud	-14289
erie	-14290
inces	-14291
▁salad	-14292
65	-14293
▁Trent	-14294
▁outdoors	-14295
▁Kyr	-14296
&E	-14297
▁shorts	-14298
▁Pitt	-14299
▁learnt	-14300
▁particles	-14301
▁warehouse	-14302
▁Legisl	-14303
▁vaccination	-14304
▁experimental	-14305
▁populist	-14306
▁fond	-14307
▁Bryan	-14308
▁clad	-14309
▁CD	-14310
▁advise	-14311
▁marathon	-14312
oj	-14313
▁da	-14314
▁tends	-14315
▁Corps	-14316
▁steam	-14317
▁humour	-14318
▁asleep	-14319
▁unse	-14320
oos	-14321
▁cater	-14322
▁weighing	-14323
▁spacecraft	-14324
▁shelves	-14325
▁dawn	-14326
▁Vancouver	-14327
ivic	-14328
▁navy	-14329
▁texts	-14330
▁Regional	-14331
▁cardi	-14332
▁strengthening	-14333
rons	-14334
▁Wi	-14335
▁Opposition	-14336
▁stew	-14337
▁forb	-14338
▁Logan	-14339
▁fallout	-14340
▁SC	-14341
▁Flight	-14342
▁youngsters	-14343
▁neur	-14344
▁tariff	-14345
gical	-14346
former	-14347
▁Going	-14348
▁hamstring	-14349
▁Creek	-14350
▁lemon	-14351
▁incon	-14352
▁courtesy	-14353
▁combine	-14354
▁nationally	-14355
▁cute	-14356
▁hen	-14357
▁accidents	-14358
▁committing	-14359
▁True	-14360
▁Hull	-14361
▁freely	-14362
▁affiliate	-14363
▁Investigators	-14364
stock	-14365
ooting	-14366
ATED	-14367
▁27-year	-14368
▁heightened	-14369
▁drafted	-14370
▁greeted	-14371
▁sheep	-14372
▁dominate	-14373
▁Better	-14374
▁experiments	-14375
▁Rory	-14376
▁Serbia	-14377
▁seasonal	-14378
▁attraction	-14379
▁consequence	-14380
▁Imag	-14381
▁crisp	-14382
▁Ivan	-14383
▁reiterated	-14384
▁lag	-14385
▁jam	-14386
▁floods	-14387
▁1975	-14388
▁stabbing	-14389
▁Europeans	-14390
▁Additionally	-14391
▁Own	-14392
▁McE	-14393
▁predomin	-14394
▁ordering	-14395
▁protocol	-14396
▁deployment	-14397
▁tackles	-14398
▁searches	-14399
▁lacked	-14400
▁Gibson	-14401
▁Save	-14402
▁lovers	-14403
▁1968	-14404
▁wrap	-14405
▁animated	-14406
▁Nevertheless	-14407
▁hij	-14408
▁eliminated	-14409
▁Naval	-14410
▁Nashville	-14411
▁QC	-14412
lat	-14413
▁Housing	-14414
▁undergoing	-14415
▁relied	-14416
▁rainfall	-14417
▁Gove	-14418
iler	-14419
▁250,000	-14420
▁component	-14421
▁cocktail	-14422
sk	-14423
▁Blood	-14424
▁turmoil	-14425
▁Hig	-14426
▁lion	-14427
▁Ran	-14428
▁aggression	-14429
▁designers	-14430
▁00	-14431
resses	-14432
iper	-14433
▁conting	-14434
▁ate	-14435
▁Something	-14436
▁leverage	-14437
▁existed	-14438
ulty	-14439
ordable	-14440
▁2.7	-14441
▁shareholder	-14442
▁Fi	-14443
pher	-14444
ascular	-14445
▁wireless	-14446
▁header	-14447
▁treats	-14448
▁muscles	-14449
▁washed	-14450
▁livest	-14451
▁Leaders	-14452
▁Tell	-14453
▁ballistic	-14454
▁Legal	-14455
▁ferry	-14456
▁rav	-14457
▁Kle	-14458
▁moist	-14459
▁Fried	-14460
▁Hob	-14461
giene	-14462
▁manages	-14463
▁Contin	-14464
▁plumm	-14465
▁dug	-14466
▁Stephanie	-14467
▁Parents	-14468
▁and/	-14469
▁blanket	-14470
▁contested	-14471
▁Griffin	-14472
▁download	-14473
▁Nar	-14474
▁Sof	-14475
▁revelations	-14476
▁Kenn	-14477
▁1,3	-14478
brook	-14479
▁1981	-14480
▁rings	-14481
▁holders	-14482
▁attackers	-14483
▁Proper	-14484
▁guilt	-14485
▁persistent	-14486
▁Ful	-14487
ostal	-14488
▁rivers	-14489
▁belonging	-14490
▁Throughout	-14491
vo	-14492
▁Princ	-14493
rington	-14494
▁prepares	-14495
▁Stoke	-14496
itate	-14497
▁fatalities	-14498
▁Marin	-14499
▁Joyce	-14500
▁Thor	-14501
nar	-14502
▁1982	-14503
▁Mov	-14504
▁nuts	-14505
▁staggering	-14506
eler	-14507
▁salmon	-14508
▁1000	-14509
▁preval	-14510
▁forming	-14511
▁Blasio	-14512
▁costume	-14513
▁125	-14514
▁and/or	-14515
▁adapted	-14516
▁yields	-14517
▁justified	-14518
▁leap	-14519
▁municipal	-14520
▁Geneva	-14521
▁indoors	-14522
▁simultaneously	-14523
▁Root	-14524
▁ICE	-14525
▁debts	-14526
▁NHL	-14527
▁facilitate	-14528
▁flip	-14529
dem	-14530
▁glory	-14531
inda	-14532
▁mounted	-14533
▁vintage	-14534
▁heroin	-14535
▁Stevens	-14536
▁rankings	-14537
▁bleeding	-14538
▁disagre	-14539
▁lobbying	-14540
▁O'Neill	-14541
rawl	-14542
▁expose	-14543
▁1983	-14544
▁Niss	-14545
▁heavyweight	-14546
24	-14547
▁Armenia	-14548
▁superstar	-14549
▁ensemble	-14550
▁fict	-14551
▁undoubtedly	-14552
acent	-14553
▁trousers	-14554
▁Armstrong	-14555
▁ling	-14556
▁Ghana	-14557
▁prestigious	-14558
▁Leo	-14559
▁seiz	-14560
▁Prix	-14561
▁Venice	-14562
▁IB	-14563
▁navigate	-14564
▁diox	-14565
▁PGA	-14566
▁Markets	-14567
▁nominees	-14568
▁thoroughly	-14569
▁incomes	-14570
itcher	-14571
▁yeah	-14572
▁Burnley	-14573
▁Kylie	-14574
▁boosted	-14575
▁Sid	-14576
▁greet	-14577
▁gentlemen	-14578
▁compuls	-14579
▁Hispanic	-14580
▁Statistics	-14581
cons	-14582
▁unlawful	-14583
▁accent	-14584
▁eased	-14585
▁supreme	-14586
▁bubb	-14587
▁reserved	-14588
quer	-14589
▁py	-14590
▁backgrounds	-14591
▁disorders	-14592
▁Congo	-14593
▁stint	-14594
▁Urban	-14595
▁unnamed	-14596
▁Petro	-14597
▁prisoner	-14598
yes	-14599
nex	-14600
▁9/11	-14601
gap	-14602
▁Romania	-14603
▁Panthers	-14604
piring	-14605
▁Pand	-14606
▁inch	-14607
▁burgl	-14608
▁sunny	-14609
▁fireworks	-14610
▁Bulld	-14611
▁palace	-14612
▁dresses	-14613
▁clearing	-14614
▁freezing	-14615
▁Index	-14616
▁Finland	-14617
▁broker	-14618
▁decides	-14619
incial	-14620
▁sadly	-14621
▁calculated	-14622
▁remotely	-14623
▁directions	-14624
▁duck	-14625
▁chiefs	-14626
▁delicate	-14627
▁SD	-14628
▁resistant	-14629
▁destroying	-14630
▁ther	-14631
▁SEC	-14632
▁15th	-14633
▁literary	-14634
▁fitted	-14635
▁functioning	-14636
▁2025	-14637
▁Sug	-14638
▁Gandhi	-14639
▁thriller	-14640
▁Circuit	-14641
▁gorgeous	-14642
emet	-14643
▁stretched	-14644
▁hashtag	-14645
▁Pfizer	-14646
▁Griffith	-14647
▁sensor	-14648
▁meteor	-14649
▁alarming	-14650
▁cognitive	-14651
▁boarding	-14652
▁lens	-14653
▁crises	-14654
icting	-14655
▁northeast	-14656
▁hazard	-14657
▁accommodate	-14658
▁vague	-14659
▁surviving	-14660
▁1969	-14661
erals	-14662
▁Side	-14663
riages	-14664
▁absorb	-14665
▁sheets	-14666
▁cooperate	-14667
▁inters	-14668
▁piano	-14669
▁incentives	-14670
▁grandpa	-14671
▁wary	-14672
▁resumed	-14673
▁hybrid	-14674
▁Thatcher	-14675
embley	-14676
aste	-14677
▁trainers	-14678
Le	-14679
fell	-14680
▁televised	-14681
▁Sor	-14682
-12	-14683
uded	-14684
▁plag	-14685
ento	-14686
▁organizers	-14687
▁lungs	-14688
▁brains	-14689
▁keeper	-14690
▁restrain	-14691
▁Wembley	-14692
▁tide	-14693
▁Store	-14694
aha	-14695
▁90s	-14696
▁blasted	-14697
OA	-14698
▁sympathy	-14699
▁Chloe	-14700
▁microp	-14701
▁certainty	-14702
▁coordinated	-14703
▁Soft	-14704
▁bay	-14705
▁anchor	-14706
usk	-14707
▁disgrace	-14708
▁rhythm	-14709
▁Schiff	-14710
▁16th	-14711
awi	-14712
▁troubles	-14713
▁successive	-14714
▁Electric	-14715
▁Wildlife	-14716
▁supposedly	-14717
▁Prest	-14718
▁cheating	-14719
▁exploded	-14720
▁Retail	-14721
▁relying	-14722
▁Mnuchin	-14723
▁elevated	-14724
▁Inspector	-14725
ixtures	-14726
▁refuses	-14727
▁programming	-14728
icians	-14729
▁Unit	-14730
bourg	-14731
▁locks	-14732
▁rubbish	-14733
▁Kany	-14734
▁NCAA	-14735
▁quo	-14736
▁escalation	-14737
obi	-14738
▁gangs	-14739
▁sang	-14740
▁contempl	-14741
iments	-14742
▁strangers	-14743
▁incorrect	-14744
▁G.	-14745
▁Ral	-14746
itutes	-14747
▁Jesse	-14748
▁robots	-14749
▁oral	-14750
▁Championships	-14751
▁healing	-14752
nut	-14753
▁737	-14754
▁happily	-14755
▁intercept	-14756
▁Chand	-14757
▁1970	-14758
▁Aussie	-14759
hu	-14760
▁rend	-14761
▁Athens	-14762
▁Wait	-14763
▁kingdom	-14764
ocide	-14765
▁astonishing	-14766
▁0.3	-14767
▁trash	-14768
▁Curry	-14769
▁hilarious	-14770
▁transfers	-14771
▁baking	-14772
▁Ultimately	-14773
▁wisdom	-14774
▁Pradesh	-14775
▁occasional	-14776
istical	-14777
▁Abraham	-14778
▁refers	-14779
▁hardware	-14780
engu	-14781
-mile	-14782
▁Sox	-14783
▁Analysis	-14784
▁Hassan	-14785
robe	-14786
▁proclaim	-14787
▁Says	-14788
▁Mission	-14789
▁Ern	-14790
▁exams	-14791
astically	-14792
chat	-14793
▁tongue	-14794
▁Sullivan	-14795
▁premises	-14796
▁Kavanaugh	-14797
rod	-14798
IDS	-14799
▁1972	-14800
▁aggrav	-14801
▁ineff	-14802
▁horn	-14803
▁defer	-14804
▁Embassy	-14805
▁raids	-14806
▁withdrawn	-14807
inis	-14808
poken	-14809
▁flows	-14810
5pm	-14811
▁toe	-14812
uffle	-14813
▁Majority	-14814
▁circles	-14815
▁Analysts	-14816
▁Guine	-14817
▁catches	-14818
rard	-14819
▁ECB	-14820
tra	-14821
▁Perez	-14822
▁Serena	-14823
▁prosperity	-14824
▁radiation	-14825
▁PPE	-14826
▁publisher	-14827
▁unaware	-14828
▁entertaining	-14829
urst	-14830
▁28-year	-14831
▁urg	-14832
▁ash	-14833
MP	-14834
▁transported	-14835
▁Ax	-14836
▁70s	-14837
▁endorsement	-14838
▁kidney	-14839
▁complaining	-14840
VP	-14841
▁Pret	-14842
▁Psych	-14843
▁Fu	-14844
▁dioxide	-14845
▁stiff	-14846
▁u	-14847
▁Ankara	-14848
▁genius	-14849
idy	-14850
kh	-14851
▁coloured	-14852
▁Protesters	-14853
▁exhausted	-14854
[...]
