▁▨ 453438540
▁, 358719528
▁ 313540606
▁the 308569459
▁. 280870080
▁to 170635445
▁a 167981962
▁of 147709617
▁and 142594382
▁in 123155903
▁" 114002252
▁- 99062070
s 83600077
e 82410365
□ 80561286
t 79123006
n 68784758
i 64427446
▁'s 63637814
▨ 61588397
▁that 59948490
▁for 58985761
a 58569315
▁on 56893053
▁is 55134936
o 54358882
r 48675276
▁t 47726959
▁The 44696556
▁□ 42416712
d 42401076
h 41675428
▁with 41158887
▁was 41155399
▁I 40917005
▁it 39230736
l 38104728
▁be 37353960
g 37056295
▁as 36577533
▁an 35482001
▁he 35310792
y 35063966
▁at 34210104
he 32173987
f 31447595
▁said 29787255
▁by 28967479
in 28661325
▁' 28451635
c 27527522
▁have 27515262
▁are 26933325
▁s 26882673
ing 26669214
u 26456449
▁from 26104989
ed 25841667
▁has 25741787
▁o 25706117
▁: 24442176
w 24287582
m 24121897
▁his 23313852
▁w 22874218
er 21943929
, 21829752
▁not 21688254
p 20743079
. 19296697
on 19105043
▁f 19043309
▁we 19024886
▁th 18811412
re 18464528
is 18274555
▁this 18089973
▁they 17555298
▁will 17488860
▁who 17449693
▁h 17405331
es 17194772
b 17023502
▁had 17003659
▁but 16770807
ly 16654369
at 16643262
▁been 16375286
▁A 16288600
▁) 16238880
or 16175318
▁( 16169702
▁her 16074805
▁n 16067372
▁c 16011306
▁or 15969086
▁m 15911230
▁their 15841473
▁b 15778387
as 15643882
it 15570359
an 15303701
▁n't 15240397
▁you 15008139
al 15004894
▁d 14998711
▁were 14744195
▁p 14550581
▁e 14344032
en 14249289
▁up 14117611
▁more 13819683
▁It 13286404
▁out 13051091
▁one 12890015
▁l 12734771
▁she 12622416
▁which 12593840
▁about 12320418
ar 12083967
v 12044131
▁all 12007747
le 11763839
▁do 11758191
▁can 11731036
▁T 11710568
▁would 11635178
▁after 11375703
ic 10939388
▁its 10893028
▁S 10891704
k 10760687
▁In 10524469
ou 10508446
▁also 10464991
▁people 10377807
▁He 10371278
▁so 10288722
▁when 10052268
- 10045576
st 9864721
▁B 9691181
▁over 9613166
▁time 9529990
▁C 9430715
ers 9346949
▁than 9338213
est 9209019
▁there 9158989
▁M 9145342
T 9104699
▁We 8953396
▁r 8872236
id 8714423
▁into 8521988
th 8458177
▁? 8422912
ot 8399778
▁But 8360369
ent 8303262
▁no 8286782
▁two 8250280
ion 8243238
▁g 8221953
▁year 8169802
et 8162477
▁just 8148516
▁re 8106113
S 8086333
il 8039715
▁like 7978741
▁D 7936570
▁P 7899760
▁them 7873055
▁new 7795671
▁what 7789923
▁H 7738274
ad 7734723
▁if 7650585
▁st 7640441
▁first 7638048
ve 7633918
▁could 7564658
el 7454150
C 7445343
A 7358978
▁L 7351525
▁my 7345689
▁-- 7343830
▁our 7321166
▁y 7251901
▁F 7196522
ut 7191419
▁R 7167629
▁other 7151312
' 7121178
▁some 7117608
▁W 6945148
ate 6927953
ay 6922743
▁me 6897246
▁being 6846489
▁back 6837899
ir 6822641
▁him 6779244
▁G 6683975
▁last 6654739
▁now 6644503
▁years 6608264
ur 6582624
▁off 6580639
M 6548203
▁i 6507141
▁; 6473626
▁$ 6455939
ation 6441084
us 6325943
I 6315218
▁get 6306729
▁Trump 6243185
am 6176629
▁go 6100363
▁N 6029990
om 5992985
▁how 5916198
ts 5897084
▁did 5861189
B 5859217
ith 5797485
ce 5751316
os 5702921
▁K 5655473
ec 5642964
" 5635815
ia 5627749
▁only 5596791
ie 5548015
ist 5541097
im 5514305
▁most 5467664
▁And 5435287
▁where 5389202
▁any 5379753
ro 5371815
ri 5352503
▁before 5294663
ter 5245635
▁al 5240745
▁because 5227664
ch 5216655
ol 5164514
ant 5107808
▁work 5091273
ac 5055579
▁1 5049942
▁your 5043192
P 5039532
▁says 4970445
and 4965726
▁down 4951263
ity 4943940
▁told 4933733
▁day 4924988
▁This 4918094
▁make 4912741
ig 4905838
▁ha 4893538
▁very 4877456
ill 4875891
se 4860558
op 4842025
▁made 4818231
ow 4806376
▁many 4782213
▁us 4781685
▁three 4770926
▁wh 4764288
▁sh 4736670
▁those 4699930
em 4686390
▁way 4685302
▁then 4683488
▁while 4663815
▁per 4642834
▁She 4635520
▁well 4613383
▁Mr 4600461
ab 4597161
x 4593522
ive 4562123
▁say 4551546
▁E 4518734
▁v 4511868
D 4507603
▁2 4489124
▁even 4455083
the 4436391
▁home 4431298
▁'re 4391146
un 4384612
▁against 4298776
▁old 4276907
▁They 4274498
▁New 4262971
ment 4262159
ld 4246672
▁am 4228843
ry 4227590
▁J 4222032
▁take 4221755
H 4218552
▁through 4216920
ies 4197642
E 4193249
ated 4183537
▁government 4165396
ian 4162924
▁should 4159504
▁un 4143634
R 4124343
F 4112205
W 4110821
ag 4081459
▁under 4044554
▁week 4041104
2 4040017
0 4037248
man 4037166
▁man 4000730
▁see 4000033
▁world 3998493
z 3994868
ions 3989144
▁going 3956308
▁part 3952732
out 3950801
▁these 3947037
um 3945729
▁think 3896467
▁much 3882273
▁still 3880780
ra 3878662
▁such 3845385
te 3837399
ul 3818877
▁around 3813687
L 3805891
▁O 3785550
G 3765307
▁£ 3752844
▁ch 3750072
▁know 3749116
▁V 3731875
▁sa 3730186
ine 3728049
▁may 3722438
able 3702301
▁during 3699437
▁end 3698691
▁since 3673603
j 3662719
▁There 3658732
▁10 3648427
ain 3635570
▁need 3633282
ge 3616260
▁As 3610845
N 3596378
ure 3588552
ver 3586849
▁de 3542018
▁long 3535480
ak 3528174
▁right 3502767
▁US 3492427
▁That 3482037
▁country 3481508
▁state 3474382
▁3 3464615
▁St 3464583
▁% 3464150
▁good 3463397
5 3450389
▁own 3446293
▁life 3437698
od 3435764
ans 3430525
age 3429862
our 3411854
▁'ve 3405446
nd 3379571
O 3376668
▁If 3367851
3 3335253
▁million 3335170
ings 3317943
to 3310668
▁co 3308730
▁between 3297354
ew 3295117
ial 3288340
▁too 3284618
▁want 3274550
ne 3268392
1 3243377
▁does 3241540
ors 3222438
▁team 3222101
ise 3194489
▁ab 3190521
▁police 3188887
▁sp 3159449
▁found 3147847
▁Th 3147251
av 3143380
▁help 3134598
▁next 3129575
▁come 3128991
▁show 3124338
ice 3120282
ast 3112660
▁set 3104247
▁four 3102873
▁j 3096901
▁'m 3094316
9 3059030
▁public 3045238
oc 3044476
▁4 3038274
res 3038244
▁family 3037807
4 3031512
6 3007602
▁le 3003989
7 2998037
ue 2997440
8 2994849
▁game 2993903
ary 2986724
▁including 2978773
▁both 2977162
▁An 2967830
end 2965175
▁high 2955163
▁really 2944907
her 2937611
ore 2916297
art 2913643
▁play 2901874
▁5 2893903
▁Y 2878346
▁For 2870327
all 2869853
▁ex 2857617
ust 2855412
ap 2845256
ear 2841040
▁left 2840319
iv 2834724
ard 2832913
▁cl 2826157
▁! 2818175
▁every 2813918
▁U.S. 2805018
▁got 2803828
▁ca 2797187
▁company 2795859
▁second 2793778
▁You 2790215
ich 2784829
▁another 2783705
▁20 2779885
▁President 2774456
▁best 2754799
▁se 2754487
one 2750717
▁use 2746650
U 2745413
ip 2742579
▁On 2741001
ish 2740839
▁same 2732610
ous 2728489
ite 2727779
▁former 2724626
ave 2721789
up 2717000
if 2702991
▁days 2701090
ep 2700413
▁Ch 2699779
ty 2693752
les 2681727
▁called 2678592
▁place 2672584
▁ad 2669458
ens 2658218
▁put 2651488
▁UK 2650451
▁season 2643214
▁here 2641456
of 2638327
▁women 2637648
ess 2637126
ted 2634983
▁pl 2625476
red 2618743
▁never 2611841
K 2605698
▁fr 2601577
ance 2600257
▁used 2592500
▁top 2592229
qu 2586887
▁te 2586796
▁U 2562433
ical 2561969
▁ar 2558608
ting 2548181
ations 2545199
ell 2544942
▁tr 2540758
ack 2524023
▁United 2518867
ould 2512102
▁look 2510711
▁health 2510435
▁... 2510255
ally 2505683
▁five 2498880
▁en 2496385
▁month 2493894
led 2491158
ke 2488216
ud 2481031
▁added 2476861
▁pe 2473733
so 2456312
day 2447851
▁At 2445856
▁6 2445288
▁Mr. 2442947
▁group 2437789
ating 2432473
▁When 2421603
▁support 2406066
▁con 2397315
▁win 2386634
▁number 2386521
ome 2383957
▁sc 2381398
▁away 2379651
▁again 2379281
▁cent 2377578
▁So 2375371
▁far 2369004
▁ne 2361695
▁president 2344283
▁night 2342470
der 2342422
ton 2336266
▁12 2325970
ide 2323564
▁deal 2320291
ose 2319713
▁few 2318929
▁report 2312690
▁children 2301439
▁pro 2295872
ll 2294207
▁Sh 2288874
ib 2288477
▁k 2286702
▁lot 2282688
▁run 2278700
ort 2267774
▁/ 2264892
▁later 2263670
▁took 2259494
▁car 2258579
aid 2257347
io 2255887
▁having 2255338
▁big 2254264
are 2253694
ost 2253055
ren 2251712
ft 2247797
ks 2238974
▁came 2237789
▁case 2231410
ier 2228029
▁head 2226108
ling 2221793
og 2219071
J 2206453
li 2206011
▁To 2204288
▁months 2204100
▁according 2200390
ight 2200136
▁might 2198517
▁House 2197041
ff 2189437
ub 2184313
▁seen 2176232
ons 2172372
▁start 2171542
▁7 2157569
ong 2154509
igh 2153749
▁One 2136342
ct 2134528
son 2127827
▁across 2126942
lo 2120964
we 2101184
▁China 2098636
▁past 2095870
ee 2092196
ley 2091852
▁11 2085745
▁school 2068680
pp 2066284
▁wo 2063088
ates 2061855
▁law 2058471
▁No 2056972
▁social 2053520
▁party 2053128
▁each 2051310
q 2050729
ond 2048225
ake 2045824
land 2045709
▁rep 2043743
ah 2042980
als 2035868
ness 2035531
▁already 2034788
me 2033652
▁city 2031785
▁without 2029766
▁Al 2025257
ful 2022787
▁men 2018268
▁] 2010359
rom 1999801
▁things 1999565
▁hard 1997289
▁half 1997183
▁care 1996107
ind 1993632
▁[ 1990787
▁less 1978839
▁person 1977945
▁must 1973709
▁until 1972678
▁Z 1969538
be 1968258
▁six 1966156
▁better 1960135
▁great 1959292
ence 1957328
gh 1956812
oun 1953649
▁business 1951632
ism 1947820
▁inc 1945798
ner 1945242
▁res 1938599
▁something 1937368
ade 1936603
▁face 1935355
▁find 1934581
▁little 1933809
▁15 1928704
▁gr 1928144
▁May 1928046
▁Le 1927823
▁point 1926538
▁market 1926334
▁South 1925525
V 1923026
▁change 1922470
▁media 1914667
▁always 1913309
▁money 1911871
▁news 1907848
▁York 1906470
mer 1904623
hat 1898834
▁real 1897858
▁able 1891938
▁campaign 1891594
▁ed 1891545
ov 1879192
▁percent 1878806
▁American 1877372
▁pay 1877026
▁comp 1872848
ick 1866311
▁early 1865525
▁times 1863713
▁8 1857808
▁ever 1856387
ile 1852731
▁su 1848773
ace 1847991
▁working 1837514
▁pr 1834730
▁London 1831771
▁30 1830392
▁local 1828193
▁side 1826482
▁went 1821339
ass 1818136
ach 1814021
▁feel 1812289
▁saying 1812280
,000 1812266
▁app 1811612
▁What 1803706
hen 1801762
ame 1801006
▁call 1800593
▁making 1791938
ory 1790574
: 1790071
▁ago 1789284
▁live 1789098
▁keep 1787470
▁fo 1785648
▁least 1782446
▁Friday 1781635
▁ac 1781594
▁fl 1779992
▁court 1779322
▁election 1767765
▁Re 1765335
uc 1765042
▁hand 1763547
▁death 1763220
ina 1762318
▁power 1761280
ning 1760922
▁full 1759880
▁18 1757045
▁political 1755794
▁hit 1755244
ics 1752976
▁'ll 1751286
▁become 1750722
ists 1749395
▁Monday 1747893
ob 1747859
▁'d 1742428
▁give 1740538
▁why 1740056
▁free 1737239
00 1735202
▁taken 1730900
▁system 1727157
▁whether 1726609
ho 1726241
▁ag 1724154
▁move 1721666
▁war 1719661
▁North 1717860
per 1713590
▁Tuesday 1709731
▁All 1701317
▁young 1701037
▁0 1698737
▁European 1698364
▁Tr 1695883
▁different 1690723
▁open 1690018
▁asked 1686902
▁lead 1685708
▁States 1685111
aw 1677560
ins 1675203
▁imp 1671775
▁known 1671374
▁thing 1670509
▁woman 1667454
its 1666125
und 1665702
ash 1664666
de 1664554
ays 1663451
▁air 1663369
▁weeks 1661469
▁based 1661074
▁reported 1661020
ase 1660179
▁cases 1660093
▁final 1658653
ign 1658271
▁bl 1656176
▁ro 1655520
▁Sunday 1652723
ric 1648512
▁After 1645301
▁today 1644992
▁line 1641897
▁done 1641484
by 1641211
ities 1636150
ire 1635977
ven 1625162
▁dis 1619650
ale 1619367
ord 1618804
ree 1616820
ang 1615205
▁water 1613837
▁national 1610470
▁plan 1609363
▁With 1609254
ber 1608086
▁recent 1607245
▁officials 1605092
▁2016 1604679
▁com 1604655
ys 1602883
ds 1601453
▁third 1599134
▁statement 1597864
fe 1596941
́ 1593403
▁though 1592623
▁among 1587881
▁risk 1587082
act 1586341
▁rec 1582060
▁14 1581320
Y 1580897
▁EU 1579976
▁post 1579237
▁9 1576774
▁close 1574880
▁comes 1574811
▁players 1569965
ath 1567805
▁exp 1567094
▁likely 1566309
▁doing 1558263
▁fact 1555769
▁thought 1555005
▁non 1546864
▁Wednesday 1546766
▁love 1546595
ect 1543837
▁given 1538769
▁enough 1538440
▁State 1536959
▁star 1536254
▁met 1533710
ump 1533608
▁clear 1533329
▁form 1533072
ets 1532357
▁int 1531984
▁Thursday 1531829
▁members 1530387
▁qu 1526695
▁His 1521467
ned 1520126
-year 1518834
▁area 1517166
▁pre 1509486
▁due 1508461
▁13 1508258
▁sl 1502827
ler 1499389
▁City 1498814
iz 1498399
▁br 1496174
▁coronavirus 1495816
ents 1492536
rit 1487972
ai 1487649
▁led 1487604
▁future 1486025
▁job 1485829
▁World 1485538
▁together 1484046
▁u 1482980
▁important 1482124
▁countries 1479056
▁black 1478967
ress 1478887
ime 1475474
▁March 1475385
co 1473625
▁cost 1471256
▁decision 1469539
sh 1463729
ised 1463010
▁John 1461668
't 1459740
▁Mar 1459725
▁small 1459325
▁taking 1456623
old 1455802
▁lo 1454283
▁order 1452198
▁yet 1451359
ms 1450705
▁once 1450433
▁My 1449416
▁house 1449372
▁food 1449193
ered 1448498
▁British 1445996
▁National 1444056
ters 1443976
▁hours 1442387
ger 1441015
▁won 1439187
▁Saturday 1436398
▁near 1435045
▁low 1434470
▁er 1433758
▁ing 1432428
▁often 1430126
▁staff 1429420
▁West 1429384
▁several 1429370
ek 1426015
▁19 1425639
▁em 1423593
▁Sp 1423058
▁points 1418649
▁data 1417729
▁50 1416510
▁body 1413452
▁child 1409998
▁major 1408078
▁age 1407419
▁late 1406561
▁16 1406244
ru 1403377
▁act 1400492
▁expected 1399621
▁lost 1398439
▁rest 1398001
ual 1397109
▁series 1396994
▁While 1396846
ied 1392929
ited 1392571
▁policy 1392411
▁wrote 1388546
▁bit 1387049
▁2015 1384839
▁However 1384082
▁Un 1382170
▁News 1381358
ious 1381310
▁vote 1381039
▁England 1379543
▁behind 1378224
▁Is 1377761
itt 1376061
▁Be 1375587
au 1371378
▁try 1370818
ures 1366772
▁looking 1365535
▁De 1365385
▁front 1365223
ok 1363704
▁add 1362954
▁games 1361124
▁security 1359555
▁billion 1357366
` 1355582
amp 1353763
▁White 1352583
▁Of 1351027
▁process 1349907
▁2020 1349750
▁held 1346180
▁office 1345815
▁level 1345403
▁University 1342896
▁coming 1342126
less 1341679
pt 1341251
▁ret 1341010
▁others 1338827
▁fire 1338783
▁along 1336304
▁wa 1336169
▁attack 1335780
▁died 1335555
iss 1333961
▁outside 1333124
▁getting 1332313
▁cont 1331504
rs 1330712
ats 1328500
▁further 1326887
▁comm 1325683
▁almost 1325225
▁tax 1323119
▁video 1322840
ount 1321262
▁let 1320583
rop 1320203
▁story 1317529
▁trying 1315390
air 1314842
▁25 1313383
fter 1312111
▁believe 1309652
▁companies 1308408
▁ind 1308402
ily 1303170
▁following 1302585
▁2017 1302211
▁son 1301731
▁return 1301183
ize 1298723
pl 1297090
ound 1296535
▁started 1295537
for 1295468
▁17 1294759
▁using 1291373
▁mother 1289342
▁Am 1288480
▁Europe 1287687
▁record 1286016
▁information 1285150
▁leader 1282761
ments 1280123
▁2018 1279945
▁sw 1279709
▁term 1279248
▁possible 1273399
▁red 1269194
ves 1268583
▁earlier 1266334
▁chief 1265566
▁acc 1265373
hi 1264591
▁stop 1264181
▁2019 1262708
▁Some 1262330
ition 1255778
▁100 1255114
▁announced 1253041
anc 1252634
▁study 1252518
▁wanted 1250568
▁turn 1250113
▁community 1249324
▁club 1248163
ock 1248118
here 1246852
▁Australia 1244610
▁saw 1244353
ues 1239853
▁role 1239591
▁continue 1238857
ane 1238044
▁short 1236149
▁issue 1235231
▁within 1234888
ns 1233963
ged 1232232
▁film 1231268
▁att 1231189
▁June 1230434
▁played 1229949
ative 1229804
pr 1225540
▁sure 1224893
▁kind 1223674
ther 1223568
ars 1222206
ding 1221576
▁name 1218361
▁24 1215781
▁dec 1213481
▁cr 1212565
▁sign 1212199
▁Police 1211352
▁control 1210644
▁killed 1209697
ble 1209669
▁Her 1209099
▁history 1209060
▁Now 1208401
▁forward 1204199
▁ins 1203706
▁workers 1203446
▁official 1200266
ik 1199934
▁course 1199749
ail 1199656
▁mon 1197808
▁How 1196311
▁service 1195184
▁large 1194755
▁event 1194365
▁par 1193437
▁inter 1190929
▁book 1190921
▁key 1187843
oll 1186929
▁action 1185192
▁Minister 1184538
▁makes 1181599
▁leave 1181051
▁trade 1180995
▁cut 1179851
▁cor 1179433
med 1176508
ople 1176472
ink 1175590
ants 1173511
ough 1173364
▁heart 1172840
▁cons 1172596
▁means 1171033
pe 1169426
▁online 1168536
▁po 1168347
az 1168265
▁room 1167932
any 1166103
ove 1161093
▁seven 1161075
ater 1160679
▁Britain 1160137
▁shows 1159736
▁TV 1159620
▁military 1157656
▁director 1157239
▁states 1155589
▁By 1155374
▁Ar 1155268
▁plans 1153229
own 1153081
▁Washington 1150807
▁hold 1148488
▁& 1146986
way 1146919
ines 1146654
▁services 1145162
ult 1143218
ook 1142502
▁global 1141156
▁Donald 1140310
▁father 1140106
▁test 1138936
ically 1138210
ral 1138078
▁economic 1137562
ives 1137386
▁lives 1134738
▁access 1133987
▁tell 1131031
port 1130398
▁David 1130388
▁Image 1130243
lic 1127977
▁human 1127746
▁fight 1126917
att 1125863
ern 1125580
▁white 1125445
▁round 1124797
▁Ms 1123248
▁League 1123148
row 1121454
▁minutes 1120803
▁Man 1120222
▁More 1117927
▁shot 1116792
ator 1115300
▁def 1113033
▁Russia 1112230
▁America 1109704
▁special 1108796
hed 1106283
▁April 1106093
▁hope 1104056
▁international 1102131
▁July 1101422
▁began 1101253
▁moment 1100977
ark 1098982
oy 1098516
▁sent 1097719
▁class 1094174
▁fans 1093918
▁ball 1093760
▁result 1092451
ized 1092048
ible 1091574
oth 1090953
ert 1090501
▁40 1085085
▁sm 1082613
▁eight 1082077
hes 1081893
ug 1081261
▁pandemic 1081186
▁Court 1080771
hip 1079452
ict 1077166
▁whe 1076156
▁follow 1076141
ood 1074829
ma 1073855
ify 1073071
▁rights 1069224
▁ahead 1068803
▁stay 1068597
▁needs 1067597
lin 1067109
ha 1065562
▁issues 1065013
▁Br 1064578
▁Sc 1063746
app 1059406
rat 1059023
▁self 1057757
▁ve 1057351
▁wor 1056874
▁became 1056498
rent 1056308
els 1055646
▁read 1055251
▁economy 1054775
vel 1054048
▁rate 1052550
▁industry 1049186
ck 1048560
hn 1048144
▁2014 1047202
▁tw 1045633
▁legal 1045041
▁himself 1044536
▁rather 1043725
▁current 1043669
▁strong 1042532
▁rem 1038339
▁released 1037533
▁wife 1036332
▁research 1036249
▁meeting 1035953
▁Se 1035350
▁light 1034952
let 1034406
com 1032831
▁Co 1032434
▁leaders 1031817
▁experience 1030922
▁crisis 1030353
▁bring 1029932
▁21 1029388
▁sex 1029022
ured 1028339
▁break 1027858
▁couple 1026159
ron 1026064
20 1026036
orn 1025616
▁match 1025588
▁min 1025259
▁felt 1025094
ular 1024553
▁actually 1023395
ene 1019866
▁ho 1019458
▁Brexit 1017894
▁inv 1017877
uch 1017772
▁pres 1017567
uss 1017298
▁Cup 1016881
▁morning 1016763
▁someone 1015764
▁ass 1014640
▁Do 1013321
ational 1013147
▁pass 1012599
▁share 1011530
ram 1010923
▁hospital 1010878
rest 1009962
▁race 1009620
very 1009579
▁kn 1007443
▁nearly 1006650
▁needed 1006414
▁Dr 1001626
▁remain 1000745
▁general 999200
▁include 999081
▁Johnson 998799
▁Car 997570
▁problem 997358
▁stand 996939
▁Ad 996457
ta 995683
▁allow 995577
ph 993617
▁playing 990488
▁whose 989470
▁reports 988705
ement 988452
▁list 988362
▁Scotland 988313
ved 988137
▁financial 987379
▁offer 986162
use 985837
ising 985533
▁career 985478
▁These 984659
▁bec 983071
ving 982882
▁friends 981693
ries 980897
▁question 980490
▁position 979712
ians 979099
▁federal 978774
▁matter 977840
▁recently 977252
▁inf 976989
▁talk 976925
ank 976347
▁worked 976346
▁areas 975778
▁goal 975737
oss 975473
▁str 975255
▁everyone 974514
▁despite 970800
▁period 970671
▁evidence 970360
▁ground 970045
ote 969079
▁virus 968113
▁price 967377
ild 966097
▁provide 966000
▁January 965277
vers 964387
▁parents 964289
line 962909
▁living 962450
▁minister 962175
▁summer 960836
▁soon 959686
▁ev 959135
ney 959021
uring 958117
▁oil 957769
▁meet 955653
la 955361
▁press 954887
▁Chinese 953304
/ 953159
min 952236
▁James 952070
▁bad 951478
▁anything 950535
ey 950391
ains 949409
▁aid 949243
▁bo 948909
▁impact 947920
▁interest 946949
ham 946941
ute 946210
▁idea 944642
▁Wh 944295
▁sub 943668
▁running 942452
ering 942145
▁travel 942057
eb 939620
▁Biden 938956
▁22 938891
▁sec 938882
▁single 938781
▁player 937718
▁students 937690
▁however 937056
▁bill 936125
▁investigation 930881
▁land 929679
▁gave 929562
▁Twitter 929224
int 929133
▁Not 927506
▁space 927320
oin 926327
▁member 926076
ened 925698
▁growth 924820
ean 924301
▁view 924039
▁response 923950
▁everything 923070
▁Cl 922630
ause 922343
oo 922036
▁nation 921757
▁Black 921662
▁art 921207
ster 920944
▁BBC 919586
men 918906
▁force 917828
▁Department 917716
▁patients 916532
▁Or 916437
▁whole 914495
▁latest 914433
▁received 912939
▁la 911152
▁Me 910822
▁build 910653
▁ask 910341
▁anti 909640
ably 909603
ex 909494
▁bet 909313
ix 907920
▁Day 907453
ased 906037
▁chance 905419
▁San 905369
▁football 905120
ss 905097
▁increase 904225
▁bar 904192
▁Sun 903807
▁gl 901374
▁mean 900152
▁board 899303
lud 899230
con 898927
ike 898814
ery 898798
▁total 897940
urs 897577
ax 897345
▁Russian 896960
ran 896951
▁groups 896860
▁phone 895367
▁available 895207
▁supp 894517
▁dep 892410
▁Facebook 892027
▁quarter 891818
▁private 891428
▁main 890970
▁India 890463
▁X 889211
▁Obama 887957
▁capital 887945
▁showed 887326
▁pol 884572
▁23 884513
▁cause 884031
▁Iran 883968
▁November 883659
▁December 883571
▁Labour 882618
af 882512
▁road 882390
▁dead 881257
▁nothing 880714
▁heard 880180
▁fall 879459
ging 879331
▁inside 878497
ont 878033
▁turned 877710
ages 876659
reat 876481
▁mar 876050
ional 874502
▁El 873637
ium 873550
▁step 872642
▁personal 872189
▁September 871369
▁medical 871257
▁building 871088
▁October 870128
▁mid 869153
▁foreign 868958
▁officers 868718
▁War 867981
▁rules 866865
▁French 865444
▁biggest 864270
▁revealed 863948
▁Paul 863897
▁field 863540
▁results 862406
▁reg 862017
▁interview 861234
▁Union 860997
ten 860844
▁fe 859372
▁Park 858991
▁potential 858965
▁executive 858736
▁France 858519
X 857853
▁Michael 857813
▁friend 856961
br 855807
hing 855723
▁rel 855278
▁manager 855250
▁longer 855231
ges 853075
▁quite 852891
▁foot 852785
ana 852659
▁involved 850038
hem 849621
▁pressure 848944
▁stage 848826
▁California 848481
▁looked 846963
▁conf 845243
gr 845235
▁daughter 844780
▁Bl 844715
▁ways 844037
▁claims 843603
▁positive 843277
▁Jo 842611
oup 842045
▁safe 841018
▁situation 840894
▁project 840333
ett 838906
▁higher 837486
acy 837138
▁officer 837037
▁huge 836697
▁town 836572
▁pa 835732
na 835124
▁Street 834716
ati 834546
bs 833708
▁remains 833605
▁region 833270
▁Last 833103
) 832529
▁spent 832296
▁themselves 830344
ched 830196
ators 829823
▁visit 827823
▁reason 826385
▁Ed 826015
▁ref 825813
▁understand 825508
▁anyone 825496
▁count 825337
▁Our 824608
▁program 824531
▁dem 824179
▁energy 823414
▁Health 823305
fore 823165
▁especially 822997
▁paid 822915
▁sur 822804
▁Gu 822287
ari 821848
▁comment 821389
▁im 821040
▁allowed 820909
▁loss 819279
go 819056
▁East 818998
ros 818747
ows 818623
gg 818276
ott 817963
han 817378
▁authorities 816740
▁happened 816663
▁bank 816127
▁Even 815914
▁Mon 815735
▁works 815109
erv 815064
▁People 814976
( 814506
▁claim 814325
▁border 813870
▁administration 813664
aking 812817
▁leading 812080
▁success 811567
ere 811460
▁difficult 810847
ann 810668
▁Par 810283
▁brought 810106
▁Pro 808985
▁tried 807875
▁takes 807862
▁senior 807509
▁buy 806766
▁safety 805730
ced 805309
ino 805128
▁terms 804945
▁Democratic 804644
▁wants 804144
ih 803696
▁music 802782
▁Ro 802180
▁ra 799394
▁families 799283
▁changes 799191
▁fir 798982
▁sense 798192
▁similar 797751
ces 797703
▁August 797429
▁ma 796929
▁ban 796416
ring 796124
yn 795932
▁account 794761
▁camp 794247
▁bu 793202
▁expect 793177
▁fell 792489
▁bus 792295
ded 791591
▁coach 790904
ush 790469
▁confirmed 789412
▁Har 788173
iness 788069
▁op 787575
ears 786388
ices 786186
▁ent 784663
ified 783899
▁serious 783891
▁nine 783016
▁ear 782537
▁example 782429
▁med 782304
over 781886
▁ta 781229
▁Republican 781209
▁ill 781015
▁release 780974
▁di 780797
▁gone 779908
▁Prime 779571
▁accused 779054
▁super 778586
▁mo 778537
▁27 777947
▁mind 777714
tion 777706
▁COVID-19 777654
ides 777492
ying 776942
▁average 776864
▁host 776829
▁Los 776049
▁2013 774784
▁hands 774084
▁Times 773664
▁rise 773284
ford 772526
▁Go 771979
▁site 770934
orm 770872
▁Ne 770774
ient 770556
▁problems 769802
ara 769520
▁En 768957
▁sales 768032
▁cur 767500
▁training 766016
▁either 765329
▁jobs 763979
▁hour 763970
▁worth 763446
▁Australian 762253
▁goes 762147
den 760552
▁seems 760452
▁probably 760408
▁drug 760026
aff 759597
ident 758766
▁La 758394
▁26 758392
▁.. 757954
▁helped 757870
▁fin 757795
▁wrong 757561
enc 756553
nes 756353
ots 755583
▁Ab 755024
▁28 754859
off 754795
▁hat 754696
▁dr 754572
▁common 754469
▁pop 754182
▁Gr 751751
▁voters 750898
▁sexual 750455
▁firm 750309
▁lower 748849
▁events 748092
▁ready 747055
▁climate 746274
▁Fr 745125
▁thr 744704
ret 744571
cent 744541
ni 743830
eal 743447
ris 743190
▁previous 742620
▁weekend 741627
▁Clinton 741472
▁calls 740675
▁relationship 740177
▁mis 740061
▁Congress 740054
▁cover 739896
▁31 739833
other 739537
▁caption 738358
▁incident 737992
ration 737663
ared 737428
▁protect 737241
▁currently 736947
▁disc 736795
ards 736636
▁moved 736064
▁60 735187
▁create 734866
▁continued 734776
dy 734077
▁development 732257
▁described 732222
▁Democrats 730052
▁watch 730021
ises 729333
field 729291
▁trial 728959
oon 728420
ward 728255
▁knew 728059
▁shared 727564
▁Senate 727223
uk 726799
▁teams 726427
.com 725647
▁Korea 724855
▁Q 724430
▁homes 724204
ister 724174
uck 724116
akes 721867
▁published 721764
▁Council 720672
▁gets 720460
▁claimed 720305
▁reach 719570
▁From 719546
▁technology 719162
ica 718140
ming 717929
▁George 717750
erson 717437
▁looks 717136
▁Americans 716765
get 716688
ances 716278
mp 716045
▁attacks 715889
▁else 715787
▁husband 715764
ually 715662
▁itself 715497
▁ensure 715213
oe 715039
▁Government 714168
wn 713840
ones 713250
▁fore 713127
.5 712879
▁boy 712601
▁range 712405
▁Christmas 712385
▁author 712025
▁appeared 711846
▁forces 711448
ung 711377
▁forced 711335
fer 711055
my 708906
▁ph 708857
▁thousands 708597
▁disease 708548
▁focus 708499
▁cancer 708401
urn 708235
▁above 708174
▁sn 708141
▁happy 707340
▁decided 706790
▁leg 706764
▁happen 706157
▁measures 706115
▁rates 705771
ony 705297
ny 705289
▁According 705080
▁stat 705026
▁lack 704634
▁Two 704208
▁agency 703718
▁seem 703621
▁quickly 703111
▁des 702394
▁Will 701820
▁cap 701641
ific 701263
▁Sch 700807
▁na 700786
form 700541
▁pair 700157
▁Party 699624
bo 698733
▁Min 698581
▁deep 698574
▁Ma 697238
▁schools 697232
▁Just 697186
▁failed 697152
▁included 696947
▁walk 696682
▁kids 695922
▁County 695759
▁spread 695638
▁concerns 695429
▁questions 695158
▁gun 694491
▁demand 694007
▁Many 693773
▁blood 693761
▁conditions 693486
▁violence 693438
▁performance 692603
▁agreement 692518
▁bi 692166
ately 691569
▁words 691168
▁winning 691092
▁Then 690656
isc 690332
▁treatment 690250
▁fun 688965
▁Mark 688639
▁certain 688320
▁el 688224
▁Pr 688187
▁Ex 688022
ired 687866
▁ce 687833
▁net 687669
gy 687646
▁Bar 687373
▁growing 687297
▁Smith 687141
ands 686370
.1 686089
▁towards 685896
ury 684168
atch 683954
▁February 683779
oot 682768
▁Act 682629
▁gas 682151
ases 681408
▁particularly 681089
che 681034
ored 680441
▁customers 680345
▁closed 679670
ected 679262
▁debate 678675
▁ut 678266
▁aw 678166
▁contract 676170
▁trans 675976
▁pick 675702
een 674574
▁easy 673869
▁2012 673757
▁direct 673734
▁charge 673559
▁sit 673503
▁date 673015
ouse 671943
ince 671733
inal 670202
▁popular 669995
▁Joe 668123
▁gu 668046
▁scene 667606
▁simply 667438
Credit 667112
▁previously 666886
▁Germany 666650
ps 665830
▁costs 665447
▁victory 664975
▁Tom 664928
▁Africa 664479
lp 664305
▁const 664091
▁Commission 663826
bers 663746
▁Ben 662369
▁Pl 661813
▁majority 661648
▁elect 661486
▁instead 661144
▁parts 660829
▁born 660457
▁efforts 660281
ined 659169
▁presidential 658969
▁Col 658886
▁mass 658845
ork 658690
arg 658650
▁present 658467
▁consider 657833
ef 657746
gan 657600
▁Getty 657568
ology 656984
do 656624
aj 656507
▁29 656085
ky 655864
▁fear 655410
▁dist 655102
ga 654839
̈ 654102
▁Fl 653532
▁charges 653236
▁significant 652800
▁message 652720
▁products 652211
▁levels 652051
▁giving 652025
rem 651969
▁spokesman 651708
▁girl 651646
▁sk 651284
eth 650886
uff 650417
ales 649410
side 649406
ole 649155
▁opportunity 649031
▁* 648565
▁prop 648395
▁review 648157
50 646821
▁leaving 646561
▁talks 646492
▁af 645000
iff 644659
▁model 644510
▁deaths 644282
ening 644153
▁businesses 643752
imes 642958
▁approach 642876
arm 642505
▁ended 641957
tr 641686
▁prices 641624
▁Scottish 641607
▁arrested 640801
▁ser 640403
▁Reuters 639982
▁Syria 639952
▁track 639755
▁challenge 639747
.4 639415
▁prison 639080
▁warned 639048
ev 638619
▁p.m. 638314
▁largest 637833
▁adding 637503
▁Red 637492
▁amount 636505
ls 635856
▁effect 635393
ially 635232
▁contact 633446
▁Bank 633434
▁ap 633015
▁caused 632868
back 632664
rib 631959
▁production 631519
ained 631379
▁AP 631073
▁fund 630607
ull 630597
▁letter 630313
▁hear 629586
▁Paris 629445
▁grow 629117
▁mark 628660
▁inst 628542
▁Sa 627813
ci 627616
▁opening 626933
▁true 626351
▁although 625937
▁effort 625522
▁door 625380
▁stock 625260
▁hom 623852
▁numbers 623753
▁residents 623456
▁Green 623425
▁named 622637
ht 622264
▁property 621869
inc 621562
iting 621517
▁drive 621069
▁kept 621026
▁# 619617
alth 619406
ider 619287
▁centre 619056
ided 618150
▁Can 617904
▁Instagram 617741
▁baby 617526
▁threat 617270
▁lockdown 617267
▁created 616735
ends 616631
▁Angeles 616628
▁opp 615416
▁Ireland 615383
▁35 615264
▁Ms. 614722
ches 613394
▁raised 613178
▁trip 612824
▁ten 612449
ital 612153
▁Star 610462
▁via 609603
▁hot 609568
▁Mo 609325
▁style 609103
▁spec 608962
▁Com 608305
yl 608290
▁ter 607655
▁income 607485
▁che 607317
▁conference 607124
▁believed 607084
▁extra 606636
ox 606618
▁200 606504
▁pain 606415
que 606171
▁Dem 605634
ca 605174
▁cash 605134
▁pretty 605078
ese 604700
▁train 604470
▁Con 604408
▁appear 604209
▁charged 604150
umb 603725
ids 603020
▁related 602975
▁Jones 602968
ished 602804
▁spending 602221
ball 601976
▁Cor 601539
▁alone 601462
ze 600813
▁murder 600379
▁address 600318
iest 600149
▁character 600103
▁north 599923
▁fast 599650
▁changed 599447
▁Te 598976
▁Pe 598817
▁avoid 598495
▁ones 597950
▁agreed 597818
head 595608
▁value 595348
▁begin 595121
oul 594987
▁compared 594904
▁sold 594531
ior 593456
▁dif 593083
▁International 593043
▁beat 592710
.6 592318
unt 592102
▁followed 592032
▁rule 591360
▁prov 591207
▁Kim 591132
ams 591026
.3 590977
ked 590146
▁King 589991
▁High 589727
ya 588881
▁Bill 588412
king 588220
▁attention 587888
▁First 587258
▁decades 587017
vent 586484
ead 585944
.8 584636
▁speech 584299
▁emergency 584022
▁German 583999
▁central 583429
▁spend 583408
▁comments 583345
▁victims 583213
lect 583164
ange 583015
▁ran 582996
▁char 582764
▁store 582387
elling 582347
▁moving 582287
▁goals 582153
ama 582127
ads 581990
▁runs 581759
▁pat 581470
ights 580967
▁calling 580615
.2 580288
sp 579924
▁website 579828
▁crime 579664
▁posted 579516
ued 579044
▁street 578882
ald 578828
▁Office 578728
▁investment 578478
▁col 578457
▁spot 578349
tt 577706
▁pm 577107
▁wide 576788
▁places 576779
▁card 576681
▁70 576671
▁beyond 576333
▁flight 575882
▁amid 575847
wood 575810
ility 575625
▁miss 575500
▁base 575471
▁partner 574754
▁rev 574056
▁bed 573987
▁ob 573745
▁includes 573631
▁Brown 573257
Z 573105
▁eye 572952
▁cast 572821
▁education 572774
cl 572728
▁prime 572191
ames 572114
cy 571920
▁ant 570328
▁league 570159
iver 569221
▁condition 569160
▁Manchester 569021
▁prevent 568525
▁photo 568305
▁reached 567828
▁south 567646
▁Most 567578
ani 567489
▁trust 567360
▁Japan 567109
▁speak 566908
▁sy 566904
▁built 566740
▁miles 566702
▁entire 566406
▁injury 566396
▁straight 566308
▁fourth 566290
tern 566146
▁Texas 566035
▁cross 565826
ses 565738
▁Rep 564866
▁fair 564184
▁quality 563550
▁box 563073
▁judge 562763
▁parties 562722
▁sell 562595
▁budget 562488
ever 562486
▁paper 562423
▁movement 561076
▁Chris 561025
▁word 560843
rie 560392
▁respect 560274
▁Bo 560232
fic 560163
aly 560143
ulate 559622
▁launched 559549
Q 559522
▁opened 558534
▁target 558378
▁talking 558366
ool 558238
▁Scott 558145
▁offered 558050
oke 558046
▁figure 557958
ona 557912
▁spoke 557681
▁feeling 557584
▁sector 556848
ites 556569
ason 556515
▁ext 556050
▁title 555828
▁population 555293
irst 554907
ye 554901
iet 554890
▁increased 554597
pro 554564
▁det 554375
▁Wales 554267
▁source 554062
osed 553409
▁researchers 553335
▁learn 553182
▁table 553168
▁Another 553164
▁Here 552837
du 552088
▁Qu 551362
▁Group 551302
ublic 551177
▁Ph 550585
alk 550504
▁signed 550469
ae 550270
ife 549972
▁design 549899
▁exist 549685
▁normal 549634
▁starting 549627
▁block 549187
▁Secretary 548846
bed 548843
▁check 548831
▁Since 548628
▁Sydney 548468
eral 548419
▁Why 548180
▁abuse 547405
▁Fox 546847
▁highest 546820
▁80 546745
▁employees 546673
▁del 546465
▁wait 545951
▁movie 545949
leg 544980
▁und 544906
▁Sam 544634
eng 544012
▁picture 543486
ural 543165
reg 543098
▁exc 542492
ision 542290
▁users 541999
▁save 541944
xt 541885
▁poss 541570
▁seeing 541488
▁ability 541368
aster 541360
▁battle 541166
▁drop 541112
▁Apple 541052
▁prot 540865
ways 540850
aged 540616
sc 540534
▁2011 540382
▁details 540019
iti 539725
▁shut 539625
ember 539051
▁immediately 538785
▁middle 537878
▁score 537704
used 536979
▁experts 536923
▁lose 536025
▁Center 535929
▁poll 535786
▁figures 535445
▁worst 534975
ization 534331
▁passed 534207
▁alleged 533819
ican 533619
well 533430
▁particular 533345
▁provided 533316
▁speed 533127
▁Premier 533116
▁ver 532982
▁fresh 532058
ended 532053
▁shooting 531802
▁NHS 530480
▁push 530463
iel 530365
▁fine 530035
▁path 529823
▁peace 529744
▁African 529621
ades 529395
▁concern 529127
upp 528977
▁join 528908
▁Those 528772
▁receive 528767
▁laws 528275
▁damage 528072
▁politics 528009
berg 527717
▁Per 527475
▁General 527312
▁finally 527249
▁Justice 527207
▁bre 526955
▁Florida 526919
▁Israel 526797
da 526728
▁wearing 526678
▁station 526439
rough 526122
▁bid 526090
▁scored 525667
▁product 525651
▁throughout 525077
▁remember 524830
ency 524588
.7 524388
▁reality 524349
▁complete 524235
ently 524105
ending 524085
▁cars 524072
▁Cr 523497
▁funding 523232
▁sun 523155
▁cat 522811
▁green 522024
▁choice 522014
ech 521703
▁kill 521644
▁Republicans 521054
▁School 520732
▁protest 520054
▁civil 519959
sa 519551
amed 519488
ped 519077
▁annual 519051
AR 518940
aps 518770
▁soc 518518
▁student 518447
fully 518224
▁double 517444
rd 517399
▁meant 517344
▁pos 517226
vi 517153
▁female 517138
▁Peter 517080
▁dark 517020
▁candidate 516977
▁attempt 516643
▁holiday 516334
▁hotel 516205
▁cities 515720
▁daily 515611
▁myself 515537
▁Bur 515410
▁Dr. 515140
▁English 515134
ests 515107
▁Em 515040
ka 514973
▁fully 513743
▁sometimes 513699
aring 513275
▁Mike 512822
▁poor 512778
; 512706
gu 512666
▁respond 512632
▁draw 512316
fl 511997
▁Pat 511877
▁considered 511741
▁hair 511518
▁Im 511286
▁Ind 511281
▁thinking 511158
▁wall 511108
bl 511040
hy 510783
▁z 510768
iles 510576
AN 510430
▁modern 510364
▁brand 510195
▁Parliament 509979
ality 509855
▁opposition 509818
▁clean 509737
▁credit 509414
ours 509314
▁Mal 509267
▁sound 509118
▁sort 508872
▁justice 508848
▁issued 508651
▁hum 508572
▁90 508414
▁hearing 508347
▁Ke 508086
ween 507938
rew 507886
▁Italy 507700
▁leadership 507663
ops 507497
▁Air 507433
▁nuclear 507393
▁driving 507381
▁develop 507316
▁tie 507282
ala 506872
▁brain 506830
▁Their 506634
▁dog 506314
▁launch 506149
cc 505787
▁Other 505654
▁Ham 505466
▁progress 505431
down 505176
izing 504965
▁App 504860
▁pot 504737
▁During 504483
▁Over 504314
▁fan 502768
▁Robert 502302
▁aff 501343
▁returned 501316
mon 501287
▁equal 501255
▁testing 501163
▁natural 500759
▁markets 500754
▁mental 500386
▁45 500206
▁Mac 500171
▁criminal 499571
▁Sw 499439
itch 499398
▁tough 499177
▁appears 499174
▁certainly 499070
▁32 498942
rate 498810
ude 498307
▁2010 496962
▁brother 496664
osp 495960
▁shown 495879
▁showing 495204
▁driver 495104
▁below 494909
orts 494310
▁dev 494222
▁Pres 493919
▁tour 493889
ata 493717
ability 493537
S. 493367
▁weight 493128
ims 492938
▁arrived 492856
▁CNN 492826
▁perhaps 492758
▁society 492338
▁seemed 492215
▁size 491484
▁Andrew 491264
▁search 491042
▁serve 491010
▁additional 490855
omet 490605
▁reduce 490347
▁image 490195
▁Royal 490066
▁uns 489943
▁minute 489864
ode 489557
▁skin 489527
▁Tw 489241
▁500 489096
▁competition 489066
▁decade 489028
ower 488827
ract 488649
▁gen 488639
▁Prince 488506
orth 488435
utes 488369
▁affected 488343
time 488191
rog 488160
▁perfect 488155
oud 487989
ners 487801
▁telling 487696
▁protests 487108
▁201 487075
▁older 486567
▁resp 486390
itions 486115
▁emb 486082
.9 485686
▁Covid-19 485648
▁feet 485618
ees 485614
▁actions 485450
▁Res 485167
eed 485044
▁UN 484932
▁eyes 484735
ope 484561
▁Despite 484120
▁century 483859
ini 483791
▁evening 483698
▁Press 483306
▁suggested 482689
▁song 482683
▁contin 482587
▁stars 482474
aces 482426
▁required 481911
▁type 481700
ody 481599
▁shop 481013
istic 480813
▁Both 480375
▁rock 480162
▁Amazon 480092
▁whom 478656
hers 478655
▁millions 478355
▁network 478274
▁loved 478216
aries 478205
▁Super 477990
? 477952
itute 477720
di 477695
aining 477680
pect 477547
▁admitted 477253
▁secretary 477121
▁screen 476779
▁Its 476591
amb 476579
▁completely 476566
▁grand 476185
aving 475969
▁served 475858
▁shares 475695
▁Post 475635
▁row 475518
▁heavy 475055
aced 475015
▁elections 474878
▁McC 474876
ares 474839
▁joined 474578
ience 474349
▁sea 474311
▁crowd 474264
▁wear 473820
▁send 473589
▁Under 473540
▁Mexico 473265
▁raise 473217
▁drugs 473073
ki 473043
▁Committee 472965
▁center 472784
▁original 472743
▁injured 472391
▁addition 472041
▁answer 471849
▁benefits 471751
▁Rec 471101
▁practice 470981
hel 470618
omp 470290
▁fro 470263
no 469856
▁communities 469774
▁owner 469617
▁park 469331
▁asking 469110
▁Good 468794
uses 468638
▁policies 468598
body 468494
mar 468451
arge 468288
▁explained 468077
▁missing 467886
▁tested 467866
▁sale 467657
▁environment 467489
▁birth 467410
elf 466974
ita 466418
▁carry 466412
cept 466085
vin 465981
ails 465725
▁facing 465678
▁toward 464822
▁Saudi 464669
▁tests 464578
▁eff 464520
▁caught 464214
▁copyright 464062
▁hundreds 463966
ived 463598
▁pers 463479
cher 463025
work 462891
▁weather 462848
▁improve 462829
ried 462793
▁actor 462440
uth 462128
va 462086
▁version 462073
▁Mrs 462067
▁continues 461833
▁seek 461768
ction 461743
▁Who 461620
▁Big 461529
▁36 460742
▁complex 460606
▁becoming 460109
▁noted 459778
▁Harry 459739
▁piece 459715
▁Ca 459627
▁wind 459590
kin 459213
▁culture 459067
▁offers 458984
ER 458893
▁plant 458755
▁lived 458666
▁represent 458566
▁citizens 458198
▁Google 458144
ross 458132
▁Liverpool 457736
▁floor 457729
▁God 457632
▁wr 457425
▁concerned 457293
▁Bay 457268
▁1, 457129
▁MP 457121
rol 456657
▁stories 456314
▁Turkey 455851
rain 455728
▁tweeted 455406
urt 455226
▁sleep 455002
ously 454811
▁fat 454656
▁ice 454643
▁sports 454561
▁faced 454366
▁Ha 454327
▁individual 454251
▁CEO 454106
▁committee 453897
▁rain 453662
▁gives 453530
▁der 453207
▁greater 453187
▁regular 452876
▁Wall 452854
▁knows 452737
▁touch 452701
▁strike 452595
▁Canada 452251
▁supporters 452180
▁et 452145
iers 451931
ba 451872
▁Martin 451683
ison 451208
▁herself 451129
ipp 451091
▁port 451022
▁subject 450769
▁Yet 450710
▁arrest 450566
vernment 450547
ali 450502
vest 450372
▁cle 450330
ief 449852
▁massive 449656
▁domestic 449646
▁aware 449617
▁Like 449441
▁band 449332
▁Ryan 449061
▁fighting 449018
▁department 448884
ences 448825
▁Lo 448727
▁imm 448623
ather 448164
▁sides 448125
▁Ge 447995
▁arm 447982
hood 447965
▁worse 447933
▁debt 447781
▁believes 447482
cer 447259
▁fellow 447219
▁hopes 446962
▁limited 446933
hest 446921
atory 446571
▁@ 446094
gen 446087
▁critical 445916
▁Williams 445867
▁written 445813
▁votes 445634
▁tri 445626
▁faces 445612
▁carried 445417
▁denied 445398
oms 445104
▁killing 445034
▁Indian 444953
-1 444792
▁Sir 444591
▁television 444450
▁cha 444358
▁sat 444328
▁victim 444279
▁Brit 444197
▁Alex 444015
isation 443945
itive 443670
▁Up 443613
▁Iraq 443519
▁MPs 443364
ading 443181
oney 442954
dle 442485
▁assault 442449
▁ur 442408
gin 442187
▁designed 442131
▁Law 442115
▁Comm 441969
set 441627
▁Sanders 441562
▁est 441198
val 441036
▁lines 441014
ien 440929
▁sol 440618
ugg 440431
atic 440288
bn 440163
▁girls 440082
▁winner 439865
▁Meanwhile 439601
▁Let 439513
▁reporters 439461
▁plays 439418
▁ir 439404
▁fit 439275
▁equ 439194
$ 439142
▁allegations 439140
▁attend 439051
▁suffered 438732
▁aged 438668
view 438438
▁accept 438365
rim 438254
uted 438214
▁da 438169
▁management 438148
▁content 437945
ena 437771
▁restrictions 437755
▁voice 437612
▁planned 437586
▁har 437582
vern 437532
▁writing 437527
esp 437483
▁primary 437246
ection 437241
▁feels 437173
▁holding 436864
▁Kh 436670
▁33 436376
unk 436228
▁Today 436125
▁invest 435975
▁Af 435686
ville 435503
une 435470
▁tra 435381
▁sport 434945
▁option 434878
▁enjoy 434752
resident 434538
▁ge 434404
▁ren 434181
▁strategy 433714
alled 433574
▁Matt 433501
▁candidates 432954
read 432904
▁text 432551
▁union 432508
ulation 432147
▁govern 431990
▁investors 431876
ils 431660
▁fa 431633
000 431566
lan 431495
ects 431141
▁Jack 431135
▁34 431035
ores 430984
▁Che 430951
▁putting 430943
▁confidence 430799
0s 430394
▁blue 430176
▁Hong 428995
▁rose 428879
▁Queen 428804
▁ow 428607
iled 428601
▁doctors 428517
▁adm 428507
ker 427942
▁ship 427636
ua 427633
▁Images 427543
▁council 427490
▁eventually 427466
▁mod 427433
enn 427290
▁Chelsea 426999
▁successful 426839
▁powerful 426487
▁gold 426124
▁Hill 426065
▁ke 425996
▁managed 425990
yr 425922
▁operations 425885
▁Fe 425717
▁usually 425716
▁operation 425598
▁multiple 425415
▁prob 425338
aks 425141
▁Tim 425081
▁doubt 424703
▁broke 424381
▁adv 424215
▁funds 423931
▁Hall 423878
▁dropped 423707
▁necessary 423560
▁mat 423492
▁wild 423002
elled 422688
▁afternoon 422534
▁slow 422396
▁clearly 422008
asts 421891
key 421670
▁benefit 421432
▁Although 421371
▁email 420987
& 420801
rap 420621
▁highly 420616
▁various 420354
▁bel 420336
▁activity 419692
▁simple 419549
aker 419430
▁camera 418935
▁traditional 418915
▁married 418819
▁seat 418679
iday 418636
ews 418451
ills 418446
▁plane 418050
ification 417983
▁die 417760
meric 417672
▁request 417367
ips 417137
aging 417126
▁island 416504
▁advice 416398
▁dangerous 416342
sw 416270
▁Chief 416192
wards 416121
▁ste 415661
▁helping 415494
▁banks 415389
▁treat 415298
▁conc 414984
▁unt 414872
▁includ 414856
▁stopped 414208
▁seeking 414174
▁outs 414068
ials 414004
▁deliver 413714
hic 413496
▁beginning 413459
▁Cal 413449
▁reasons 413291
▁intelligence 413191
▁secret 413054
▁specific 412938
ask 412894
▁rece 412598
▁placed 412465
▁gener 412409
▁physical 412233
adi 412047
▁vehicle 412023
▁fashion 411399
▁voted 411381
▁sum 411161
▁lawyer 411122
▁committed 410956
▁agree 410942
▁protection 410877
▁Sal 410813
▁defense 410626
▁Pre 410019
mo 409914
▁Bu 409725
room 409557
▁injuries 409550
acks 409546
▁vis 409147
▁quick 408824
▁suggest 408741
▁streets 408635
▁Islamic 407923
ament 407255
ael 407158
▁av 406893
ollow 406866
▁2008 406618
za 406568
▁options 406528
▁cre 406475
▁exactly 406394
omen 406317
iden 406238
▁supply 406213
cess 406135
▁planning 405920
▁storm 405620
het 405556
alf 405389
▁onto 405269
▁cold 405000
▁views 404955
ple 404869
▁warning 404843
▁harm 404771
▁Lee 404334
ios 404310
▁Gl 403972
▁lab 403848
▁loc 403628
▁eat 403599
lu 403478
▁page 403444
▁effective 403400
▁Spain 403235
▁chair 402984
▁waiting 402736
▁rare 402677
▁Mor 402635
BC 402570
▁Dan 402273
▁Every 402168
iat 402132
▁sad 402127
▁wish 402001
▁boost 401879
▁Out 401800
▁books 401789
▁images 401424
▁var 401393
uit 401330
▁vaccine 401278
rist 401093
▁alongside 401091
▁east 400851
▁measure 400836
▁PM 400834
▁scale 400400
illion 400282
uation 400138
▁Ra 400063
sen 399952
▁famous 399906
▁watching 399857
▁Kong 399679
▁steps 399662
▁stress 399509
▁note 399484
inn 399476
▁mostly 399441
▁systems 399069
▁Boris 398926
▁Dep 398886
▁Richard 398859
▁twice 398532
▁sing 398356
▁offering 398236
▁cuts 398218
▁tot 398154
uri 397711
▁cell 397621
▁Well 397575
outs 397540
▁Home 397536
▁reportedly 397229
light 397179
▁patient 397011
▁den 397005
▁counter 396944
▁feature 396874
▁somet 396466
aves 396372
▁overall 396076
▁Supreme 396036
▁proud 395815
▁guilty 395788
▁Mad 395747
▁Far 395595
▁sal 395091
▁Melbourne 395060
▁chairman 394843
▁college 394811
▁outbreak 394783
▁Jan 394763
▁beautiful 394703
orld 394664
▁crash 394626
▁losing 394274
▁Mc 394049
IS 393903
▁photos 393413
▁maybe 393248
▁capt 392966
▁keeping 392818
.0 392805
outh 392419
▁stuff 392412
aken 392242
ule 392229
▁independent 391958
▁appeal 391912
omb 391759
alls 391336
▁discuss 391299
ij 391170
▁thank 391113
▁ann 391081
19 390808
▁perform 390738
▁Photo 390193
▁linked 390163
▁deb 389902
▁Ber 389845
gest 389803
▁directly 389241
house 389152
▁squad 388973
▁Cons 388816
oring 388544
▁37 388346
ential 388240
▁speaking 388048
▁Northern 387954
▁standing 387708
▁kick 387551
-y 387197
▁rich 387020
▁prepared 387008
▁Su 386972
▁tech 386811
▁Open 386693
▁serv 386525
▁decisions 386428
eter 386040
▁professional 385897
▁ele 385848
-19 385681
aul 385462
▁backed 385251
▁sister 385226
▁focused 384669
ift 384626
owed 384511
▁remained 384356
▁novel 384139
▁Service 384018
rel 383904
▁challenges 383842
▁tells 383022
▁features 383020
RE 382725
▁Because 382692
▁fac 382476
icks 382454
▁tight 382195
▁conflict 382159
▁upon 382096
▁generation 381957
▁male 381955
▁missed 381837
ires 381752
ept 381629
▁boss 381450
▁proposed 381251
▁dress 381088
▁guy 381087
illing 380985
▁identified 380977
▁num 380939
▁responsible 380933
ories 380919
▁mor 380886
olic 380495
▁truth 380441
▁ec 380359
▁Thomas 380192
▁Del 380042
▁bas 379925
ense 379797
eman 379481
▁Western 379428
▁protesters 379312
▁cal 379156
pped 378747
▁yesterday 378643
▁flat 378619
apt 378590
▁finish 378531
▁Gar 378444
wa 378396
▁names 378008
▁Ho 377705
▁ring 377628
▁finding 377528
▁nature 377425
▁conduct 377312
▁champion 377300
▁west 377070
▁Don 377053
▁fired 376919
ird 376740
▁immigration 376737
▁disp 376493
bor 376371
▁Security 376271
▁warm 376232
▁digital 375876
▁heat 375584
▁lay 375369
arr 375169
▁sens 375046
lam 374846
▁treated 374801
iously 374679
▁2009 374516
▁Women 374439
▁voting 374303
▁language 374301
▁audience 374246
▁38 374161
ping 374030
ination 374015
▁Comp 373847
▁nice 373710
▁Association 373460
duc 373426
▁defeat 373255
aign 373115
ject 372704
▁revenue 371808
▁mult 371675
▁signs 371656
board 371640
▁pen 371600
▁selling 371487
▁shoot 371404
▁legislation 371216
ague 371158
▁governments 371138
▁gain 370919
▁Daily 370797
▁CO 370792
▁cond 370496
▁owners 370214
aut 370193
add 370184
▁housing 370014
▁Pol 369987
▁fil 369934
▁resources 369853
▁guys 369840
▁Steve 369814
▁accord 369590
ester 369518
▁pull 368977
▁Art 368942
▁fly 368701
▁restaurant 368582
ano 368509
lier 368445
lor 368246
▁platform 368130
▁extremely 368018
▁university 367710
▁healthy 367373
▁programme 367325
▁coast 367292
rey 367194
▁nor 367046
▁Are 366979
▁cool 366877
▁mission 366827
▁Dec 366493
▁largely 366391
▁fam 366304
▁Nick 366122
▁scientists 365859
▁finished 365662
irect 365566
▁mot 365523
▁status 365497
▁Ger 365384
▁CBS 365174
▁bought 365128
itor 365097
▁owned 365069
ume 364894
▁boys 364812
ken 364754
▁Inst 364725
ym 364407
▁75 364345
ape 364154
▁ther 364066
▁rising 363981
AC 363943
▁Great 363899
▁van 363848
aded 363823
olog 363782
▁era 363743
▁material 363671
▁effects 363638
▁starts 363528
▁critic 363237
▁Sky 363042
low 363033
▁sources 363004
▁bomb 362964
ively 362854
self 362849
iam 362752
▁active 362589
ico 362413
atur 362184
▁projects 362005
▁bro 361687
ords 361560
▁rally 361510
▁Island 360558
sy 360536
▁urged 360330
iter 360256
▁developed 360248
▁Institute 360090
▁meaning 360074
▁basis 359998
▁Rob 359573
▁pack 359509
▁refused 359006
loy 358968
▁William 358822
▁discovered 358731
uts 358693
hire 358679
▁debut 358640
▁inform 358625
▁profit 358394
▁Gold 358374
itter 357974
▁throw 357951
▁require 357860
▁insurance 357826
▁Sur 357737
▁II 357289
iving 357239
▁records 356751
▁Arsenal 356684
▁happens 356495
ilt 356410
▁Bel 356383
▁Korean 356346
▁giant 356237
▁weapons 356152
▁mill 355967
▁cop 355910
ingly 355830
▁negative 355816
cial 355751
uel 355710
ida 355703
book 355593
▁removed 355546
▁attorney 355532
10 355449
▁sick 355406
▁difference 355211
▁U. 354931
▁organ 354851
▁Instead 354628
▁wins 354617
-- 354577
ailed 354530
▁stores 354502
ender 354269
▁beh 354195
▁48 354192
▁Ag 354113
ems 353939
▁196 353806
▁struck 353792
15 353659
▁log 353520
million 353478
▁Love 353473
▁declined 353467
▁doctor 353462
▁scheduled 353357
▁science 353260
▁guard 353256
▁actress 353238
▁ordered 353224
▁Wil 353216
▁mum 353052
thing 352997
▁filed 352803
can 352584
most 352522
▁Chicago 352307
tered 352255
more 352235
▁pitch 351949
▁deals 351922
▁Old 351878
▁mem 351413
▁dri 351318
▁Syrian 351288
▁commercial 351168
▁opt 351128
▁snow 351093
ola 351076
▁Sy 350949
▁bur 350910
▁soft 350845
▁contain 350836
vert 350758
▁risks 350686
omm 350608
rep 350581
▁vice 350461
mit 350283
▁Real 350147
asing 350035
▁tend 350035
▁younger 349886
▁iss 349856
illed 349786
▁yards 349693
▁rival 349519
▁ord 349455
▁grew 349443
▁Acc 349374
▁id 349213
▁passengers 349195
▁clubs 349166
▁sitting 349073
▁animals 349071
▁a.m. 349006
▁tim 348894
▁enter 348783
▁survey 348729
▁Mil 348548
▁relations 348525
▁ens 348409
AT 348362
▁Three 348347
▁Year 348345
▁Putin 348317
▁hurt 348254
▁separate 348100
▁internet 348052
raw 348002
▁Road 347813
▁district 347665
▁bag 347419
▁fre 347400
▁accounts 347361
▁recorded 347306
▁paying 347103
▁uses 346579
▁fuel 346528
▁Mel 346347
▁pract 346346
▁Central 346220
bury 346150
par 346147
▁reform 346113
tic 346076
yc 345993
lish 345925
ought 345910
vis 345901
▁compr 345783
cil 345475
▁write 345158
▁marriage 345087
▁Hollywood 344965
har 344797
▁joint 344758
▁ast 344708
▁don 344697
▁secure 344664
▁limit 344649
▁produce 344577
▁ruling 344353
▁sees 344297
▁bringing 344224
▁influence 344201
▁IS 343996
▁scheme 343946
po 343803
▁lock 343670
▁Met 343669
▁Nor 343622
▁professor 343603
▁defence 343585
▁symptoms 343564
▁produced 343454
▁Part 343338
iding 343313
▁Taylor 343302
▁essential 343213
▁Test 343139
gers 343101
▁bigger 343082
augh 343068
▁display 342903
oes 342825
▁pool 342755
▁Wed 342693
▁Bre 342674
ashed 342642
▁Sm 342531
mi 342491
▁apart 342348
▁Also 342278
▁learned 342100
▁footage 341968
30 341792
▁commun 341747
▁traffic 341677
inger 341545
eration 341541
▁prev 341454
▁Ass 341431
alt 341375
▁thanks 341100
▁pictures 341071
▁Kelly 340853
▁Sand 340650
▁responsibility 340228
▁expert 340029
▁roll 339981
▁terror 339928
▁fifth 339873
fect 339850
▁youth 339798
▁catch 339590
▁proposal 339580
ada 339480
▁broken 339231
sel 339141
▁coll 339012
▁intern 338856
▁award 338737
▁pulled 338621
ulated 338457
▁documents 338446
▁tweet 338379
▁dad 338122
▁Once 337962
▁unable 337864
rated 337799
▁illegal 337791
AS 337756
▁compet 337717
▁suggests 337512
▁About 337503
▁severe 337376
▁capacity 337258
▁Di 337185
▁crew 337178
▁yourself 336942
esc 336938
▁allowing 336905
▁pri 336745
▁Wood 336487
▁absolutely 336402
▁activities 336274
▁allegedly 335830
▁colleagues 335547
▁Corbyn 335449
▁standard 335294
▁Democrat 335182
▁learning 335089
▁changing 335067
▁prove 334739
▁mix 334720
itting 334624
▁squ 334598
erc 334584
▁Public 334453
▁setting 334408
elt 334391
▁corner 334070
zz 333872
▁task 333834
▁suit 333551
▁artist 333539
▁ongoing 333464
▁collect 333380
▁Zealand 333297
arch 333218
▁pan 333216
▁spring 333216
ero 333186
▁potentially 332934
▁Former 332901
ES 332806
▁vehicles 332632
▁stud 332586
▁39 332552
▁Fed 332538
▁individuals 332330
▁Victoria 332254
▁tow 332003
▁seats 331700
met 331665
▁conversation 331593
▁church 331468
▁Inc 331408
▁regional 331266
▁jail 331241
▁pred 331081
▁providing 330670
ution 330553
▁pun 330497
▁wing 330452
▁Christ 330410
▁airport 330363
▁Ann 330071
▁Irish 330059
▁Picture 329873
▁194 329786
IC 329780
▁reb 329729
▁College 329269
owing 329162
▁walking 328974
ander 328934
▁Grand 328882
aki 328803
▁Daniel 328742
▁sim 328717
▁singer 328558
▁increasing 328430
▁Carolina 328389
▁trading 328313
▁fail 328244
▁Foreign 328160
▁prom 327996
bert 327943
ashing 327764
▁Federal 327761
▁leaves 327203
▁freedom 327193
oph 327133
▁drink 327064
aled 326942
▁plenty 326876
▁decide 326653
yer 326533
▁Frank 326528
ston 326504
▁du 326406
ancy 326348
▁FBI 326257
ature 325911
▁neg 325772
▁Was 325624
▁transfer 325561
▁Nations 325541
▁Muslim 325538
▁unf 325398
unch 325286
▁estimated 325246
▁failure 325201
ste 325018
▁matches 324945
ressed 324892
▁newspaper 324866
▁Your 324838
chool 324781
▁charity 324726
▁300 324462
itz 324377
▁hop 324263
▁42 324080
▁captain 323666
▁Miss 323596
▁initial 323571
por 323425
▁declared 323294
▁sought 323168
▁relief 322937
▁Christian 322817
▁sanctions 322779
▁val 322727
▁pet 322576
▁animal 322551
ray 322475
mas 322457
alling 322404
́n 322165
ette 321973
iling 321963
▁items 321623
▁import 321523
▁opinion 321452
▁affect 321421
ique 321295
▁increasingly 321241
▁fears 321220
▁shift 321216
velop 321211
▁Bush 321122
▁politicians 320985
▁transport 320957
▁unique 320776
onn 320337
▁Cont 320289
▁Ir 320176
▁Middle 320072
▁partners 319968
▁parliament 319940
▁dollars 319836
▁Inter 319821
▁advantage 319614
▁Asia 319595
▁Still 319455
ova 319408
▁responded 319339
▁recovery 319261
olit 318970
▁mess 318939
sey 318910
▁ends 318885
▁aim 318868
▁announcement 318684
▁arms 318680
emic 318633
▁Hol 318598
▁Mat 318582
▁Coast 318475
aim 318342
▁sites 318172
▁link 318118
imp 318081
▁stood 318045
▁bodies 317929
▁elected 317915
▁supported 317903
▁winter 317850
rin 317604
▁Rock 317597
▁choose 317547
come 317524
ON 317504
▁Van 317322
▁Cameron 317294
iction 317268
ria 317222
▁radio 317193
▁Four 316889
▁bat 316834
▁unp 316664
tes 316559
▁fish 316468
▁RT 316396
▁window 316350
irl 316273
▁picked 316214
▁55 316194
▁flag 316191
▁Fire 316181
ili 316153
▁founder 316065
▁orders 316044
▁armed 316040
ato 315965
▁brief 315752
▁strength 315697
▁Before 315646
▁reporting 315484
▁Med 315433
▁unit 315404
aud 315358
lob 315338
uct 315176
▁x 315061
▁standards 315045
▁inj 314910
▁reading 314685
▁prec 314677
▁fraud 314581
▁apply 314539
▁Any 314521
▁criticism 314505
▁parent 314473
▁blow 314334
▁nearby 314294
▁construction 314251
/1 314211
▁sen 314194
▁episode 314176
St 314088
▁drivers 314081
▁rat 314064
ements 313897
▁album 313810
▁closer 313788
ention 313603
lex 313494
▁surgery 313486
▁Off 313457
▁helps 313377
▁Ram 313231
▁Italian 313202
▁prog 313130
▁dream 312761
ait 312748
▁loan 312613
▁beach 312557
▁troops 312505
▁wake 312445
▁welcome 312413
▁cour 312380
▁1,000 312356
▁plus 312348
▁worker 312120
▁remaining 311986
ivers 311940
▁Only 311909
▁Sl 311884
▁creating 311779
▁mom 311647
▁gre 311113
▁emerged 311106
▁gender 311100
▁flights 311089
▁introduced 311039
ties 310700
▁initially 310678
▁exchange 310638
▁NFL 310594
oses 310562
▁comb 310388
ival 310383
▁Ev 310233
eless 310176
▁referendum 310023
▁governor 310014
▁pushed 309561
ipe 309498
▁penalty 309482
burg 309471
▁becomes 309300
ella 309295
▁44 309244
▁easily 309184
▁suspect 309147
▁false 309000
▁studies 309000
▁circ 308834
▁psych 308810
▁ep 308726
▁worried 308607
▁techn 308584
▁Earth 308557
▁lif 308523
▁balance 308463
▁prof 308409
▁mobile 308394
▁ru 308304
▁Hospital 308290
▁firms 308163
▁Sol 308105
▁41 308033
▁analysis 307879
▁alcohol 307773
▁seasons 307515
win 307453
▁Reg 307384
▁favour 307243
▁therefore 307163
▁equipment 307143
ader 307121
▁Mag 307078
▁danger 306881
▁Port 306839
▁solution 306774
▁shock 306708
▁fix 306669
▁moments 306545
▁Tony 306493
▁drama 306481
▁bottom 306464
▁65 306437
▁Mary 306321
arian 306215
▁heads 306123
▁migrants 305968
▁Dis 305882
▁Show 305761
▁allows 305696
▁ideas 305666
roll 305452
IN 305285
▁Harris 305244
osition 305081
▁emp 305057
▁Pa 304843
▁Tory 304761
▁royal 304729
▁Da 304560
▁cells 304534
▁religious 304492
ruct 304433
▁Charles 304374
▁happening 304303
▁St. 304169
▁incre 304113
▁env 304059
▁pointed 303844
resent 303835
▁wom 303815
▁estate 303440
izz 303423
▁definitely 303421
▁collection 303270
▁hen 303262
away 303159
▁repeatedly 303078
▁wave 302968
▁smart 302925
▁hate 302889
▁enforcement 302794
▁rig 302771
iol 302725
▁lots 302692
▁sand 302537
▁covered 302529
▁consumers 302519
▁sentence 302497
▁presence 302465
▁tre 302172
▁mask 302165
▁amazing 302010
▁vulnerable 301980
▁approved 301932
bi 301917
ached 301853
uary 301834
▁enc 301762
▁Speaking 301741
▁Ukraine 301741
tain 301640
▁struggling 301545
opp 301496
▁seriously 301412
▁pub 301373
irm 301371
▁ton 301346
irus 301221
▁willing 301035
▁serving 301006
illa 300906
▁expressed 300857
ental 300717
▁hur 300698
▁surprise 300636
▁Ap 300533
gn 300436
▁masks 300424
▁ruled 300304
▁fur 300221
▁Str 300154
▁suffering 300107
▁Beijing 300098
now 300044
iant 300008
ula 299909
cast 299838
▁District 299540
▁reveal 299438
▁whatever 299377
▁Sen. 299350
▁Arab 299347
▁handed 299285
▁vast 299184
▁larger 299175
▁wedding 299163
▁trend 299133
▁organization 298973
▁profile 298946
▁agent 298896
▁rac 298851
▁walked 298736
▁adds 298587
▁Play 298530
▁exercise 298380
▁confident 298356
▁Pet 298197
▁existing 298172
mber 298144
▁Ver 298032
▁Ins 297989
:30 297875
▁Oh 297851
▁ABC 297779
▁northern 297681
▁Ba 297246
▁interests 297089
▁watched 296950
iser 296903
ager 296862
▁appearance 296356
▁grown 296249
rence 296234
ourn 296200
idence 296183
▁smaller 296115
▁bear 296002
ado 295954
▁Mid 295742
▁assist 295687
▁turning 295597
aughter 295530
▁aut 295450
▁Adam 295317
▁falling 295291
▁consumer 295090
▁completed 295024
▁Jackson 294913
▁2007 294865
▁faith 294852
▁hoping 294703
▁Earlier 294628
▁Research 294615
▁Stephen 294488
aur 294451
▁Where 294360
ishing 294255
ras 294178
ibility 293882
rick 293867
▁argued 293860
▁eng 293849
▁expl 293633
▁provides 293561
▁direction 293495
▁43 293465
irt 293202
▁document 293187
▁explain 293175
▁rele 293163
▁Young 293068
▁hits 293043
▁Sea 293036
▁Brazil 292994
ocks 292965
isted 292861
▁crimes 292722
▁article 292675
▁edge 292558
▁reduced 292152
▁NSW 292145
▁Bro 292103
▁obs 292029
ented 292025
▁eating 292002
anger 291704
yp 291627
▁Us 291627
▁afford 291625
▁remove 291554
▁notice 291511
▁acting 291415
▁nations 291337
▁opportunities 291327
eted 291326
▁aircraft 291259
aked 291257
oked 291226
▁inspired 291201
era 291074
ago 291022
ias 291001
LE 290979
▁Republic 290956
▁Gen 290941
▁programs 290886
▁widely 290755
▁emer 290711
kes 290707
▁sharing 290681
war 290626
▁writer 290372
▁delivery 290217
▁Best 290183
▁films 290099
icted 290018
▁Long 290003
▁Time 289960
ining 289887
0,000 289861
▁lik 289824
▁Get 289807
oor 289806
▁stands 289470
▁2000 289359
▁worry 289317
▁Ste 289194
iate 289192
▁Yes 289108
▁environmental 289072
▁Ken 288892
lers 288876
▁leads 288829
play 288738
▁ment 288732
▁messages 288618
uce 288592
▁journey 288564
anted 288421
▁Ros 288302
▁manage 287688
▁visitors 287673
▁Lewis 287664
yan 287611
▁duty 287591
▁River 287537
▁degree 287480
▁negotiations 287326
MA 287218
lay 286951
▁waste 286731
▁tournament 286713
▁aver 286469
▁unlikely 286369
▁breaking 286264
▁spe 286212
▁democracy 286185
▁Wor 286171
▁broad 286096
▁split 285893
gar 285640
▁chain 285502
▁commitment 285486
▁195 285439
▁Back 285424
▁coup 285389
▁Army 285354
▁investig 285261
gl 285207
ready 284811
▁dig 284679
▁infection 284629
ady 284617
▁lie 284566
▁agencies 284534
▁2, 284378
iy 284299
ban 284238
▁hospitals 284236
▁powers 284008
▁Max 283901
16 283647
imate 283534
aine 283478
▁skills 283383
▁earn 283336
17 283197
▁pictured 283124
▁matters 283110
▁Jeremy 283070
▁oper 283069
osing 282943
umber 282874
▁conservative 282723
▁prior 282694
▁pros 282529
reen 282461
▁none 282404
▁conv 282396
▁Eng 282379
▁Seattle 282340
▁yes 282288
▁attended 282284
▁ride 282205
▁farm 282174
▁Social 282085
▁filled 281765
▁behaviour 281760
iar 281663
lection 281650
ele 281572
▁hero 281545
▁Spanish 281325
hips 281310
▁Os 281291
▁experienced 281258
how 281241
▁Jordan 281216
▁maintain 281011
▁Kevin 281000
▁Jon 280984
mond 280563
▁accident 280533
▁user 280491
▁videos 280481
▁Pal 280454
▁contest 280385
▁dam 280120
▁lawyers 280104
▁polls 280027
▁Kate 280001
▁species 279997
cing 279937
▁cook 279937
▁payments 279872
rip 279839
▁Care 279680
▁McG 279491
▁Win 279409
▁moves 279359
▁stick 279355
don 279233
▁amb 279205
▁Val 279172
▁inquiry 279142
▁diet 278982
pping 278975
▁regime 278787
▁core 278617
▁jump 278432
aint 278375
pa 278289
▁mer 278288
▁refugees 278281
▁infl 278250
▁proper 278232
SE 278139
ugh 278102
▁Club 278034
▁rom 277865
▁belie 277780
▁understanding 277762
▁houses 277690
▁crucial 277687
▁location 277570
▁slightly 277474
roy 277445
▁Jeff 277431
▁violent 277313
▁Kar 277312
▁diss 277299
▁milit 277270
▁ju 277266
▁retail 277192
▁driven 277125
eds 277103
▁ties 276995
iation 276917
mun 276787
▁Jim 276782
▁adults 276666
▁Virginia 276647
▁pace 276627
▁delivered 276570
▁Ant 276455
▁diffe 276387
▁Pakistan 276147
▁wine 276041
▁tor 275917
acked 275865
▁fill 275667
▁findings 275568
antly 275530
▁commission 275507
▁operating 275166
▁Dar 275067
ilit 274813
▁Gre 274795
▁carrying 274628
aming 274467
▁trouble 274460
▁obviously 274328
▁49 274256
▁emotional 274043
▁function 273681
▁shape 273641
▁46 273596
▁ministers 273543
▁likes 273531
▁dry 273490
▁shots 273472
▁suspended 273412
▁restaurants 273409
▁soldiers 273408
▁seconds 273376
▁promised 273230
▁Game 273202
ille 272922
rict 272916
▁publicly 272856
▁feed 272694
▁Sat 272668
▁Netflix 272623
oned 272621
▁lawmakers 272596
▁47 272577
▁session 272395
▁Lord 272392
▁greatest 272346
▁glass 272316
▁insisted 272272
▁southern 272259
▁allies 272228
▁decline 272220
▁buying 272200
ording 272163
▁wonder 272098
▁happ 272024
▁Ter 272005
▁delay 271925
▁Sen 271906
▁ending 271893
▁€ 271815
▁expensive 271748
ei 271630
▁army 271578
rug 271378
▁Georgia 271144
▁knowledge 271142
iversity 271100
▁internal 271073
▁Moscow 271058
▁bright 270965
▁fewer 270954
▁distance 270945
ourt 270938
▁holds 270787
▁dinner 270776
oug 270754
▁connection 270711
▁truly 270592
▁ide 270568
18 270462
▁gap 270441
▁authority 270380
▁easier 270361
▁Phil 270336
▁vol 270207
▁MORE 270152
▁coverage 270098
▁entirely 270028
▁Champions 269770
▁banned 269741
▁unless 269476
▁neck 269458
▁gay 269456
▁birthday 269380
aren 269367
▁turns 269267
▁pal 269265
asc 268884
bec 268871
▁teacher 268819
▁thinks 268747
kins 268746
▁mayor 268587
▁extended 268521
usp 268485
▁identify 268288
▁Louis 268225
▁panel 268220
▁Media 268170
▁vital 268026
▁dollar 267960
▁Aust 267937
oming 267925
agon 267773
ror 267771
▁Hillary 267681
▁lit 267680
▁Watch 267648
▁vision 267611
▁extreme 267357
▁Trans 267235
▁mil 267194
▁defend 267101
▁Ross 267025
uge 266889
▁toll 266744
▁goods 266643
▁terrorist 266376
▁teachers 266311
RA 266291
▁administ 266213
▁developing 266058
▁colour 266006
▁Eu 265968
▁deputy 265928
▁sweet 265815
aches 265813
▁zone 265649
▁Mer 265429
▁achieve 265403
▁deeply 265291
oh 265272
▁trib 265200
▁determined 265122
▁esp 264782
▁plastic 264775
abb 264761
▁returning 264740
▁Ang 264630
▁alternative 264594
▁vo 264562
▁sets 264561
eo 264486
iffe 264409
ounds 264332
▁Anthony 264328
igation 264177
ocrat 264121
roc 264064
ression 264045
▁coalition 263893
▁Tour 263760
iven 263707
▁Disney 263705
▁Davis 263501
▁supporting 263485
hr 263401
▁Sk 263239
▁shopping 262980
stem 262775
▁ple 262743
emp 262643
EN 262572
ube 262468
▁visited 262409
mat 262263
▁corruption 262261
▁crack 262165
▁infrastructure 262079
ez 262073
▁pin 262042
▁entered 262033
▁rail 261717
ective 261342
▁struggle 261308
▁offic 261300
▁carbon 261233
▁Japanese 261162
▁Mail 261098
▁Agency 260922
▁FA 260893
alif 260800
▁GOP 260769
▁mad 260762
iber 260761
▁conducted 260719
▁considering 260668
▁Warren 260584
▁Life 260523
ibly 260488
▁inte 260470
▁Ser 260469
▁familiar 260403
itude 260283
▁Sports 260166
▁chances 260047
▁facilities 259972
▁Fund 259971
▁hall 259873
▁400 259869
▁Cam 259653
▁doors 259567
▁favourite 259550
▁Op 259539
▁master 259528
▁proved 259325
▁targeted 259287
ables 259268
hold 259252
▁historic 259235
anda 259210
▁Haw 259149
aper 259021
▁lim 258957
▁devices 258931
▁mal 258847
▁Sim 258821
▁Edinburgh 258782
orted 258769
▁identity 258769
▁attacked 258602
agn 258452
▁established 258414
ko 258403
oci 258372
▁Force 258227
▁Labor 258136
▁Centre 258107
▁cand 258086
▁rejected 258086
iew 258061
▁closely 258056
▁earned 258051
▁cultural 258027
▁thin 257891
ila 257880
ket 257879
▁som 257807
▁forecast 257669
▁fig 257306
anes 257301
ield 257288
uing 257206
▁activ 257186
▁fee 257167
▁notes 257052
oral 256991
▁factors 256948
▁meat 256775
▁respons 256754
▁hor 256708
oli 256691
▁Down 256684
▁Top 256651
▁stre 256597
▁USA 256576
mes 256559
▁reaction 256548
▁viol 256520
ici 256507
▁52 256480
rid 256350
acts 256340
▁Human 256334
▁village 256242
ologist 256189
▁computer 255802
ients 255656
▁Francisco 255540
▁festival 255427
ession 255406
▁2021 255406
astic 255398
▁Dav 255303
duct 255221
ules 255186
▁Add 255135
▁mention 255124
▁Murray 255090
makers 254960
▁garden 254862
▁returns 254855
▁interested 254846
▁Mah 254816
acc 254757
rial 254727
▁rescue 254684
omy 254612
▁advance 254594
real 254550
▁basic 254547
▁possibility 254528
oma 254449
▁dogs 254444
▁Six 254387
▁tree 254254
ety 254239
▁comfort 254159
▁ISIS 254121
▁presented 254049
▁Boy 253925
▁51 253897
▁models 253881
eries 253846
▁transition 253765
12 253710
▁usual 253563
▁Israeli 253529
"s 253450
▁excited 253238
▁wood 253235
▁relatively 253137
▁causing 253106
▁semi 253052
▁hal 252838
bour 252798
▁Madrid 252715
iner 252713
▁repl 252560
▁favor 252544
▁Fre 252520
ori 252510
▁grad 252493
▁fed 252438
▁150 252400
▁values 252393
▁Business 252382
▁suffer 252326
▁taxes 252309
▁Des 252232
▁bow 252195
▁Bob 252019
▁busy 251904
▁statements 251886
▁generally 251822
jo 251748
▁draft 251740
▁flying 251632
▁Food 251584
lie 251503
▁scandal 251411
▁listen 251320
▁supposed 251088
rell 251004
▁everybody 250993
amer 250884
▁aud 250847
omin 250841
fort 250825
▁tackle 250818
▁kid 250678
▁spr 250565
▁lawsuit 250473
▁promise 250407
ounced 250387
▁electric 250379
▁county 250337
rian 250323
▁planet 250109
▁facility 249982
▁immediate 249971
▁ups 249716
▁impro 249699
iance 249655
ilar 249601
▁cho 249493
▁Director 249423
ults 249347
▁spoken 249251
▁claiming 248966
▁stated 248893
▁route 248867
▁dozen 248832
▁express 248734
▁emissions 248720
▁Roy 248659
▁detail 248639
▁infections 248405
▁industrial 248341
lement 248337
lear 248310
earing 248286
▁UPI 248180
ither 248142
▁terrorism 248084
▁dom 248013
▁Men 247993
▁chat 247926
▁polit 247920
▁controversial 247916
▁Wilson 247906
▁Kn 247891
▁ultimately 247884
▁Mill 247883
bal 247881
▁priority 247881
▁device 247877
▁attempts 247763
▁wealth 247698
▁boat 247612
▁Glasgow 247561
▁tonight 247440
▁econom 247410
▁Among 247393
▁predict 247258
▁roughly 247252
▁O' 247140
vey 247040
▁receiving 246776
iod 246720
▁Though 246573
▁summit 246535
▁2006 246424
ja 246389
ivity 246205
▁Rose 246141
▁regul 246037
▁dance 245954
▁Week 245882
▁Member 245787
▁Av 245767
▁Has 245758
▁assets 245747
istan 245636
▁bal 245621
▁beauty 245588
itors 245486
▁Beach 245392
▁flow 245358
wise 245327
▁activists 245319
In 245158
▁Ali 245147
▁surface 245046
▁color 245022
▁customer 244971
stone 244893
▁trad 244893
using 244882
▁threats 244786
▁Company 244756
▁memory 244751
▁aimed 244660
▁flu 244416
▁raising 244209
▁rooms 244192
anna 244115
emb 244070
udd 244027
▁associated 243894
▁zero 243875
ols 243873
▁Ob 243759
▁Mart 243711
▁brings 243690
▁wore 243578
tle 243576
▁section 243565
omes 243504
▁institutions 243437
▁motor 243404
OS 243349
▁Turkish 243173
▁ang 243146
▁keen 243140
▁rent 243125
▁Conservative 243095
▁impossible 243053
▁causes 242956
▁fake 242931
list 242892
▁rad 242873
▁Market 242815
▁Greece 242813
▁determine 242807
▁talked 242642
onst 242581
▁forget 242519
▁Professor 242505
▁suff 242498
▁attract 242425
▁threatened 242397
▁dire 242171
▁Iranian 242049
▁2005 241851
▁Ko 241752
▁alive 241747
olly 241625
fr 241550
▁purpose 241548
▁shortly 241476
dom 241455
▁Asian 241419
▁package 241395
▁replace 241324
▁Ford 241313
ius 241248
▁kitchen 241152
asy 241116
uous 241100
▁buildings 241079
▁bes 241036
▁Hy 241003
inated 240991
cel 240958
▁Pacific 240884
▁adviser 240806
▁esc 240804
▁farmers 240738
apped 240674
right 240635
band 240614
▁headed 240579
▁apartment 240389
▁possibly 240379
lands 240310
▁Ministry 240291
▁approval 240250
▁suicide 240113
▁harder 240108
▁passing 240024
▁targets 240008
aph 240005
rown 239912
▁index 239822
▁Foundation 239765
▁Eric 239727
ID 239481
▁tiny 239475
▁regions 239458
▁employment 239406
bb 239381
▁Boston 239345
▁ceremony 239224
▁honest 239184
▁understood 239172
hand 239151
TA 239105
▁cas 239103
rum 238976
▁Nation 238927
▁Fin 238921
▁ey 238907
▁continuing 238837
earch 238748
▁artists 238721
▁Ash 238659
14 238564
hile 238558
▁quiet 238467
▁illness 238410
▁coun 238398
▁AFP 238341
▁Las 238253
▁guests 238248
▁fort 238163
▁Queensland 237994
▁ft 237991
▁critics 237719
▁Stadium 237681
ura 237670
▁fallen 237648
▁prim 237504
▁territory 237459
▁lift 237423
▁54 237350
▁bond 237314
len 237258
uate 237120
▁Morgan 237096
▁ticket 236995
▁Sarah 236938
▁cry 236788
▁mail 236767
▁Credit 236756
▁ident 236693
▁drawn 236647
▁Arabia 236594
ifying 236550
▁puts 236500
ault 236400
▁Judge 236382
▁circumstances 236259
oft 236254
▁Global 236244
▁knowing 236221
▁Simon 236192
▁mouth 236157
ira 236156
▁incredible 236002
▁rape 235837
▁div 235829
▁witness 235767
utions 235737
▁hol 235685
▁friendly 235594
zy 235469
▁Olympic 235375
▁fu 235327
▁celebrate 235196
▁acts 235194
apping 235144
iety 234993
▁km 234912
▁Ac 234844
▁Senator 234808
▁sending 234626
▁announce 234623
▁spokesperson 234589
raz 234570
▁pushing 234538
ora 234450
▁Vice 234439
▁Blue 234407
▁pur 234405
▁fees 234291
▁infected 234259
▁Att 234230
▁except 234210
igned 234207
oto 234148
▁corporate 234141
▁tom 234074
yo 234067
ober 234062
▁scenes 234062
▁partic 234040
▁distancing 234012
▁hon 233971
▁hyp 233965
ological 233816
▁otherwise 233803
▁overs 233689
▁Valley 233667
▁Rangers 233652
▁coffee 233544
▁comple 233539
▁Nigeria 233503
▁comedy 233453
▁involving 233408
▁minimum 233370
▁shirt 233349
▁ally 233312
▁intended 233300
▁talent 233252
▁Tur 233214
ima 233198
▁earnings 233194
rov 233030
net 233020
▁plants 232987
▁dozens 232970
▁characters 232937
ela 232928
▁contributed 232877
▁roads 232817
▁gro 232718
akh 232681
▁100,000 232679
▁vac 232663
▁tied 232605
▁listed 232463
otic 232386
▁dest 232338
acing 232304
▁bul 232275
▁magazine 232269
AP 232264
ream 232165
lete 232156
▁conce 232119
▁trees 232113
▁Id 232063
▁demands 232030
▁viewers 232020
▁hoped 232000
40 231989
▁sky 231945
▁Prof 231917
▁convicted 231896
▁stri 231839
cho 231780
▁factor 231735
▁sharp 231716
▁combined 231600
ogn 231553
▁radical 231425
▁solid 231391
▁assistant 231333
mark 231331
▁resident 231267
shire 231264
▁truck 231264
▁outcome 231259
▁Plan 231247
▁upset 231217
chers 231126
like 231120
▁Hor 231025
▁Bor 230871
▁horse 230853
aun 230770
▁cricket 230705
▁unw 230603
▁commit 230553
▁correct 230532
▁blame 230520
▁promote 230473
tering 230455
▁ol 230379
ounce 230355
▁gar 230310
▁jury 230286
hol 230227
▁Photograph 230204
▁Miami 230047
uthor 229961
ece 229799
▁Bal 229720
▁Lab 229412
▁53 229314
▁tro 229292
▁heading 229257
▁prepare 229205
▁writes 229191
▁fav 229147
vy 229009
▁resolution 228983
11 228919
▁compl 228879
▁tele 228876
▁Char 228826
▁spokeswoman 228813
▁meetings 228752
▁surge 228705
▁Michigan 228661
▁reflect 228639
▁broadcast 228635
▁machine 228630
▁occurred 228625
▁Ta 228545
▁actual 228542
nity 228500
▁Elizabeth 228376
ipped 228327
▁heavily 228249
▁spl 228236
▁PA 228173
▁Games 228156
▁193 228122
▁finds 228017
bit 227992
▁Ohio 227980
▁losses 227904
▁scoring 227867
▁apparently 227808
▁deter 227807
▁Afghanistan 227685
▁labor 227680
▁exit 227625
▁sight 227501
▁occur 227494
SA 227465
▁retired 227354
▁failing 227348
▁tur 227198
▁seas 227128
▁agents 226943
ctions 226930
etic 226904
▁controlled 226897
▁disaster 226882
AD 226857
▁Arizona 226847
worth 226814
▁interesting 226790
▁Water 226732
▁appropriate 226730
▁Lib 226691
▁bail 226643
▁1.5 226501
▁Rich 226493
▁rid 226420
▁encourage 226419
atives 226402
▁Int 226227
▁importance 226193
▁impeachment 226189
▁regularly 226052
▁tea 226039
ference 225933
▁consequences 225903
▁Cook 225843
▁behavior 225822
▁unc 225729
▁Fort 225702
▁mine 225539
ocked 225537
▁roles 225472
▁liber 225450
▁obvious 225415
▁Sec 225347
ux 225344
aus 225254
▁stuck 225193
▁advert 225132
▁appro 225115
pm 225047
▁begins 225022
▁Moore 224962
▁explains 224950
ST 224839
▁beg 224839
▁Miller 224676
▁influ 224651
oted 224597
▁pieces 224561
▁desp 224554
▁sugar 224442
bro 224440
▁improved 224404
lus 224394
▁flo 224326
▁Pan 224293
▁courts 224077
▁offensive 224068
IT 224067
▁sever 224052
▁strict 224026
▁Bell 223974
▁payment 223844
.99 223827
idd 223777
▁cult 223690
▁escape 223611
▁Po 223546
bre 223529
▁types 223490
▁Lu 223426
▁combat 223374
▁confirm 223261
▁stretch 223244
▁weak 223055
▁posts 222980
lat 222830
▁ris 222804
raft 222763
iot 222713
▁originally 222707
▁typically 222617
▁inn 222540
▁Palace 222518
▁suspected 222510
▁coal 222451
▁Mu 222347
▁select 222343
▁Islam 222311
▁rivals 222195
▁assess 222148
▁+ 222131
under 222124
▁Iowa 222036
▁burn 221979
▁bars 221932
▁impressive 221890
▁independence 221852
▁dealing 221778
▁Ast 221776
▁structure 221705
▁rural 221540
▁shops 221533
▁joy 221496
oly 221377
▁AC 221270
▁Dam 221255
isi 221242
▁prosecutors 221240
▁software 221239
▁exposed 221175
▁ourselves 221136
▁knee 221105
▁Const 221074
▁positions 221026
arily 220988
▁Greg 220908
▁Santa 220751
▁requ 220728
▁pret 220674
▁Andy 220670
▁humans 220544
fall 220513
▁veteran 220482
▁background 220472
usion 220453
▁cards 220452
▁gra 220385
▁attempted 220314
▁Have 220254
itation 220230
yers 220199
▁maj 220153
▁Live 220055
▁extend 220035
▁Uber 219938
oper 219914
▁imagine 219853
▁eastern 219825
ogy 219792
▁requires 219784
LA 219774
▁spin 219742
▁Medical 219737
▁Khan 219683
▁YouTube 219681
crib 219467
▁Little 219333
▁Ren 219270
▁classic 219246
ighter 219182
▁contrast 219104
▁wid 219097
▁healthcare 219036
▁rein 218986
▁enjoyed 218974
▁desire 218957
rend 218950
▁captured 218924
nesday 218903
▁desc 218806
itc 218521
▁finance 218515
▁Graham 218512
-p 218478
ship 218429
▁peak 218359
▁newly 218340
/2 218254
▁regulations 218212
▁polic 218123
▁sil 218063
▁mel 218053
lines 218042
▁closing 217765
▁aside 217759
▁alle 217700
▁racial 217685
arks 217505
▁Canadian 217448
▁56 217342
▁saved 217261
▁employee 217164
ruction 217127
▁clients 217109
▁Theresa 217088
akers 217084
▁Five 217047
▁fut 217044
▁Celtic 216999
▁western 216997
▁quest 216985
▁Tor 216983
uster 216956
atures 216886
▁flav 216885
▁establish 216778
▁stocks 216709
▁assistance 216641
▁belong 216512
▁Bet 216503
▁empty 216488
▁complaint 216423
▁Pen 216361
▁AM 216338
lyn 216327
▁follows 216307
▁unclear 216291
run 216247
west 216201
ucks 216171
▁Josh 216167
▁reaching 216152
▁Russ 216150
state 216062
▁crit 216028
oured 215999
ption 215987
▁Night 215922
anged 215901
▁Crown 215871
hew 215829
fire 215819
▁worldwide 215775
▁songs 215745
▁behalf 215682
▁10,000 215562
▁entry 215415
▁square 215406
▁Jud 215337
illy 215327
▁OK 215315
▁adult 215276
▁argument 215215
anch 215125
▁57 215101
▁struggled 214986
▁Je 214907
▁Jose 214808
▁bills 214763
anced 214714
kers 214548
▁discussion 214532
▁Channel 214529
▁pand 214483
▁Houston 214480
▁indeed 214447
▁lucky 214434
▁comfortable 214407
▁object 214386
▁angry 214288
▁Ol 214285
ograph 214274
▁plot 214228
▁agenda 214117
▁regard 213967
▁marked 213966
aze 213963
▁autom 213951
▁Which 213892
▁loans 213882
▁Brad 213818
▁organisation 213811
▁ty 213750
ouch 213704
▁reveals 213633
▁forms 213591
▁Such 213588
▁bedroom 213551
▁64 213546
▁rob 213526
▁fol 213433
▁rap 213393
▁Brian 213334
▁judges 213322
▁Second 213318
ito 213278
▁Scot 213265
▁meas 213229
▁Ka 213100
inary 213086
▁trail 213085
acking 212968
▁restrict 212878
▁Er 212875
encies 212835
▁Video 212759
aved 212613
▁remarks 212611
▁Den 212411
reet 212329
▁tomorrow 212312
▁contr 212295
ancing 212242
▁surprised 212226
rations 212112
▁AN 212077
stand 211932
▁racism 211922
irc 211883
▁please 211845
▁cutting 211831
▁poverty 211753
▁Covid 211673
▁Jay 211583
▁connected 211565
▁Family 211539
▁surf 211511
▁Barcelona 211504
▁Lake 211503
▁Cle 211492
ivid 211450
▁arrive 211434
ested 211279
▁competitive 211222
▁minor 211196
▁lat 211151
▁experiences 211059
▁accepted 211048
iring 211037
ecut 211023
▁expand 211005
▁division 210992
▁movies 210988
▁laid 210892
▁code 210861
▁deadly 210795
ography 210794
▁hang 210790
place 210772
▁pregnant 210733
▁Mayor 210679
▁Jr. 210483
▁producer 210385
▁racist 210369
▁que 210323
▁Meghan 210306
▁lies 210297
▁Call 210193
▁lunch 210189
▁connect 210179
▁engaged 210117
lying 210115
ittle 209964
▁Dun 209925
▁Power 209880
RC 209877
str 209871
▁2004 209854
▁pilot 209852
▁Eve 209835
▁Delhi 209766
otes 209746
▁Steven 209708
▁dramatic 209672
▁custody 209659
nel 209627
cement 209611
▁spirit 209582
▁NBC 209553
▁NBA 209550
OR 209420
▁ate 209412
▁journalists 209404
▁AT 209385
▁Tues 209375
▁ded 209322
TO 209279
owers 209196
hou 209066
▁anniversary 209019
▁effectively 208894
▁analysts 208864
▁featured 208830
▁Carl 208821
▁gang 208816
▁perf 208795
uting 208794
▁finals 208764
lished 208691
£ 208679
▁keeps 208672
▁golf 208666
omers 208644
ache 208627
isp 208623
▁stake 208481
▁Each 208449
uly 208448
▁Associated 208448
▁tries 208444
uls 208403
ogue 208401
▁Bas 208368
▁Mur 208296
▁ign 208286
▁bound 208108
▁anger 208092
▁Services 208090
▁spotted 208076
▁Tra 208013
▁fought 208006
▁Southern 207877
ums 207805
▁magn 207750
cot 207733
▁represents 207588
▁mag 207568
▁replaced 207565
▁editor 207550
▁wage 207435
▁202 207423
▁guide 207412
▁hole 207239
▁capable 207184
TV 207177
▁educ 207122
izes 207120
▁Jewish 207096
▁Du 207033
empt 207032
lig 207029
▁GP 206976
fa 206971
▁Board 206932
▁End 206908
▁drinking 206768
▁Gun 206720
▁Face 206715
ondon 206659
▁stadium 206641
▁journalist 206608
▁analyst 206526
▁Rights 206525
ota 206512
▁operate 206508
▁directed 206490
▁Ray 206484
▁Look 206360
oking 206358
DA 206355
▁asylum 206254
rer 206127
▁Fred 206098
▁2003 206060
▁replied 206005
▁Journal 205971
▁intention 205971
sea 205892
uro 205854
▁granted 205774
▁J. 205764
▁mistake 205678
enal 205650
▁Li 205579
▁Kat 205569
▁clothes 205475
ertain 205414
▁probe 205400
▁Jersey 205380
▁Ju 205344
onia 205336
eck 205283
▁investigating 205266
▁saving 205233
▁unemployment 205217
eline 205187
rig 205181
round 205163
▁defe 205096
▁dating 205055
azz 205029
reme 205015
▁priv 204968
▁expectations 204856
▁guidelines 204793
▁Had 204782
▁bird 204747
▁channel 204711
̀ 204610
▁Egypt 204603
▁registered 204544
orse 204428
rup 204397
▁fires 204385
▁Ball 204371
bel 204349
artment 204337
▁signing 204325
▁stronger 204306
part 204181
▁Cap 204153
gi 204141
▁600 204095
▁waters 204085
▁admit 203973
▁Pay 203967
▁instance 203953
▁Editing 203863
▁Barack 203768
▁gains 203709
▁update 203600
▁Did 203580
▁Hay 203505
▁Patrick 203503
▁gained 203493
▁58 203427
lies 203396
▁gift 203202
mers 203182
itional 203139
▁arch 203116
while 203097
▁Sub 203092
rot 203033
iveness 203007
,500 202972
tha 202963
ocal 202941
eks 202887
▁defensive 202881
▁totally 202875
▁stayed 202815
oa 202668
▁king 202591
▁Museum 202574
▁ballot 202538
IL 202486
▁Def 202428
▁Wal 202400
▁Hel 202398
▁wider 202354
▁brilliant 202337
▁discover 202305
▁hundred 202225
▁Gall 202217
▁proposals 202160
▁SNP 202054
▁engine 202017
▁passenger 202013
anding 202005
▁lowest 201972
▁72 201943
▁origin 201934
urch 201912
okes 201883
enced 201870
▁calm 201857
▁strikes 201840
▁shr 201838
▁Mont 201832
▁unusual 201828
▁trained 201806
▁READ 201799
▁formal 201700
oved 201678
▁Gov. 201662
▁cheap 201654
aka 201532
▁staying 201530
▁quarantine 201468
▁significantly 201312
▁prospect 201283
▁spo 201281
▁cup 201234
▁Sweden 201225
▁Mueller 201075
▁opposed 201003
▁ess 200944
▁compete 200908
▁Jason 200895
▁grounds 200847
▁cooperation 200841
zed 200579
▁IC 200541
▁sch 200493
lling 200488
▁Whe 200457
▁mov 200445
oman 200333
▁stream 200317
lined 200314
bur 200284
▁react 200220
▁recalled 200190
▁Na 200112
rad 200101
put 200094
▁command 199995
▁Hamilton 199973
▁practices 199932
irth 199854
▁Ian 199822
iev 199744
olved 199741
▁59 199741
▁forg 199669
▁pension 199620
▁Det 199600
▁overseas 199575
▁phase 199515
▁imposed 199488
just 199473
▁Net 199341
▁argue 199304
▁bor 199200
▁Brussels 199197
▁legs 199193
iders 199086
▁offices 199085
▁protected 198797
▁challenging 198746
▁survive 198716
▁Radio 198693
▁located 198643
▁counsel 198600
▁LA 198552
▁complaints 198530
▁studio 198516
▁airline 198486
▁san 198467
▁ads 198451
▁insp 198421
▁Free 198406
▁rough 198390
▁pounds 198377
▁Aut 198372
ission 198236
▁discussed 198193
▁sixth 198173
icer 198118
woman 198086
▁province 198081
▁stra 198072
▁clos 198057
▁doc 198049
wan 197986
▁il 197941
▁Cat 197912
▁recover 197906
▁technical 197852
ami 197851
▁application 197795
▁elsewhere 197779
ME 197768
▁Jam 197733
eing 197710
▁Trust 197665
▁iron 197460
▁bench 197448
▁thus 197431
▁permanent 197366
▁Sport 197365
▁Ten 197267
▁alert 197228
▁hel 197196
▁wed 197153
▁sounds 197085
pan 197080
ching 197075
▁bot 197042
▁luxury 197034
sts 197002
▁actors 196941
▁abroad 196845
hab 196789
▁Justin 196729
BS 196683
▁breast 196657
▁phones 196611
lets 196580
▁din 196571
▁Euro 196566
rator 196562
▁fled 196553
▁aer 196515
% 196491
▁sav 196461
▁Reporting 196442
▁missile 196387
▁ministry 196370
▁household 196315
▁Hard 196246
elle 196152
▁Cruz 196098
water 196090
▁Lam 196055
ders 196051
▁girlfriend 196033
▁performed 195986
▁partnership 195962
▁exam 195832
▁2001 195807
▁liberal 195678
▁creat 195626
13 195606
▁march 195595
▁tall 195569
▁bull 195487
▁ease 195442
▁consult 195430
▁incidents 195406
gal 195367
tery 195275
onald 195249
▁referred 195185
▁schedule 195176
▁Vegas 195077
▁Hu 195060
▁66 195052
▁refer 194805
▁Having 194726
▁62 194691
nia 194662
▁Football 194657
stein 194603
▁profits 194558
▁variety 194458
ogg 194455
igg 194431
▁stepped 194400
▁hitting 194357
asp 194343
▁remind 194329
▁handle 194319
▁Ly 194311
▁river 194311
US 194287
▁Land 194242
▁Attorney 194204
▁founded 194142
▁applied 194018
aro 194017
▁tum 193992
▁od 193950
▁rum 193948
▁neither 193946
▁Church 193934
▁Greek 193829
▁purchase 193819
ishes 193754
▁blog 193726
▁Asked 193653
,6 193586
▁intense 193558
▁facts 193551
care 193550
▁mort 193421
ajor 193399
▁visiting 193396
▁Cooper 193319
elly 193295
▁appointed 193256
▁Rep. 193242
▁marks 193113
▁abs 193112
▁regarding 193112
▁brands 193047
eller 193019
▁increases 192961
▁Wat 192906
icked 192764
▁Guardian 192703
omed 192700
▁properly 192677
▁temperatures 192623
▁dispute 192561
utt 192508
▁resort 192489
vo 192444
_ 192433
uan 192387
,2 192347
▁grant 192312
▁decl 192287
erve 192281
▁abortion 192281
▁medium 192148
▁relationships 192104
▁Berlin 192069
▁Right 192036
▁concluded 192022
▁employ 191931
erm 191772
▁Run 191611
▁Mir 191514
icial 191440
oles 191396
▁theme 191379
ador 191290
▁85 191269
▁scar 191206
▁guess 191173
▁susp 191168
▁creative 191090
▁materials 191066
▁teen 191011
▁investigate 191001
▁vill 190911
▁Bowl 190802
▁Jun 190769
wick 190728
▁depend 190627
ED 190579
▁chose 190572
▁Inf 190565
iro 190542
▁cents 190525
▁democratic 190496
▁Take 190490
ware 190439
▁defin 190412
▁analy 190390
▁file 190326
uild 190267
▁cert 190076
▁faster 190014
▁cameras 189975
▁athletes 189944
▁percentage 189923
▁gathered 189821
▁Awards 189753
▁99 189745
▁vict 189684
▁recogn 189658
CA 189651
mann 189518
orters 189480
▁Rs 189440
▁Rod 189403
▁Maybe 189377
▁sin 189369
▁threatening 189335
▁concert 189245
▁locations 189229
▁wat 189211
▁Children 189205
▁length 189202
inking 189186
ipping 189126
▁tank 189116
,7 189100
▁tool 189089
▁anxiety 189058
cover 189030
▁Rem 188996
▁opponents 188973
▁upcoming 188952
▁Bat 188840
▁taste 188811
esh 188762
▁borders 188757
iac 188739
▁drew 188693
▁formed 188539
ports 188499
NA 188475
▁affairs 188469
▁temporary 188467
▁Nat 188459
▁Energy 188415
▁yellow 188367
▁clip 188316
▁jud 188295
▁thrown 188272
iger 188268
▁wonderful 188201
IP 188163
▁McK 188085
bar 188052
▁suddenly 187888
▁tensions 187862
▁Bridge 187850
-2 187840
▁sem 187805
▁dism 187782
AL 187711
▁Bec 187686
▁ble 187628
▁engage 187526
▁seed 187455
▁warn 187377
▁Jean 187315
ania 187292
iny 187189
▁immigrants 187156
▁races 187146
▁arrival 187134
▁units 187112
▁Gal 187108
▁anywhere 187072
omic 186967
▁adopted 186956
▁Next 186855
ilities 186733
▁ramp 186648
▁reputation 186614
oid 186609
▁Navy 186564
▁weapon 186498
▁multi 186426
▁Several 186417
▁Cross 186410
onse 186360
▁entering 186354
▁fighters 186291
▁shocked 186278
▁Chr 186255
▁cycle 186223
hu 186219
▁prize 186152
▁800 186086
▁aggressive 186064
▁Commons 186047
▁knock 186016
▁Bol 185988
▁Low 185981
▁depart 185974
▁Dev 185972
gent 185865
mate 185737
arer 185734
▁jet 185649
▁DNA 185642
▁Sept. 185621
OU 185596
▁Defense 185596
bon 185583
nings 185579
▁tear 185474
▁scientific 185466
▁strongly 185311
▁Walker 185221
▁speaks 185210
▁cream 185209
▁Ell 185133
▁Alexander 185105
▁tourists 185099
▁mate 185089
idge 185083
▁begun 185073
▁mood 185039
urer 185000
▁Bi 185000
▁cited 184974
▁teenager 184950
▁apparent 184872
▁mixed 184812
rows 184750
▁describe 184692
▁Gary 184674
▁flood 184625
▁winds 184569
▁norm 184568
▁transl 184561
▁nut 184538
aling 184530
▁blocked 184528
▁narrow 184514
▁lights 184498
▁falls 184465
▁67 184407
▁informed 184407
▁Henry 184387
▁Championship 184348
▁privacy 184342
inge 184306
▁surrounding 184286
▁poin 184219
▁Golden 184157
▁reass 184071
▁Ru 184045
inder 184041
▁writ 184025
▁motion 184001
aga 183994
▁backing 183984
,4 183983
▁adjust 183981
▁Clin 183980
▁Ga 183944
▁negoti 183875
▁expects 183840
▁numerous 183737
▁bout 183732
▁tools 183708
verage 183694
▁drove 183664
▁adj 183595
▁consum 183578
apes 183532
▁gym 183486
▁managers 183479
▁vs 183441
formation 183432
osh 183389
▁trick 183354
▁Duke 183290
▁Local 183277
▁Camp 183222
▁virtual 183152
▁NY 183144
▁prefer 183079
▁AS 182984
▁preparing 182968
▁destroyed 182889
▁Ja 182874
▁Sant 182754
▁habit 182747
▁properties 182721
▁inflation 182709
▁guidance 182695
▁clash 182659
oner 182522
▁supplies 182497
▁Everyone 182481
▁presidency 182459
▁rely 182442
▁sentenced 182410
▁Bow 182396
▁limits 182331
▁tens 182328
olk 182297
▁exciting 182293
▁threw 182254
,8 182250
gency 182238
▁Fer 182209
▁Joseph 182150
▁Rh 182074
▁2,000 182056
▁Gh 182042
▁scores 182021
▁Team 182018
▁repeated 181992
▁ideal 181991
▁sour 181983
▁clock 181974
▁remote 181912
▁maximum 181853
▁twe 181812
▁Oct 181808
iable 181769
▁method 181769
▁reporter 181743
▁reject 181740
uters 181723
▁map 181722
▁Book 181686
▁estimates 181664
▁bridge 181649
▁Treasury 181642
▁Ve 181625
iced 181622
▁advanced 181605
▁officially 181539
▁fulf 181525
▁tickets 181454
igan 181436
▁smoke 181411
▁widespread 181408
▁Prot 181407
25 181348
ellow 181249
▁dedicated 181221
▁Series 181188
▁Commissioner 181173
▁terrible 181099
▁joining 181051
▁opposite 181050
▁Whit 181026
▁extent 180981
▁initiative 180909
▁hosts 180888
▁Sn 180712
nan 180661
▁subst 180638
weight 180574
▁collapse 180564
iment 180474
lessly 180456
▁RE 180424
▁detailed 180296
▁chef 180260
▁striker 180260
▁exact 180255
▁Mass 180249
onic 180245
▁stable 180193
inate 180106
▁eas 180064
▁iPhone 180032
▁swe 179963
▁boyfriend 179926
▁theory 179897
itted 179894
▁tears 179817
▁urban 179803
▁spect 179802
▁Lady 179765
▁Sher 179710
dale 179699
acle 179686
▁tribute 179627
▁somebody 179613
▁selection 179556
▁string 179542
HS 179511
▁breath 179511
▁nar 179470
▁retirement 179466
▁Education 179465
▁Perhaps 179457
▁alleg 179454
▁Rel 179395
aders 179392
▁guns 179372
▁letters 179370
▁chosen 179314
▁clinical 179314
▁lying 179309
▁honor 179258
▁eval 179189
▁rugby 179174
▁gotten 179082
▁citizen 179038
ounded 179033
▁thoughts 179025
▁Vol 178827
▁voter 178698
▁unl 178685
,9 178679
▁Marc 178655
medi 178622
▁Lind 178551
▁Franc 178536
▁concept 178530
▁acqu 178508
odes 178482
▁construct 178474
,3 178470
▁manner 178331
▁counts 178329
▁tail 178290
▁discussions 178258
▁dismissed 178220
▁stim 178157
isa 178139
istry 178101
▁Les 178099
rust 178088
▁dict 178060
▁hip 178047
▁indic 178042
CO 178007
5,000 177991
▁context 177972
▁invited 177961
.C. 177870
▁spark 177812
▁incredibly 177807
▁investigators 177762
▁2002 177702
▁nominee 177694
▁Oscar 177595
amin 177548
▁Coun 177490
▁sup 177460
hell 177434
▁walls 177433
▁referring 177407
▁checks 177396
oint 177369
fit 177348
tra 177266
▁affair 177237
▁Others 177187
aven 177131
▁Fair 177039
▁managing 177018
▁pow 177008
▁succeed 177008
▁hyd 176989
front 176955
▁trials 176923
▁racing 176887
▁temperature 176853
▁awards 176832
▁advised 176831
▁fruit 176814
▁68 176765
aching 176764
▁tone 176764
▁pi 176743
erate 176670
▁museum 176635
▁fiscal 176593
▁Ear 176502
▁nomination 176460
▁Amy 176420
▁Matthew 176414
▁recovered 176380
▁asks 176297
▁strange 176183
▁emails 176158
resh 176152
▁unknown 176140
amm 176123
rooms 176067
▁roof 176024
▁Jane 176022
▁chem 176022
▁links 175993
▁odd 175988
▁documentary 175879
▁bath 175877
▁Ts 175798
▁Sup 175787
eling 175754
▁apps 175753
▁encouraged 175741
alia 175721
▁imag 175631
▁musical 175603
atter 175597
▁streaming 175547
▁Ce 175539
▁Muslims 175521
rates 175479
▁temp 175407
mal 175392
▁Airport 175388
▁reopen 175297
▁activist 175290
▁Hotel 175206
▁champions 175113
▁Liber 175095
▁ward 175048
▁travelling 175045
▁Charlie 174980
▁settlement 174926
▁250 174888
▁minority 174865
iful 174818
urance 174811
gate 174769
̂ 174766
▁candid 174737
▁personnel 174685
▁organizations 174678
▁hell 174549
▁milk 174546
▁jailed 174527
▁solutions 174517
▁sorry 174504
ensive 174462
▁mentioned 174406
▁IP 174370
▁PS 174263
▁AI 174240
▁Raj 174194
▁funny 174124
▁Pop 174119
▁followers 174117
▁senator 174097
▁Conn 174061
▁occup 174060
▁pink 174052
▁barely 174026
▁mainly 174022
▁Cent 174013
▁Anderson 174004
▁chest 173992
▁Mich 173989
▁web 173944
▁cabinet 173914
point 173875
▁prompted 173869
▁63 173831
▁handling 173831
▁N. 173815
▁solar 173783
▁hy 173772
▁tradition 173746
▁tariffs 173744
▁diagnosed 173734
aping 173715
▁moon 173639
isk 173620
▁favorite 173611
▁Rick 173581
▁foc 173506
▁Jamie 173500
▁Macron 173500
▁Academy 173491
fy 173404
▁Xi 173370
▁investigations 173359
▁Jonathan 173318
▁contracts 173312
oting 173245
▁Square 173232
▁beating 173179
▁client 173163
▁Tottenham 173131
▁spaces 173021
▁strategic 172949
▁achieved 172766
▁Work 172730
FA 172639
▁Stone 172622
▁reforms 172572
▁ethnic 172558
▁marketing 172541
▁belief 172508
BA 172460
▁currency 172447
hib 172431
▁See 172406
▁desperate 172386
▁Mexican 172375
▁stations 172351
rett 172255
▁Space 172200
▁Es 172156
cons 172133
▁meal 172120
▁micro 172119
▁locked 172097
sters 172032
▁Yemen 172022
▁brown 172008
▁visits 172005
wide 171946
▁damaged 171846
▁Neil 171803
▁sensitive 171795
▁agg 171730
▁Dur 171704
▁viral 171694
▁normally 171623
▁shoulder 171603
▁degrees 171533
▁tab 171482
▁mus 171422
▁earth 171400
▁tracks 171385
dd 171372
▁networks 171310
▁contrib 171278
▁citing 171188
sk 171181
▁Stud 171148
▁Wa 171137
▁Mount 171095
▁chicken 171066
35 171065
▁cam 171049
ension 171048
▁Brisbane 171035
hot 171015
▁blind 171008
usted 170973
▁participants 170972
▁sett 170918
▁Festival 170904
▁fault 170898
▁Lat 170884
▁Floyd 170850
▁Roman 170799
arent 170732
▁soul 170731
iple 170726
▁Head 170701
▁journal 170694
▁Step 170677
arn 170597
itary 170487
▁Princess 170480
▁Mi 170461
▁Wars 170377
▁Rio 170308
▁beer 170286
▁absence 170251
▁Dave 170204
inct 170188
cript 170187
▁Mus 170177
▁Major 170138
▁Craig 170113
▁Dor 170113
▁A. 170070
! 170001
▁Ted 169954
▁overnight 169868
▁pleased 169859
ervation 169858
nic 169848
▁innings 169771
▁extraordinary 169754
uter 169746
▁Wild 169725
zer 169667
▁reduction 169666
▁bin 169659
iron 169638
▁calc 169619
▁shadow 169608
▁Sean 169589
▁DC 169540
▁Alan 169506
▁avail 169465
▁welfare 169404
▁native 169391
die 169387
pper 169369
▁explore 169282
▁towns 169280
▁Welsh 169178
IA 169134
▁WA 169090
▁forth 169075
▁tennis 169059
▁liked 169041
▁Science 169019
▁ages 169018
▁grass 168993
▁dates 168986
▁switch 168984
▁prem 168981
▁revolution 168963
▁stages 168960
▁combination 168933
▁euro 168871
▁Following 168861
FC 168734
▁quit 168691
▁campus 168662
ardo 168644
▁Oct. 168628
urd 168625
▁breaks 168604
week 168538
▁tal 168521
▁latter 168511
▁aims 168482
▁winners 168481
▁phys 168400
▁detained 168393
▁overse 168387
lock 168386
▁Tre 168342
▁Oxford 168246
ication 168200
▁mins 168129
▁packed 168117
▁Dutch 168049
▁blamed 168044
▁guest 168036
▁Tal 168030
▁Som 168011
anies 167979
eding 167974
▁tragedy 167951
inson 167929
▁dismiss 167927
▁honour 167912
▁ITV 167896
▁resign 167891
▁iP 167829
▁Kennedy 167822
▁dying 167700
▁emphas 167691
▁Hart 167674
▁celebrated 167651
▁Gordon 167598
▁Society 167583
▁Music 167556
▁Allen 167553
▁reward 167531
standing 167517
▁spell 167517
▁sons 167439
▁relevant 167403
▁swing 167392
▁Given 167368
▁luck 167354
▁Fi 167352
▁overt 167351
▁shall 167344
▁69 167269
▁arg 167196
ubb 167137
▁ener 167100
▁Maria 167068
▁Community 167049
ques 167046
▁Sar 167012
▁dish 166996
▁nobody 166965
pat 166935
vision 166884
isl 166827
▁funded 166810
▁bowl 166797
▁slowly 166769
▁Pence 166739
▁diversity 166703
▁prominent 166673
och 166602
uals 166548
▁Special 166545
▁Olympics 166485
▁classes 166468
▁quarterback 166436
▁1999 166430
▁suggesting 166427
arter 166409
▁buyers 166366
▁passes 166366
ika 166312
▁MS 166311
▁Az 166164
ype 166152
utor 166149
▁opens 166105
▁savings 166049
▁77 166027
▁hes 165902
▁plac 165884
▁uncertainty 165853
▁backs 165838
▁clim 165830
▁Gill 165821
▁promises 165768
eta 165759
▁Evans 165756
▁excellent 165745
▁ped 165688
▁hun 165658
▁sustain 165494
▁76 165424
igr 165398
▁reference 165296
,0 165268
:4 165217
▁Ret 165209
action 165143
▁deadline 165129
▁defender 165082
▁departure 165072
▁74 165021
▁Mother 164812
▁kiss 164796
▁Dallas 164744
▁championship 164680
▁reducing 164658
EC 164656
▁CB 164654
airs 164562
▁chemical 164515
▁childhood 164495
▁rapid 164430
ounts 164404
▁atmosphere 164398
▁Sometimes 164395
▁tag 164389
▁laugh 164324
▁undert 164324
▁cloud 164291
▁Tokyo 164271
▁finger 163944
▁afraid 163933
ET 163833
enses 163818
▁blo 163815
▁hist 163810
▁steel 163799
▁Nov. 163767
▁gather 163756
▁IT 163679
▁welcomed 163638
▁unprecedented 163537
▁stunning 163504
▁dressed 163473
▁chaos 163463
▁odds 163456
ooth 163373
▁McD 163322
▁Diego 163205
▁expansion 163184
▁sparked 163147
fits 163142
▁politic 163128
▁Pri 163094
rier 163082
▁delayed 163077
▁loud 163049
▁Dec. 163010
▁jumped 162987
▁underst 162877
ecurity 162874
aver 162841
▁therapy 162765
urb 162764
▁Inc. 162763
▁rul 162753
▁metal 162744
▁campaigns 162705
abe 162652
▁elderly 162649
▁doub 162604
▁manufacturing 162565
▁owns 162516
▁mini 162504
▁Read 162503
▁refugee 162448
▁tent 162365
▁Equ 162354
▁legacy 162336
▁routine 162302
▁Fa 162249
▁questioned 162223
▁improving 162208
▁pose 162188
▁tip 162115
▁Atlanta 162112
▁Pac 162103
▁harassment 162100
zo 162043
▁canc 162031
̃ 161992
▁crazy 161971
▁conven 161960
▁Thank 161930
▁medicine 161859
▁termin 161859
▁tweets 161851
▁knife 161832
▁pure 161646
▁Francis 161638
ulations 161588
▁hardly 161569
▁awareness 161553
▁AL 161528
▁lifted 161483
▁Leg 161416
enter 161371
icip 161349
▁popul 161338
▁bud 161299
▁realise 161267
▁ski 161260
▁nights 161250
▁acknowledged 161216
▁fantastic 161210
lee 161208
▁Corp 161207
▁holidays 161165
▁Hon 161156
▁stone 161156
▁meals 161132
▁Mos 161060
▁Roberts 161056
oning 161019
▁alt 161013
▁conversations 160961
▁Project 160902
▁gon 160900
▁Tam 160869
aba 160834
▁contro 160823
▁cancelled 160821
▁monitor 160814
▁Latin 160792
▁Ty 160789
▁forest 160760
▁predicted 160716
▁• 160666
▁represented 160649
▁Morning 160637
▁addressed 160633
▁supports 160633
aya 160618
▁diseases 160618
▁Town 160606
▁reun 160555
▁ocean 160513
▁babies 160481
▁depth 160479
▁Nik 160461
▁crown 160402
▁cong 160358
+ 160318
ovic 160240
▁NASA 160228
▁trains 160209
AM 160207
▁Catholic 160173
▁Son 160133
▁pill 160123
▁mile 159944
acher 159928
umm 159927
ello 159875
▁scr 159863
▁Storm 159825
▁unlike 159798
▁specifically 159792
▁eth 159788
▁Rand 159736
▁Nov 159670
▁Lisa 159626
▁urgent 159576
▁performances 159564
▁thick 159513
olo 159454
▁rot 159404
▁gam 159296
▁factory 159284
▁passion 159281
▁featuring 159266
▁shame 159240
▁bottle 159234
imb 159189
law 159184
alle 159130
▁Intern 159020
ington 158906
▁posed 158900
arp 158890
▁collabor 158886
aught 158861
▁elements 158858
▁Liberal 158809
▁executives 158773
rators 158768
▁controls 158747
▁proceed 158693
uty 158678
▁performing 158659
▁pollution 158618
long 158604
▁fitness 158583
▁legisl 158578
▁contained 158488
▁yield 158482
▁mountain 158478
ji 158471
▁Pennsylvania 158449
▁grade 158377
▁Pass 158373
▁Cambridge 158357
▁cart 158342
anne 158301
▁answers 158296
oub 158254
▁Kent 158204
▁Without 158136
▁hotels 158129
ressive 158096
▁Cur 158090
▁interviews 158030
▁Ban 158007
echn 158000
▁Leicester 157995
▁striking 157989
raph 157947
icing 157920
▁stolen 157912
▁requests 157899
▁necess 157848
▁kicked 157846
▁Ky 157802
▁Wi 157793
▁COVID 157790
pass 157776
▁bread 157700
▁labour 157646
▁noticed 157638
▁extension 157545
▁Spe 157512
▁Hunt 157488
▁95 157414
▁Guard 157412
▁brothers 157401
▁Russell 157382
icking 157380
▁Coll 157376
▁demanding 157343
wear 157339
▁register 157333
▁ber 157218
▁loves 157196
▁proof 157196
▁Make 157178
▁rapidly 157144
▁perspective 157140
iley 157100
▁publ 157051
▁Barr 157006
▁Trade 156954
▁occasion 156915
ints 156896
▁contacted 156825
▁Ep 156778
▁authors 156774
▁partly 156755
elli 156743
▁Ext 156715
▁expecting 156710
unction 156698
▁involve 156698
hens 156685
▁sed 156627
▁Hold 156589
▁concent 156579
▁Americ 156578
▁regulation 156565
▁wanting 156565
▁Luke 156540
▁Way 156537
▁praised 156532
▁obtained 156530
▁Philip 156509
▁Atlantic 156470
▁les 156424
▁venue 156418
▁maker 156408
hetic 156350
▁broader 156342
▁communication 156338
▁nationwide 156337
ocation 156303
onavirus 156290
▁beaten 156276
▁bags 156226
▁Ay 156183
uled 156101
▁silver 156069
▁Bernie 156065
▁vers 156052
▁eld 156046
▁bra 156013
:00 155995
▁forever 155995
▁install 155964
icy 155943
▁communications 155902
▁Si 155885
▁print 155880
▁landed 155878
▁creation 155838
▁Colorado 155827
▁ranked 155774
▁badly 155769
cies 155766
▁homeless 155719
▁titles 155707
▁sustainable 155656
.com/ 155634
▁Newcastle 155605
▁consistent 155546
▁heav 155511
▁Boeing 155506
▁neighborhood 155479
▁GB 155466
▁announ 155444
rees 155420
▁SA 155373
ources 155365
▁defended 155365
▁Card 155352
▁Hal 155343
▁amounts 155342
van 155311
▁designer 155223
isions 155202
▁crude 155154
▁differences 155091
maker 155068
▁frame 155052
▁uncon 155002
▁61 154955
▁immune 154919
ulating 154897
ocr 154892
▁extensive 154850
▁grab 154686
▁hous 154622
▁metres 154614
▁stem 154599
▁electricity 154584
▁bike 154581
inks 154530
▁wages 154510
▁cyber 154488
▁Gi 154474
▁coaches 154466
▁outrage 154463
▁1.2 154446
▁Minnesota 154442
▁Merkel 154432
pool 154354
omer 154352
▁burst 154232
▁complicated 154162
▁2.5 154142
▁useful 154139
▁Whether 154128
▁frequently 154127
iano 154121
▁mist 154109
▁transform 154077
▁survived 154061
wich 154044
aria 154009
▁exhib 154003
rant 154001
:0 153996
▁constant 153902
▁Ki 153891
▁Bond 153888
▁isolation 153885
▁insist 153879
▁producers 153866
arest 153851
▁vacc 153840
▁Fo 153839
▁Arch 153818
iang 153794
▁Fif 153756
icious 153673
▁covering 153628
▁unfair 153573
uits 153502
▁indicated 153488
ING 153467
burn 153452
▁constit 153445
▁emerging 153442
▁L.A. 153441
▁pleaded 153431
▁disappointed 153399
▁storage 153359
rench 153349
▁attacking 153341
▁depression 153332
▁element 153330
▁devastating 153317
▁advertising 153305
▁entertainment 153279
▁Later 153270
▁sle 153236
▁crowds 153224
▁Price 153195
agu 153188
ground 153163
lood 153155
▁height 153128
▁Jac 153126
▁rush 153119
▁Jan. 153101
▁spokes 153087
▁ST 153083
▁prep 153045
▁Cohen 153009
▁demonst 152914
olution 152913
eled 152912
▁5,000 152907
▁consecutive 152865
▁tourism 152809
▁rarely 152800
▁killer 152775
▁assessment 152759
▁Jul 152729
cont 152717
▁Kl 152699
▁franchise 152683
inese 152658
EL 152652
▁CA 152630
▁Abd 152574
▁Mot 152549
▁shoes 152548
▁THE 152540
lled 152518
▁investments 152511
▁Gard 152501
▁saf 152474
▁Alabama 152463
mission 152445
▁moral 152428
rating 152410
▁S. 152396
▁Taiwan 152380
▁Spring 152308
▁literally 152301
▁monitoring 152253
▁salt 152138
▁Bern 152103
ags 152048
▁Manhattan 152039
ois 152019
▁Rad 152018
▁relative 151988
▁lady 151942
▁fundamental 151936
▁Der 151912
▁toe 151873
rents 151872
,5 151781
▁custom 151767
▁paint 151752
vere 151696
▁historical 151613
▁disapp 151487
▁Capital 151463
▁mos 151457
▁78 151452
▁Affairs 151451
▁joke 151420
osis 151374
▁conspiracy 151368
▁awarded 151346
▁daughters 151292
yle 151235
▁personally 151205
icts 151186
▁nav 151164
▁Bad 151085
▁windows 151069
iary 151022
itiz 150992
▁Eastern 150940
▁elite 150922
▁assum 150802
▁Hills 150751
▁mph 150749
▁parking 150714
▁applications 150684
▁teach 150679
▁Fore 150669
▁constantly 150630
anges 150608
▁hide 150557
▁balls 150541
▁battery 150536
▁71 150502
▁73 150492
asted 150442
▁fer 150433
▁collected 150342
▁illust 150332
▁Luc 150316
▁Laura 150271
▁relax 150236
▁Control 150221
▁mic 150107
▁Jacob 150069
▁intr 150030
▁Civil 150000
hill 149989
▁mothers 149954
estic 149944
▁guarantee 149940
▁salary 149928
▁cos 149887
▁plate 149852
urity 149840
▁sits 149839
▁capture 149827
▁tun 149815
▁error 149762
▁recognition 149713
▁U.N. 149570
▁progressive 149541
▁caution 149531
wing 149529
ilies 149491
▁Rome 149489
▁Leader 149467
▁strengthen 149419
osa 149398
▁updated 149369
una 149346
▁pig 149340
▁feelings 149331
ecially 149308
agh 149293
▁Perth 149279
▁prosecutor 149229
▁convinced 149224
▁butter 149138
▁Indeed 149085
mad 149070
iller 149061
joy 149057
break 149032
▁Gil 148964
▁Palestinian 148908
▁Administration 148907
▁colle 148869
▁Jennifer 148853
▁burning 148849
EO 148822
OT 148821
▁withdraw 148807
onom 148723
▁ancient 148700
▁Angel 148699
idi 148684
face 148643
▁choices 148612
▁orig 148606
ressing 148558
aire 148497
▁resulted 148496
▁Fal 148457
▁trigger 148396
▁midfielder 148366
▁upper 148351
▁Singapore 148341
▁sustained 148337
PA 148321
cott 148289
orge 148287
▁Ak 148262
▁engagement 148237
▁detect 148227
thy 148202
▁Stewart 148180
▁raw 148154
lon 148093
▁Aud 148092
▁Sudan 148077
athy 148053
▁requirements 147999
▁label 147997
▁Modi 147976
▁Aff 147964
▁escal 147956
▁destroy 147949
▁Development 147948
hered 147944
ortun 147907
oints 147895
▁witnesses 147888
▁cro 147880
▁rounds 147858
▁sudden 147768
cts 147745
oria 147726
▁NATO 147679
▁procedure 147661
▁borrow 147626
▁IN 147617
▁settle 147477
▁reve 147476
▁abandoned 147446
▁equally 147442
▁everywhere 147421
▁D.C. 147419
▁Mitchell 147416
▁caps 147413
ourse 147400
▁Carter 147395
ups 147385
▁Tesla 147353
▁weekly 147342
▁thousand 147304
▁Vis 147285
▁fatal 147232
▁Fle 147194
▁recommended 147185
▁encouraging 147179
▁Ah 147154
gged 147151
▁controversy 147132
▁teaching 147109
▁diplomatic 147089
▁loose 147068
▁Cop 147067
▁universities 147054
▁Toronto 147053
▁Pelosi 147046
▁Election 147019
box 146988
▁settled 146969
▁wet 146965
▁hired 146897
▁Mars 146889
▁craft 146887
▁drag 146877
▁deny 146833
▁diverse 146794
▁iconic 146761
▁Iraqi 146732
▁arts 146732
▁exposure 146659
▁vot 146638
duction 146616
▁sectors 146615
▁auction 146515
▁Sav 146505
▁urge 146485
▁hosted 146478
.A. 146475
▁fare 146470
▁Michelle 146467
▁discrimination 146439
keep 146423
▁centres 146418
▁Anne 146398
▁taught 146372
▁memories 146338
▁bon 146334
▁Austral 146287
▁anybody 146247
rect 146232
overs 146216
pir 146215
rang 146215
▁fairly 146207
▁wel 146188
▁intervention 146183
look 146166
▁necessarily 146080
lim 146078
▁criticised 146076
oons 146048
▁Afghan 146048
▁S&P 145968
▁wounded 145945
▁perpet 145920
▁filmed 145917
▁Ku 145914
conom 145871
▁enormous 145861
▁Canberra 145825
▁sexually 145797
▁Resp 145727
▁funeral 145685
▁ambassador 145667
▁ballots 145651
▁120 145589
▁somewhere 145586
▁lin 145579
▁1980s 145505
▁stressed 145483
▁scared 145481
▁Swiss 145381
▁trips 145349
▁implement 145304
▁lad 145282
▁Taliban 145252
▁waves 145247
aser 145201
▁Poland 145184
▁feat 145139
▁god 145092
▁readers 145079
▁Aaron 145075
▁realised 145062
▁jew 145056
▁gross 145034
▁Dow 144974
▁serves 144964
▁protecting 144944
▁exper 144920
▁Cas 144919
▁safely 144872
▁Mand 144827
▁conclusion 144805
▁Financial 144803
▁copy 144784
▁McL 144781
▁shed 144775
▁drinks 144769
weet 144721
▁petition 144667
▁tact 144647
▁medic 144629
▁divided 144610
backs 144567
▁May. 144509
rich 144508
erved 144482
fied 144464
lett 144446
ocratic 144387
▁signal 144369
▁detention 144348
▁perfectly 144311
▁chronic 144274
▁unexpected 144269
▁bump 144257
▁demanded 144252
▁mode 144235
▁Award 144201
▁mater 144199
▁Count 144161
▁GDP 144119
▁Adelaide 144107
▁platforms 144082
▁drawing 144080
awa 144076
▁lessons 144068
▁pit 144064
oz 144062
▁seized 144034
▁opponent 144022
▁Brooklyn 144013
▁mut 143951
▁involvement 143907
▁seventh 143907
▁snap 143904
▁Calif 143836
mitted 143825
▁spots 143776
▁equity 143739
▁Tories 143708
gence 143707
chi 143704
▁category 143681
▁remark 143671
TS 143617
▁dominated 143552
▁Staff 143510
oric 143470
▁Playing 143467
asters 143465
istics 143433
minist 143423
▁decent 143416
▁wound 143369
▁cy 143344
▁subsid 143332
comm 143302
▁employers 143282
rod 143280
bes 143254
ument 143247
▁1997 143236
▁1990s 143230
▁anyway 143227
▁therap 143135
▁contribute 143131
▁pump 143121
▁reads 143118
▁Soviet 143102
▁arriving 143094
▁trump 143070
▁compensation 143052
▁camps 142999
emen 142968
▁Mun 142892
▁Internet 142886
icate 142885
▁Grant 142829
▁efficient 142807
iqu 142722
▁Gulf 142702
▁Uk 142690
▁criticized 142668
▁hopeful 142659
▁Wind 142625
▁Sil 142615
▁clothing 142613
▁Moon 142594
▁adapt 142572
▁meanwhile 142569
▁recall 142558
▁Kr 142461
▁defending 142406
▁Officer 142370
vation 142352
▁quant 142340
.co.uk 142323
▁dies 142321
odies 142248
▁relatives 142200
erry 142184
▁polling 142164
▁directors 142086
▁Lyn 142070
▁pages 142018
▁syn 141924
▁proc 141903
▁narrative 141875
▁admits 141863
▁Westminster 141756
boy 141721
▁reck 141714
99 141677
▁promot 141643
▁stability 141625
▁landing 141511
▁pound 141493
▁papers 141446
agg 141428
▁hig 141407
▁cru 141397
▁Stat 141395
▁possession 141345
▁parks 141330
eared 141329
▁Cong 141321
ener 141287
▁tit 141264
FL 141260
▁foods 141259
▁Charl 141187
▁electoral 141037
oti 141021
▁procedures 141006
▁merely 140951
▁foundation 140946
osi 140940
▁Direct 140910
▁delays 140909
▁whis 140892
▁Est 140857
▁basketball 140837
onna 140827
▁Warner 140818
▁FC 140777
▁Governor 140765
ycle 140756
uke 140735
▁oh 140709
▁appointment 140702
▁Bull 140676
bow 140620
isters 140615
▁walks 140605
▁hidden 140555
iated 140549
▁C. 140547
enny 140541
▁handful 140512
▁lovely 140500
▁blast 140492
▁urging 140479
▁strain 140395
▁carefully 140393
ench 140268
▁gathering 140268
▁tired 140263
▁laun 140256
▁industries 140179
80 140142
▁Collins 140134
▁Bloomberg 140097
▁united 140086
PR 140076
▁cooking 140070
▁throwing 140002
hall 139990
▁apolog 139936
▁bell 139931
▁breach 139907
▁pattern 139894
▁wheel 139888
▁Oregon 139845
▁estimate 139825
ige 139819
▁Independent 139811
fts 139765
▁pursue 139764
▁Exp 139756
▁Albert 139738
▁Andre 139729
▁approached 139721
▁smooth 139698
▁deficit 139655
▁successfully 139641
▁700 139599
▁PC 139494
oration 139475
▁protective 139450
▁recording 139447
▁describes 139404
▁Report 139396
▁sne 139381
▁tast 139380
▁moderate 139355
▁1998 139343
▁surveillance 139326
▁noise 139322
▁pregnancy 139257
arc 139228
▁exceed 139218
▁ax 139194
▁typ 139170
▁fields 139101
▁halt 139091
▁excess 139075
▁Tit 138992
▁Wisconsin 138980
▁egg 138951
▁celebrity 138931
▁shutdown 138911
▁resc 138884
▁suspects 138865
▁Rom 138853
orial 138815
▁banking 138779
oser 138778
▁Roger 138750
essed 138745
▁smile 138743
▁flash 138732
▁je 138689
▁attending 138645
▁dro 138637
rien 138598
▁symbol 138596
▁covers 138582
▁auto 138501
▁bac 138439
▁NA 138409
oko 138403
redit 138390
▁civilians 138380
edy 138338
eness 138337
60 138316
▁auth 138293
▁representative 138293
▁Chap 138290
▁Harvey 138280
▁Philadelphia 138252
▁Mas 138245
▁renew 138195
umes 138194
▁margin 138178
oop 138138
▁resume 138137
▁Murphy 138135
vant 138124
▁Vietnam 138086
▁Light 138057
▁silence 138034
▁imper 138032
▁Coronavirus 138031
▁Child 138003
▁baseball 137989
▁Mourinho 137954
▁sufficient 137912
▁nose 137862
uments 137830
▁Sad 137821
▁voices 137814
▁Thompson 137807
hal 137757
-yard 137751
▁cleared 137721
▁Pope 137712
▁enjoying 137690
▁Europ 137669
▁inner 137563
▁employed 137558
▁tar 137529
▁landscape 137516
col 137515
▁mur 137474
oni 137473
▁proven 137455
▁ensuring 137439
▁careful 137435
▁appearances 137414
▁trillion 137404
▁Fel 137306
▁ult 137301
▁fishing 137264
itis 137232
▁Watson 137232
mine 137173
▁fixed 137160
▁column 137151
▁promising 137146
▁brutal 137138
▁generations 137132
▁providers 137124
▁specialist 137083
▁glo 137081
▁swim 137069
▁tap 137026
▁typical 136978
▁Adv 136963
▁Birmingham 136952
▁basically 136951
ulous 136941
▁rating 136906
▁awa 136905
▁eggs 136882
▁complained 136846
▁parliamentary 136807
pts 136768
uded 136749
▁invent 136736
▁ships 136730
▁ET 136705
▁Robinson 136635
▁oldest 136563
▁organisations 136521
▁plat 136504
▁pledged 136481
▁briefing 136476
▁Row 136473
▁retailers 136466
rams 136438
▁E. 136422
dem 136411
▁divorce 136405
▁viewed 136376
-s 136374
▁AFL 136339
▁Econom 136308
▁Singh 136268
▁distrib 136210
▁legend 136162
▁assert 136120
▁Much 136102
▁conn 136065
ardy 136060
▁alter 136059
▁nurse 135972
▁bold 135955
▁50,000 135947
retary 135928
▁dim 135912
uries 135868
▁surely 135839
▁Thurs 135819
eli 135816
▁mistakes 135815
▁eligible 135807
▁Ron 135797
OC 135739
▁flaw 135738
▁exhibition 135654
▁pul 135653
▁scan 135651
▁planes 135622
▁torn 135568
▁gig 135522
▁blocks 135520
▁rushed 135457
avy 135441
▁Seven 135437
▁warnings 135420
▁accusations 135411
▁McDonald 135402
▁liquid 135380
asse 135361
▁peaceful 135305
▁horror 135296
ais 135294
▁Howard 135278
▁essentially 135258
▁une 135223
▁stance 135221
▁Venezuela 135153
▁replacement 135129
▁Hand 135114
▁Kansas 135093
▁Key 135080
▁WHO 135049
▁uniform 135009
eping 134998
▁migrant 134970
itution 134946
idents 134932
ext 134925
Le 134919
▁phot 134909
▁theatre 134909
▁â 134898
▁swimming 134873
▁Hur 134856
equ 134799
-day 134785
▁Executive 134756
▁Libya 134754
▁Anna 134708
▁enable 134687
▁congressional 134672
▁Put 134643
rage 134614
] 134586
hum 134585
▁regret 134578
avirus 134554
▁affordable 134534
uated 134510
▁Kingdom 134510
▁distract 134476
ifies 134437
uccess 134409
▁secured 134372
▁contains 134339
▁substantial 134293
▁conscious 134289
▁principle 134288
▁20,000 134233
▁indust 134199
▁premium 134197
▁Kyle 134169
uv 134094
▁bust 134056
▁appearing 134041
▁Around 134032
▁Hen 134023
orous 134014
▁grateful 133984
riend 133976
@ 133945
▁remarkable 133912
▁shocking 133905
▁boo 133876
▁humanitarian 133852
▁mob 133850
▁pron 133846
usting 133840
▁batt 133805
▁hopefully 133782
anny 133771
idel 133754
ayed 133750
▁Airlines 133720
uer 133702
▁colleague 133676
▁Jimmy 133651
▁hub 133608
▁intro 133606
umped 133592
▁fem 133584
▁expanded 133556
▁highlight 133535
▁Being 133531
▁constitutional 133508
▁lifestyle 133463
omi 133430
ante 133411
▁79 133405
agement 133388
▁Netanyahu 133371
▁Officials 133367
▁cruise 133365
rupt 133296
▁terrorists 133285
▁invol 133251
▁Que 133250
▁couples 133250
▁longest 133236
▁households 133195
oping 133185
PS 133182
▁Cre 133181
▁deserve 133163
antic 133133
▁pray 133062
ensions 133045
▁targeting 133042
▁politician 133019
▁noting 133006
ete 132956
gun 132935
▁rolled 132928
▁Field 132913
attle 132900
▁selected 132858
▁poison 132854
▁ranks 132851
▁mand 132821
▁encounter 132814
▁breakfast 132813
▁Management 132806
▁sect 132798
▁branch 132794
ede 132793
▁dialogue 132747
▁firing 132727
▁maintained 132712
▁birds 132695
▁representing 132685
ologists 132669
▁volunteers 132663
▁Assad 132623
▁writers 132610
▁1.1 132602
▁Would 132584
▁producing 132581
▁Clark 132575
otal 132553
▁theat 132513
▁gal 132399
▁academic 132389
▁unions 132347
▁Organization 132340
inity 132335
▁cope 132326
▁Ut 132322
▁Microsoft 132303
▁Virgin 132297
▁Swedish 132282
▁listening 132270
▁headquarters 132269
vet 132193
overed 132119
▁Vir 131955
aste 131908
▁protein 131896
▁absolute 131888
▁Kenya 131887
▁3,000 131831
▁champ 131828
▁stir 131828
▁Lin 131764
▁sole 131755
▁tack 131731
night 131726
▁arguing 131721
icient 131710
ikh 131693
▁intent 131657
orry 131647
▁rear 131607
uma 131603
erse 131592
▁relation 131584
▁Cro 131564
▁W. 131557
▁explosion 131521
▁fate 131512
▁distinct 131469
▁adopt 131456
▁clar 131444
▁Invest 131442
▁Var 131428
▁consist 131386
force 131365
rael 131355
▁Broad 131348
▁Bus 131324
▁solve 131304
gic 131283
▁Bruce 131277
▁financ 131276
▁resolve 131256
ocking 131254
▁artic 131243
▁permission 131163
▁exception 131141
▁cul 131129
▁spreading 131123
▁forcing 131107
▁collective 131098
▁GM 131088
▁equivalent 131042
▁anim 131035
▁Secret 130991
emi 130988
▁convention 130984
ao 130926
writ 130921
▁Cour 130911
▁agre 130898
▁Soc 130897
▁Bon 130860
olf 130857
▁discovery 130838
▁association 130831
▁Reserve 130780
▁insists 130752
▁gall 130720
▁eighth 130715
▁contribution 130713
▁Perry 130688
icken 130678
▁seeks 130648
▁somehow 130624
▁spir 130620
▁personality 130600
eps 130594
▁Emma 130544
▁Hum 130536
ashes 130505
▁stops 130439
▁Rams 130421
jan 130387
▁provision 130360
▁Hunter 130347
▁wars 130338
▁Han 130320
▁singing 130285
▁testimony 130278
▁religion 130268
▁1970s 130267
▁Alp 130245
▁fel 130205
▁Christopher 130183
▁1.3 130152
▁membership 130120
▁cheese 130117
▁participate 130016
anta 129981
▁publication 129975
chie 129938
▁pleas 129933
▁valid 129920
eland 129896
▁Tex 129886
▁attitude 129860
▁ears 129836
▁beds 129827
oir 129825
PI 129808
▁neutral 129805
▁perce 129799
▁burden 129779
▁Rugby 129775
▁attempting 129769
▁Tu 129720
jects 129702
▁succ 129609
▁disorder 129601
▁manip 129573
▁insur 129570
haw 129511
▁Never 129508
BI 129470
.50 129405
▁resist 129399
90 129395
▁Dean 129389
▁Snow 129354
▁resistance 129314
▁monthly 129289
▁improvement 129274
▁export 129270
▁virtually 129176
▁donations 129170
▁politically 129161
▁Penn 129144
▁hook 129088
▁Abu 129076
▁Barn 129017
▁scenario 129016
irty 129012
▁economies 128981
icide 128980
nam 128978
ceed 128972
andal 128963
▁Charlotte 128950
▁cow 128937
▁Economic 128935
▁Cher 128916
▁experiment 128892
▁panic 128875
▁initi 128851
▁Imp 128850
road 128814
▁Sab 128806
AF 128793
▁Spurs 128721
▁Hi 128704
▁dining 128700
▁weird 128676
iga 128661
▁independ 128640
uru 128617
▁heal 128616
▁vent 128612
▁Maryland 128551
▁volume 128548
▁Kentucky 128545
▁wealthy 128514
▁plea 128489
pet 128462
▁Non 128453
▁warming 128443
▁Nove 128437
▁toxic 128435
▁Speaker 128414
▁Sing 128405
▁Film 128392
▁Morris 128391
.org 128357
orate 128339
▁Campbell 128334
▁overd 128331
▁McConnell 128325
▁shelter 128303
▁fighter 128272
▁airlines 128258
▁asset 128228
▁dust 128217
hop 128211
▁agreements 128199
town 128153
▁weigh 128137
▁headlines 128135
▁tips 128116
▁Pu 128081
inis 128079
▁Program 128055
▁genetic 128024
idal 128017
▁execut 127979
▁scrutiny 127875
▁deployed 127854
▁surprising 127841
▁anymore 127818
▁gene 127802
▁cab 127783
lobal 127779
▁establishment 127757
iri 127730
▁Abbott 127723
▁tourist 127723
▁exports 127683
▁Gra 127668
▁Hampshire 127664
▁Sex 127577
▁closure 127552
▁Brex 127499
▁fet 127479
▁feared 127475
▁picking 127382
▁rank 127380
▁buck 127359
▁wash 127353
issions 127320
▁Pad 127313
▁Set 127302
▁seemingly 127283
▁regardless 127263
utch 127226
ocated 127224
▁situations 127183
epend 127177
▁chocolate 127119
▁hunt 127076
▁gear 127071
▁recognise 127070
-m 127040
▁Telegraph 127024
▁hire 127011
▁genuine 126994
▁Duchess 126936
▁liv 126923
▁Et 126918
▁acted 126878
▁Assembly 126857
rave 126814
ittee 126790
▁drone 126774
▁stamp 126760
▁pod 126747
▁somewhat 126747
▁punch 126736
▁Conference 126714
▁centers 126693
▁Until 126690
▁Emp 126669
▁worn 126654
riage 126635
▁Holly 126612
▁Roll 126608
▁promoting 126605
▁Dou 126601
▁grey 126567
▁minds 126567
▁Wel 126520
▁gut 126478
▁Woman 126458
▁celebration 126448
▁ordinary 126433
▁pict 126425
oves 126419
▁Baker 126419
owski 126379
▁Detroit 126350
▁resigned 126338
▁outdoor 126313
▁euros 126213
▁filming 126210
▁Slo 126209
▁concrete 126209
▁veget 126164
▁respectively 126147
▁helicopter 126133
ario 126110
▁Capitol 126108
▁88 126096
▁marijuana 126095
▁prisoners 126089
▁Lou 126072
▁Chancellor 126028
mates 126024
▁disrupt 126019
▁hem 126019
▁tragic 126018
▁Farm 125993
itable 125905
[ 125821
▁Jer 125821
▁Season 125815
▁Oklahoma 125768
▁expression 125736
▁Hun 125725
▁youngest 125697
▁Pas 125660
▁tale 125657
▁Network 125653
phone 125599
▁Oliver 125561
▁equality 125561
itate 125558
zen 125543
▁Deputy 125542
▁impose 125523
▁cm 125520
J. 125516
▁physically 125516
▁soil 125498
▁cake 125492
▁flew 125460
▁speculation 125456
iche 125428
star 125427
▁speaker 125390
▁Through 125372
CC 125358
resp 125340
▁Fall 125333
▁vocal 125326
▁Cleveland 125318
pers 125307
▁Sin 125304
▁Hot 125273
▁Sep 125264
▁Wright 125263
▁Woods 125262
igate 125261
▁menu 125233
▁defined 125161
▁Feb. 125129
▁obst 125106
acey 125092
▁Dick 125052
fare 125037
▁Researchers 125037
▁Members 124997
▁Dal 124983
▁militants 124965
▁Prov 124961
▁ignored 124958
▁momentum 124936
▁Mem 124918
▁overcome 124904
▁anticip 124898
▁Jong 124883
▁Utah 124836
▁innovation 124831
zi 124825
▁Bart 124814
▁Gray 124806
▁retire 124801
▁prin 124761
▁practical 124751
▁CDC 124721
▁mortgage 124713
▁repeat 124708
▁appre 124660
▁exempt 124654
pton 124563
▁Vladimir 124561
▁suc 124519
▁Could 124515
berry 124491
▁Ald 124453
▁M. 124435
rah 124398
mons 124392
▁AR 124351
▁bod 124350
▁aspects 124342
▁ven 124332
▁shel 124316
▁scientist 124311
▁billions 124271
▁86 124270
▁flooding 124252
▁pupils 124235
▁approximately 124225
▁survival 124212
▁Bureau 124197
▁nervous 124190
▁alarm 124183
▁Stock 124182
▁outstanding 124181
▁Line 124177
▁consumption 124169
▁reasonable 124144
▁extr 124140
▁Pub 124134
▁lobby 124129
▁treatments 124126
▁compan 124095
▁Does 124078
▁Mic 124049
▁solo 124035
▁photograph 124025
▁teenage 124017
▁strip 123997
▁epic 123996
▁Clarke 123894
▁1996 123813
▁Fro 123798
▁Nort 123795
ridge 123775
▁observed 123766
▁grave 123758
▁Danny 123742
▁Cabinet 123719
▁Rub 123672
▁valuable 123656
▁Cuba 123622
iana 123580
▁rub 123566
▁Elect 123554
▁interact 123452
▁HIV 123441
▁engineering 123405
▁impe 123386
▁convers 123356
▁bats 123332
aley 123320
ographic 123304
▁Aug. 123300
▁Poll 123288
ifications 123274
▁intensive 123215
▁script 123215
▁Should 123205
▁Story 123203
▁uncertain 123182
▁Bah 123175
▁delivering 123173
▁presidents 123147
▁patrol 123130
life 123117
▁vaccines 123113
▁SP 123085
▁pra 123063
anks 123041
▁Switzerland 123039
dog 123035
▁kinds 123015
NC 123014
▁investor 123004
▁crashed 122990
cks 122978
▁1994 122974
▁Nazi 122967
▁sleeping 122958
▁crim 122953
▁Antonio 122944
▁medal 122941
▁Made 122939
mail 122928
▁compromise 122915
▁Deb 122914
▁Dead 122901
▁Trip 122900
▁representatives 122872
▁Cardiff 122859
▁inject 122847
liest 122831
enger 122811
▁rice 122803
▁kidn 122777
▁meets 122771
▁bloc 122765
fact 122747
▁till 122740
▁letting 122652
▁Samsung 122594
uz 122496
▁quoted 122450
▁requested 122432
▁NS 122431
▁diabetes 122399
▁Easter 122384
▁Kings 122370
▁Beat 122369
▁arr 122361
arat 122345
70 122335
▁boom 122317
:5 122291
umin 122256
▁screens 122238
▁pulling 122229
▁organised 122228
▁pic 122216
▁introduce 122189
▁horses 122172
▁Crime 122163
iffs 122133
month 122131
▁senators 122113
▁barg 122099
▁Avenue 122032
▁fame 122009
lected 122007
▁impl 121998
▁chang 121992
▁golden 121981
▁BJP 121947
▁Australians 121934
▁84 121932
▁duo 121862
xy 121860
▁scrap 121847
▁Supp 121825
▁fest 121825
▁photographs 121822
▁exclusive 121817
▁87 121793
▁Pompeo 121778
agan 121763
▁profess 121748
▁Ocean 121707
▁manag 121698
▁risen 121685
▁distribution 121626
▁hus 121573
▁ambitious 121572
▁Joshua 121524
▁defeated 121511
organ 121485
▁82 121469
pc 121459
▁processes 121417
▁interior 121379
erves 121318
▁Age 121316
▁explo 121305
▁Cav 121303
▁Nine 121302
▁knocked 121298
▁Fam 121293
▁gate 121273
aco 121192
▁epidemic 121165
▁diver 121147
▁casual 121127
▁Teh 121115
▁Say 121109
▁hanging 121103
▁investigated 121095
▁ine 121075
▁inning 121072
uction 121037
▁warns 121024
▁nominated 121015
▁steady 120978
▁rocket 120973
▁Rev 120942
▁complain 120933
▁Cru 120900
▁Edward 120881
▁Cho 120875
▁Rachel 120867
▁makers 120822
▁ownership 120761
▁sched 120724
▁1995 120723
▁vide 120714
▁Aw 120696
▁ree 120673
▁mining 120661
▁studied 120640
▁intens 120639
▁dropping 120610
▁assume 120607
▁smell 120605
▁smoking 120594
agram 120591
▁movements 120577
stop 120554
▁Authority 120526
▁divers 120515
▁cheaper 120496
▁accus 120486
▁Inn 120468
▁runner 120381
▁prosecut 120375
▁Huawei 120370
ception 120344
oving 120344
▁collapsed 120322
▁192 120303
▁dealt 120271
▁isolated 120259
▁resulting 120256
▁robust 120252
▁repair 120243
▁retain 120237
▁nod 120225
▁reign 120163
▁survivors 120142
▁visual 120142
▁generate 120119
▁Cast 120110
▁carries 120109
mith 120090
lass 120075
▁www. 120041
▁congress 120038
▁rolling 120012
▁chart 120004
▁deemed 119994
▁methods 119993
▁prompt 119990
▁qual 119951
▁magic 119928
▁venture 119912
ratic 119908
SP 119901
▁Everton 119872
▁Cov 119867
▁islands 119865
▁Found 119863
▁Vik 119851
rast 119830
▁fasc 119829
▁Bir 119828
▁Pack 119803
▁modest 119794
▁technologies 119787
▁offences 119782
▁duties 119779
icians 119776
▁Comey 119743
▁loving 119722
▁Kore 119720
▁Come 119673
▁opener 119670
▁creates 119652
pin 119650
▁clinic 119593
▁soccer 119577
▁glad 119563
▁item 119543
▁Feb 119542
▁System 119514
▁associate 119499
▁migration 119496
▁loyal 119489
▁veterans 119451
▁Protection 119437
agen 119417
▁climb 119400
▁Full 119391
▁ham 119387
active 119380
▁Merc 119362
ema 119358
▁visible 119343
▁machines 119333
▁Belgium 119326
▁crossing 119305
▁toler 119301
▁brave 119276
▁Lives 119241
▁Finally 119222
▁Alexand 119210
itals 119187
afe 119178
where 119143
▁Country 119142
▁plain 119118
▁reverse 119102
wind 119051
▁lifetime 119027
▁Tri 119017
▁smugg 119003
▁Kurdish 119001
ironment 118994
▁boxes 118864
▁lod 118863
▁conviction 118860
IR 118816
▁1990 118784
▁slight 118778
▁lect 118769
▁courage 118765
▁Chairman 118754
GO 118741
▁offense 118730
▁Lad 118698
▁prosecution 118690
▁Bru 118649
▁Baltimore 118590
▁flour 118587
▁sporting 118571
▁triumph 118465
▁nurses 118452
▁Netherlands 118429
umn 118390
▁opera 118378
▁dece 118327
▁posting 118300
▁regulatory 118281
▁grav 118276
usc 118273
▁researcher 118204
▁Phot 118203
▁vowed 118186
▁congrat 118143
▁charging 118113
▁domin 118084
▁restore 118070
▁fract 118064
▁1992 118053
▁Trib 117995
▁professionals 117995
▁Marine 117990
▁proportion 117984
▁inches 117983
▁filing 117977
▁Garden 117958
viously 117925
▁1.4 117921
▁Ven 117920
▁involves 117918
▁Sturgeon 117901
going 117885
▁Death 117882
▁everyday 117881
▁arguments 117803
▁Ry 117714
▁legally 117714
▁Blair 117646
▁Authorities 117633
▁recession 117610
▁periods 117596
▁Leon 117554
gas 117547
▁diagn 117522
▁holes 117513
▁wildlife 117482
▁bombs 117464
▁Sheriff 117459
▁ly 117451
▁painting 117407
▁Fact 117383
wart 117377
▁Policy 117373
▁shaped 117359
▁sessions 117346
▁trapped 117326
▁frag 117318
▁minim 117264
kel 117249
▁Epstein 117242
▁skill 117242
awn 117104
▁highlighted 117052
▁spray 117050
▁rebels 117014
▁occ 116989
▁Lions 116979
▁appl 116954
▁eager 116945
asons 116897
▁Cost 116878
▁Indiana 116866
▁Argentina 116841
▁rises 116834
▁unveiled 116798
▁Ok 116764
▁mild 116732
ucky 116715
▁pointing 116704
/20 116692
▁Pentagon 116660
▁tier 116636
▁Blues 116632
▁UC 116630
▁alliance 116627
verse 116623
▁Shar 116598
▁episodes 116588
▁mir 116584
ushing 116560
▁Ale 116552
▁bases 116512
▁Bos 116503
▁constitution 116503
▁competing 116502
friend 116499
OP 116492
▁trends 116478
100 116454
mel 116418
▁Ill 116405
▁Indonesia 116402
▁lip 116395
▁random 116394
▁quarters 116371
icated 116352
▁Nevada 116314
▁Yorkshire 116261
▁Angela 116225
▁Adams 116224
▁suspension 116224
▁travelled 116212
▁mac 116209
▁Sel 116191
▁outlets 116172
▁McM 116159
▁Constitution 116118
▁Austin 116073
▁Downing 116064
▁desk 116057
▁impressed 116027
angu 116024
▁removal 116018
▁warrant 115972
aped 115965
▁painful 115964
▁launching 115961
▁obtain 115955
▁delighted 115940
bell 115935
▁Krist 115927
▁bathroom 115914
▁pride 115882
▁cheer 115878
▁Maur 115872
▁treas 115856
▁Tax 115843
▁Bud 115836
vention 115807
▁curb 115793
▁edition 115782
▁rebel 115771
▁Reporter 115756
▁Lakers 115707
▁Bolton 115650
▁Action 115647
▁longtime 115617
▁Pear 115575
▁Margaret 115556
▁institution 115542
▁soldier 115525
▁revealing 115507
▁visa 115500
▁Oc 115465
▁Chan 115442
▁Dri 115428
▁cock 115418
▁Aug 115416
▁lic 115315
▁resignation 115307
imately 115293
▁stro 115271
uity 115243
▁Tower 115228
▁resol 115188
obb 115178
▁Dodgers 115173
esty 115142
▁junior 115128
▁clin 115127
▁cris 115126
▁Mack 115125
▁Brazilian 115121
▁praise 115099
urred 115077
** 115072
▁Bash 115062
▁Foot 114956
▁teeth 114947
▁Source 114931
▁challenged 114896
fast 114895
onnell 114843
▁attracted 114827
▁Diana 114811
▁Everything 114809
▁destruction 114790
▁prohib 114780
▁enemy 114773
▁coin 114770
▁pays 114760
▁bare 114735
ophob 114718
▁governing 114710
ogen 114708
ections 114692
▁indicate 114683
▁bone 114672
▁denies 114670
▁porn 114655
▁Satur 114641
▁Pete 114632
aza 114629
▁Hope 114611
▁Walk 114590
▁streak 114571
▁20th 114565
ulf 114550
▁searching 114537
▁Champ 114529
load 114527
▁Musk 114465
ipl 114431
▁Station 114431
▁Emer 114425
▁coaching 114406
▁comparison 114371
▁celebrating 114357
▁generated 114306
▁announcing 114291
▁recommendations 114272
▁briefly 114261
▁Jenn 114258
▁Mod 114249
▁occasions 114235
▁Morrison 114199
▁Corn 114173
ossible 114168
▁reviews 114143
ugs 114118
-foot 114113
▁judgment 114058
▁Bang 114044
▁unders 114025
▁electronic 114013
▁damaging 114010
▁Start 113954
rose 113945
▁vary 113940
▁surrounded 113903
▁Rail 113896
▁Ele 113864
▁Sha 113842
▁flowers 113834
▁Nicola 113816
▁kil 113806
▁Rex 113800
▁famil 113800
▁proceedings 113797
▁cancel 113766
▁Conservatives 113762
▁Wy 113757
▁wal 113738
▁stomach 113731
▁Arts 113710
▁Forest 113710
▁tables 113691
ource 113683
▁mit 113660
▁accurate 113659
▁Norway 113646
▁ash 113624
▁Massachusetts 113615
amy 113534
▁formally 113464
▁legislative 113389
▁Tel 113324
▁raises 113301
▁bitter 113300
▁Drug 113278
▁slip 113242
▁stroke 113230
▁crossed 113202
▁transmission 113196
▁locals 113176
▁Brady 113158
▁smartphone 113142
▁offs 113120
inations 113116
▁Lew 113114
venue 113093
onym 113062
▁riding 113055
abor 113044
▁unre 113015
▁fold 113003
▁realize 112951
▁Turner 112947
▁downtown 112908
▁Ot 112903
▁globe 112883
▁portion 112870
bridge 112840
iors 112827
▁destination 112762
▁Nancy 112752
▁yard 112744
▁deeper 112713
▁earning 112699
▁boot 112672
▁ID 112657
encing 112643
pay 112583
a. 112576
idency 112575
▁burned 112530
▁condemned 112513
ector 112511
▁Lane 112505
org 112473
▁Ukrainian 112423
erts 112377
▁focusing 112372
icket 112348
▁Bab 112327
jected 112307
▁Plus 112291
▁bonds 112259
▁publish 112173
▁Jews 112171
▁continent 112134
▁Fil 112132
▁impression 112101
borough 112084
▁sisters 112053
▁Mom 112042
▁lesson 112024
▁quar 112017
▁Dublin 111993
▁Cu 111959
▁ingredients 111958
▁View 111934
atively 111923
held 111922
▁Organ 111920
▁bott 111908
▁comprehensive 111903
aux 111898
▁stopping 111896
▁89 111883
▁waited 111878
▁struggles 111857
▁wrest 111851
▁Money 111849
▁83 111829
▁impacts 111814
ecute 111807
duced 111790
▁expenses 111759
▁primarily 111726
▁Hod 111645
uber 111633
▁heritage 111629
▁McI 111622
loyment 111565
arts 111550
▁screening 111528
alo 111510
▁tracking 111507
▁Review 111495
▁Sept 111490
▁Emily 111484
▁Od 111468
▁shareholders 111463
ecess 111438
▁trauma 111438
▁Tehran 111420
inging 111405
▁Winter 111398
▁dil 111352
▁missiles 111300
anche 111277
▁Barry 111253
▁disin 111226
▁Sussex 111206
▁PR 111194
▁Please 111194
▁toilet 111171
itness 111157
▁span 111147
▁Hurricane 111139
quir 111138
▁recommend 111109
▁Along 111097
▁presenter 111094
▁exch 111090
▁aspect 111086
▁Girl 111046
▁cruel 111027
mans 111020
▁shell 111018
▁Squ 111013
ieg 111000
▁arrests 110984
▁Jessica 110976
▁samples 110973
▁Kane 110950
▁buried 110932
▁output 110930
▁FILE 110887
adow 110886
▁F. 110872
▁Cy 110858
▁raid 110850
▁ultimate 110831
icism 110826
▁roots 110763
▁Bra 110750
▁Rah 110744
▁recognize 110733
ledge 110726
▁CNBC 110687
▁entitled 110679
▁Billy 110666
▁Hus 110654
isers 110639
▁assists 110599
▁estab 110532
▁SE 110488
▁Washing 110480
acies 110470
▁symp 110462
ospital 110461
azon 110421
roe 110418
hard 110417
▁subs 110394
▁recip 110378
▁ranging 110362
inction 110351
▁Technology 110321
osure 110303
▁Dist 110288
attered 110272
▁cri 110267
▁Kay 110204
ciation 110194
▁PHOTO 110191
olute 110188
▁sli 110140
▁districts 110130
▁lean 110106
ushed 110074
▁Shel 110051
▁advisers 110031
▁verdict 110024
▁hearts 110008
uten 110000
▁statistics 109992
IV 109986
market 109981
▁emerge 109959
▁sauce 109876
▁ignore 109859
▁dram 109844
▁beloved 109832
▁Unfortunately 109818
▁CH 109798
▁Ari 109794
▁bol 109781
▁triggered 109738
▁vs. 109734
▁Talk 109730
▁Intelligence 109718
▁Lock 109711
▁Qatar 109705
▁substance 109697
▁Pot 109650
▁D. 109561
▁mystery 109551
▁inspiration 109548
▁cannabis 109530
mouth 109529
▁highlights 109528
▁Nav 109490
▁fabric 109487
▁treating 109475
▁containing 109468
bus 109452
▁appreciate 109446
▁confront 109446
▁residence 109438
▁theater 109430
▁wise 109428
coming 109395
▁rout 109395
▁existence 109346
▁reserve 109343
▁Cold 109253
▁Saint 109252
▁temper 109246
▁cred 109240
▁coinc 109239
▁U.S.- 109204
RI 109186
▁finishing 109164
▁Cole 109092
▁popularity 109084
▁cler 109074
▁barrel 109060
▁Case 109052
́s 109047
▁Ashley 109047
▁MO 109034
▁invested 109031
billion 109018
▁Flynn 109018
▁timing 108980
▁closest 108945
▁updates 108935
▁shield 108901
ller 108891
▁Galaxy 108889
ieties 108883
▁Ever 108830
▁counties 108809
▁murdered 108808
▁civilian 108802
▁revenues 108787
▁trailer 108772
▁irre 108771
▁investing 108691
▁Techn 108690
▁Lion 108659
▁Victor 108651
▁Oil 108626
▁Blake 108617
▁steal 108596
▁Holy 108537
▁mandate 108535
▁chop 108512
asion 108511
▁consent 108500
▁traded 108495
▁collaboration 108477
▁dancing 108460
▁Pers 108448
▁touchdown 108442
▁tension 108423
▁pocket 108393
▁fever 108368
▁Jen 108342
onduct 108329
▁Prem 108306
▁retailer 108291
abs 108288
▁embrace 108235
▁Susan 108232
exp 108204
▁acceler 108203
▁mainstream 108185
▁NEW 108171
▁Senior 108165
pective 108135
eld 108128
▁AF 108125
▁tape 108116
▁underway 108116
▁Web 108108
▁commander 108098
▁shake 108087
▁developments 108082
▁scre 108078
▁absent 108070
▁spy 108025
▁Class 108021
▁supermarket 108006
▁button 107977
▁Katie 107975
▁nec 107963
▁Serge 107949
▁Hans 107940
▁Dream 107930
▁Dad 107869
▁sized 107846
▁sequ 107837
▁Columbia 107816
▁billionaire 107812
▁rescued 107782
▁Silver 107775
▁repe 107761
▁Fac 107750
▁frustrated 107744
▁affects 107741
▁autumn 107735
▁principal 107732
▁Villa 107711
▁Leeds 107693
▁donors 107688
▁Hom 107647
ouring 107646
▁acknowled 107637
▁HBO 107635
▁pharm 107634
umer 107616
▁nowhere 107615
▁Jav 107614
utter 107600
▁Too 107598
game 107591
▁offence 107571
▁residential 107566
▁rebuild 107561
▁Unlike 107543
▁doct 107542
acker 107519
▁None 107502
▁presents 107500
▁evol 107491
▁audiences 107488
▁Gro 107482
▁Opp 107447
▁starring 107432
enge 107426
▁List 107425
▁describing 107409
▁Maj 107403
▁Kerry 107401
▁avoided 107389
▁Matter 107346
▁Rash 107332
▁Scots 107331
▁expanding 107319
▁fights 107287
▁memorial 107283
▁versus 107280
▁misconduct 107256
▁mates 107253
▁aide 107246
ghan 107242
▁appeals 107226
▁structures 107210
▁Tob 107194
▁withdrawal 107184
▁hardest 107158
▁Lanc 107107
ederal 107042
▁Fab 107026
beat 107020
▁Mul 107008
▁ram 106994
▁ranking 106977
▁supporter 106977
▁Il 106971
iler 106958
▁overlook 106958
▁Cow 106955
▁Front 106954
▁rebounds 106950
▁Deal 106890
▁Again 106880
▁studying 106865
rics 106846
▁lav 106840
▁coc 106801
▁globally 106798
ailable 106790
▁implemented 106777
▁refuse 106759
anging 106746
▁rhetoric 106744
▁responses 106734
▁lists 106710
arity 106682
▁depending 106682
▁bottles 106653
▁Grow 106634
▁dump 106628
▁desert 106600
▁Metro 106586
imal 106551
▁objects 106537
▁Illinois 106528
21 106516
▁suspicion 106510
▁doubled 106505
▁beaches 106494
zing 106458
▁Cab 106454
▁Castle 106454
▁citizenship 106453
▁submitted 106436
▁provider 106420
iki 106409
▁Giants 106398
▁debates 106380
neys 106377
arant 106361
▁fence 106347
▁thirds 106345
▁Disease 106331
▁Obs 106330
▁benef 106327
▁Parker 106322
OL 106310
▁Weinstein 106293
▁bombing 106218
laim 106217
▁frustration 106214
ixt 106208
▁FT 106190
▁squee 106156
▁Aberdeen 106143
erous 106137
▁backlash 106132
▁Dubai 106116
▁Conc 106105
▁chip 106101
▁Liam 106098
▁Milan 106091
atem 106068
▁Thailand 106063
ailing 106061
▁marry 106030
▁Border 106020
▁promoted 106000
▁beef 105977
cribed 105962
▁acquired 105922
agne 105907
▁EPA 105906
vit 105885
▁frequent 105854
▁stru 105844
▁92 105834
▁Defence 105803
▁bik 105765
core 105726
▁wire 105723
▁Fernand 105678
▁DE 105648
▁particip 105643
▁Things 105616
▁reopening 105591
LC 105563
▁Harvard 105559
▁dip 105542
▁principles 105535
▁consideration 105534
▁temporarily 105519
▁trainer 105514
▁Alf 105494
▁Chel 105490
▁programmes 105478
▁altern 105468
▁perm 105466
95 105456
▁inher 105448
▁lasting 105438
▁Person 105409
▁pledge 105388
teen 105381
essing 105379
▁Puerto 105376
▁mere 105338
▁attached 105317
rogen 105308
▁signature 105287
▁fierce 105268
ogs 105258
-minute 105246
ortion 105239
▁Nad 105239
inding 105226
▁chains 105220
▁Eddie 105194
▁Nearly 105192
▁experi 105169
▁booked 105159
▁outfit 105146
▁medication 105137
▁comply 105134
▁humanity 105133
▁carpet 105112
ficult 105067
▁connections 105046
▁fert 105032
emy 105026
▁teenagers 105023
▁lined 104998
▁Nathan 104978
▁romantic 104969
▁interviewed 104965
▁Zimbabwe 104961
▁topic 104949
▁350 104947
▁diagnosis 104898
▁workplace 104894
▁Tennessee 104892
▁Cancer 104876
▁TM 104848
:3 104847
▁cleaning 104839
▁Almost 104825
▁simpl 104802
▁anticipated 104788
▁jacket 104779
hone 104763
▁dreams 104737
▁kg 104705
▁reli 104703
▁sheet 104700
▁Arm 104699
▁playoff 104685
▁harsh 104679
▁recognised 104667
▁refund 104617
▁framework 104586
▁Rud 104578
▁1993 104573
▁dressing 104512
▁complic 104461
ample 104455
▁discour 104451
▁Chen 104436
▁Job 104406
:2 104405
▁Eight 104394
▁Zh 104384
▁repro 104379
▁bush 104377
PM 104332
▁Victorian 104299
arma 104292
▁arri 104277
▁imports 104270
matic 104244
OW 104217
▁ratings 104211
▁consistently 104207
oda 104199
▁mach 104187
▁doll 104120
olds 104099
▁Kal 104098
▁populations 104056
▁touched 104048
▁bom 104037
▁outlook 104035
though 104028
▁commented 104017
▁Ul 104015
▁headline 104006
yard 103970
▁Rather 103951
▁jour 103939
urning 103933
▁regulators 103923
▁reviewed 103915
▁Related 103897
▁disappointing 103881
▁checked 103868
▁abused 103863
▁00 103847
▁qualify 103845
▁unity 103796
▁profound 103784
▁explanation 103773
▁explos 103759
▁thri 103753
▁external 103725
▁Got 103701
▁stabbed 103692
▁arrives 103691
▁penalties 103675
▁dat 103656
HO 103655
▁Inside 103649
▁neighbours 103637
▁contributions 103626
▁afterwards 103610
▁util 103595
▁powered 103589
▁resur 103561
▁Jake 103553
▁bru 103549
▁GMT 103539
▁leaked 103519
▁universal 103514
▁97 103445
▁Luk 103439
▁advocates 103433
▁breathing 103387
rolled 103382
▁Camer 103367
▁gri 103362
▁qualified 103362
▁Nas 103347
▁persons 103343
fying 103342
▁Georg 103339
-month 103332
▁immigrant 103292
▁cafe 103288
▁MA 103264
▁disruption 103255
▁embassy 103245
hett 103243
▁fleet 103204
▁midfield 103202
▁lung 103197
▁Roc 103192
▁crying 103145
▁21st 103122
▁gentle 103106
▁disg 103100
▁Kil 103064
▁interim 103031
▁organized 103018
▁arrangements 102988
▁Ferguson 102982
▁installed 102973
▁satis 102944
▁sail 102929
▁Travel 102884
▁myth 102870
▁attractive 102852
▁painted 102848
▁Polit 102846
▁elev 102833
agers 102809
engers 102802
▁respected 102785
▁fossil 102774
▁Norm 102751
▁innocent 102743
uclear 102737
▁generous 102730
▁discount 102729
▁spons 102725
â 102717
▁actively 102696
hern 102686
▁safer 102673
▁experiencing 102659
▁introduction 102640
▁inmates 102627
ista 102618
▁Freedom 102580
izon 102578
▁routes 102546
▁NRL 102539
▁grandmother 102520
▁condemn 102515
▁vulner 102514
▁resear 102513
▁Pel 102502
▁butt 102478
▁lun 102478
▁Nic 102476
▁barriers 102442
▁1.6 102428
▁cyc 102395
▁Ric 102347
▁Mohammed 102344
▁Bristol 102314
▁mart 102297
▁Heart 102296
▁Mick 102228
NS 102227
▁Place 102219
▁belt 102216
▁Ox 102209
▁Wolf 102209
▁comeback 102161
▁naturally 102159
▁seg 102157
resses 102152
▁cooper 102146
umps 102108
▁integrity 102102
▁rif 102100
▁evac 102055
▁teammates 102047
▁Anyone 102031
I. 102019
plus 102017
▁youn 101994
▁hosting 101982
D. 101980
▁talented 101977
▁Cand 101926
▁Ec 101922
▁19th 101917
oust 101899
▁depri 101895
▁celebrities 101894
▁cable 101875
▁demonstrate 101871
▁constitu 101870
▁Ward 101859
▁promotion 101857
▁FDA 101839
▁addressing 101839
▁ankle 101827
▁pled 101822
IM 101805
▁unacceptable 101805
▁Dame 101776
▁1989 101775
ilder 101770
▁comprom 101762
atri 101748
▁Bron 101733
elong 101719
▁discrim 101718
▁Domin 101717
zes 101685
▁Stuart 101685
▁Ltd 101676
orship 101658
▁Partners 101654
▁Scientists 101652
▁optimistic 101648
▁steep 101634
▁cust 101632
▁bunch 101623
▁30,000 101617
▁muscle 101603
▁Form 101595
▁tally 101575
▁economist 101555
▁discussing 101544
▁Modern 101535
▁shy 101527
▁Hughes 101517
▁underlying 101495
▁Tay 101490
onder 101482
▁Eur 101474
▁Raf 101472
▁Bryant 101444
▁strategies 101413
▁meth 101394
▁Cuomo 101393
▁UFC 101323
▁graduate 101323
anded 101322
▁boats 101320
▁opted 101310
▁symb 101299
▁workforce 101282
▁Karen 101251
▁tempt 101230
▁violations 101229
uis 101223
▁applic 101199
▁sac 101191
▁fiction 101184
▁Late 101178
▁statue 101149
▁surpr 101146
▁Holland 101099
▁Short 101086
▁fines 101070
▁Bernard 101045
▁Unit 101016
▁parade 101014
▁concerning 101009
ibs 101004
lied 100994
▁accompanied 100972
▁Obviously 100955
▁Sri 100932
▁interpret 100921
▁dramatically 100917
entially 100858
▁aides 100858
emics 100851
▁cher 100834
lif 100825
▁Small 100817
▁lets 100814
▁hack 100770
▁chamber 100769
▁awful 100768
▁apology 100765
▁Nelson 100759
▁III 100758
▁prospects 100714
▁tort 100694
▁prost 100652
ruary 100621
▁disabled 100602
▁reflects 100594
▁naked 100557
▁transparency 100537
▁toy 100530
▁Wayne 100515
▁licens 100513
▁forgotten 100501
icit 100500
▁Lincoln 100498
airo 100492
▁HS 100492
▁preparation 100491
▁poses 100484
ceptions 100439
▁stimulus 100415
▁spike 100407
▁replic 100395
▁shoppers 100386
▁argues 100381
▁canceled 100375
▁Stan 100372
▁pil 100354
▁tel 100354
▁Davies 100346
▁Express 100339
▁instrument 100335
▁Juan 100334
▁.... 100333
▁antib 100331
▁Marg 100320
▁peers 100316
NP 100270
▁190 100266
enders 100245
uations 100230
▁riot 100219
▁assembly 100218
▁outcomes 100218
▁Division 100211
▁twist 100206
▁coord 100196
̧ 100183
▁realized 100124
▁segment 100122
▁hik 100121
▁priorities 100109
▁lands 100097
▁ambulance 100049
asting 100036
▁HM 100034
▁icon 100030
▁Jesus 100025
▁Theatre 99985
▁Hey 99894
▁subsequent 99877
▁Turnbull 99862
-point 99850
▁overwhelming 99822
▁Safety 99820
▁operated 99807
iatric 99764
▁ninth 99726
power 99723
igration 99665
▁fool 99662
▁nomin 99662
enty 99639
VID 99629
▁Ref 99624
rief 99621
▁persu 99620
▁Point 99594
▁terr 99585
ml 99574
▁Medicine 99562
ulty 99557
goti 99530
▁satellite 99515
▁Wol 99496
▁Commun 99486
▁orange 99482
apan 99477
▁engineer 99475
▁nursing 99469
▁examples 99439
▁accusing 99435
▁Kas 99423
▁Hear 99404
▁dose 99349
▁brew 99345
▁unrest 99345
▁Brand 99339
itty 99333
▁transgender 99324
▁1991 99315
▁governance 99284
▁merc 99264
▁sust 99201
▁confir 99195
▁alien 99193
▁pus 99189
▁removing 99138
atis 99100
bot 99099
▁Bul 99091
▁communic 99091
iah 99068
▁explaining 99046
DP 99028
▁openly 99028
▁Very 99022
▁Terry 99017
▁Rest 98998
▁Jar 98981
▁responding 98978
▁profession 98974
▁molec 98970
▁assass 98954
▁coat 98949
▁81 98943
▁demonstrated 98940
▁bacteria 98936
orp 98918
▁bullet 98909
▁boxing 98905
▁patterns 98885
▁correspond 98879
▁Alt 98858
nar 98855
▁Costa 98852
▁root 98839
▁Alb 98837
▁Rat 98837
▁extract 98811
▁trafficking 98781
▁sued 98761
isher 98758
▁courses 98754
▁asc 98745
▁advent 98738
▁Transport 98727
▁reflected 98709
▁Russians 98707
▁Pap 98693
▁participation 98692
▁200,000 98681
▁compar 98679
▁ventil 98665
being 98659
▁aftermath 98659
▁CCTV 98626
kar 98617
▁depends 98597
▁Cox 98592
▁rated 98582
▁130 98569
▁Spr 98545
rets 98514
▁oxygen 98511
▁operators 98507
▁enthusi 98495
▁Vill 98463
▁intimid 98456
inos 98452
mented 98443
▁ML 98441
▁operator 98437
▁Erdogan 98430
▁Univers 98415
▁Base 98406
▁1960s 98399
▁postp 98364
▁Carol 98360
▁evil 98320
▁Pul 98310
▁venues 98272
▁History 98271
▁Iv 98255
▁grat 98240
▁mandatory 98238
▁Isa 98231
▁licence 98206
▁advocate 98204
▁Mitch 98191
▁Eth 98177
▁airports 98173
works 98167
▁moder 98158
▁dimin 98150
▁Eli 98148
▁reminder 98144
▁contacts 98128
▁unch 98125
▁slammed 98103
uration 98028
▁remembered 98005
▁Powell 98003
▁exists 98000
▁witnessed 97974
▁Tech 97965
oren 97953
▁ori 97913
▁coff 97904
▁addiction 97894
▁recalls 97888
▁taxi 97851
azi 97843
oret 97834
▁inequality 97811
▁escaped 97798
▁contrad 97776
▁thro 97762
erving 97754
▁sculpt 97754
▁spok 97731
otten 97729
▁93 97719
▁universe 97690
▁analys 97654
▁coastal 97627
▁pressed 97613
▁B. 97595
▁devastated 97570
▁Scar 97554
▁sugg 97542
▁artificial 97539
▁TH 97525
ooting 97520
▁guards 97515
▁Within 97505
ointed 97484
24 97483
▁circle 97454
▁Know 97452
▁Rou 97445
▁enforce 97433
▁raped 97433
▁AD 97431
▁Wuhan 97420
▁renov 97416
▁terri 97410
▁Prim 97404
▁intimate 97401
▁pending 97361
▁hill 97336
▁amendment 97334
▁midnight 97323
▁Bailey 97319
▁foul 97311
walk 97296
▁Abe 97287
▁shore 97284
▁websites 97282
▁pilots 97281
GE 97275
▁180 97267
▁Douglas 97259
▁implementation 97231
kh 97204
▁Sony 97193
▁tactics 97184
▁Lebanon 97149
??? 97145
▁Left 97136
▁careers 97133
inem 97130
▁3.5 97120
▁avo 97111
▁Information 97092
umble 97064
▁Kel 97052
▁Conf 97045
▁technique 97038
▁acid 97029
▁expense 97008
▁examine 97007
▁dubbed 96999
▁fright 96998
▁Flor 96967
bank 96958
oom 96952
▁explicit 96948
▁violation 96937
-20 96907
▁Mex 96888
▁entrance 96884
.30pm 96878
▁mechan 96866
▁teens 96861
▁Lawrence 96846
▁photographer 96826
▁Emergency 96822
▁Louisiana 96766
▁refe 96745
iva 96739
▁contemporary 96713
▁prol 96701
45 96661
inals 96629
▁Climate 96629
▁197 96625
▁weakness 96619
▁divide 96606
▁awkward 96602
▁traveling 96589
aug 96586
▁silent 96575
▁ath 96564
▁swept 96543
▁decre 96530
▁96 96521
▁REUTERS 96480
▁preferred 96477
▁motivated 96476
▁leak 96465
▁triple 96461
▁crews 96454
▁Peters 96453
ampions 96409
upt 96395
▁summ 96376
▁delight 96375
lusion 96372
chen 96353
▁Fury 96341
▁landl 96313
▁Om 96312
▁fisher 96307
conn 96303
▁spectacular 96275
ictions 96225
▁R. 96221
▁Father 96202
▁Tar 96195
▁Quest 96186
orrow 96178
ski 96162
utton 96132
▁secondary 96120
▁reliable 96088
▁ske 96075
▁spotlight 96068
▁ESPN 96065
▁metre 96060
▁Warriors 96053
▁maintaining 96047
▁Budget 96031
▁memo 96031
gro 96029
▁differently 96004
▁CS 95997
▁tec 95990
immer 95987
argo 95966
▁revol 95963
▁emotions 95960
▁10th 95957
▁customs 95948
▁twin 95943
▁Years 95938
▁Ing 95933
▁picks 95932
ilia 95923
▁worries 95912
▁robot 95877
▁bonus 95871
▁98 95861
▁Tro 95857
▁judicial 95844
▁sends 95844
▁Bird 95843
▁centuries 95843
▁slam 95837
▁Wimbledon 95825
▁patch 95800
▁regarded 95793
▁94 95785
75 95767
iece 95756
▁illegally 95756
▁recognized 95747
▁USC 95741
RS 95738
▁fastest 95724
uds 95697
▁Disc 95691
▁wip 95668
www. 95666
▁jack 95659
▁determination 95657
around 95650
▁traff 95645
▁Chile 95628
▁Islands 95622
▁Jur 95617
▁donated 95588
▁Sign 95564
▁Try 95548
▁purchased 95530
lings 95499
▁approve 95476
▁Officers 95458
▁catching 95437
▁notion 95416
▁oppose 95414
▁frozen 95412
loaded 95392
▁wishes 95385
▁Niger 95367
▁1.7 95365
▁merch 95345
▁sorts 95339
▁2022 95321
▁postponed 95292
▁Christie 95288
▁conservation 95286
▁drives 95257
B. 95255
azing 95237
▁execution 95230
▁Klopp 95216
▁Keith 95193
ockey 95189
▁encour 95157
▁Gas 95144
▁versions 95062
▁corrupt 95060
▁Brid 95009
▁intend 94995
▁Banks 94993
▁romance 94989
▁commissioner 94983
▁carrier 94974
▁legitimate 94971
▁Reds 94964
▁Guy 94961
▁punishment 94938
▁excuse 94935
▁disappeared 94932
▁handled 94931
▁crop 94930
▁patri 94893
▁comedian 94892
▁premiere 94877
▁assured 94847
born 94832
▁Born 94817
▁requiring 94781
▁sentiment 94695
izer 94689
▁channels 94685
▁lap 94670
▁Alaska 94667
▁undermine 94655
▁Stand 94579
▁Kap 94572
▁Living 94555
▁chase 94513
▁reception 94507
▁Orleans 94502
▁Denver 94492
omatic 94489
▁sympt 94454
▁FI 94434
▁manufacturers 94430
▁washing 94395
▁commitments 94393
stage 94387
ruption 94374
iture 94349
▁overhaul 94347
rection 94326
▁formation 94315
▁Summer 94300
▁telephone 94291
▁Arena 94281
▁bizarre 94264
▁mainland 94260
▁Ruth 94255
▁wrapped 94230
▁departments 94228
mont 94212
▁Shah 94207
burgh 94187
UT 94182
▁Stars 94169
▁buses 94153
▁Rico 94152
ecutive 94116
▁purs 94114
▁Emirates 94104
inating 94049
▁consensus 94047
gie 94045
▁Data 94032
isms 94016
▁Denmark 94000
▁Hist 93989
eway 93987
▁mm 93979
▁Online 93978
▁seekers 93963
▁stun 93954
▁Ahmed 93953
grad 93939
▁Dod 93938
▁Edwards 93936
acon 93934
▁Swift 93929
▁offset 93914
▁FIFA 93906
▁reply 93900
▁initiatives 93894
▁bun 93889
▁Brent 93852
▁accommodation 93848
▁4,000 93836
ibilities 93827
oca 93782
▁demonstrations 93782
▁corpor 93760
▁pipeline 93755
-3 93732
▁refusing 93725
▁optim 93716
▁peer 93713
▁Kam 93711
fers 93702
▁processing 93672
▁acknowledge 93648
▁mud 93642
▁solidarity 93633
know 93620
▁Hawaii 93611
▁difficulties 93610
▁Turn 93595
▁obsc 93559
▁Convention 93548
▁battling 93547
▁protections 93539
avan 93512
itutional 93506
▁employer 93503
▁trace 93494
▁Haz 93493
▁cabin 93475
▁Mach 93452
.m 93444
ensus 93396
▁evolution 93394
phones 93390
etime 93380
▁fined 93359
▁lasted 93359
acity 93323
▁hung 93321
▁dise 93306
▁Prop 93296
▁criminals 93294
▁renewed 93282
elo 93271
▁Kir 93264
▁Mum 93249
▁threaten 93219
ione 93214
mart 93204
DC 93184
▁Kath 93174
selves 93163
-hour 93158
iences 93138
▁convince 93124
orter 93073
orious 93063
▁exerc 93038
▁colon 93030
▁folks 93025
▁cub 93008
▁stepping 93004
▁Barbara 92997
▁Own 92990
oj 92983
▁friendship 92981
▁Fitz 92976
▁trophy 92943
▁Core 92939
▁haul 92928
▁watchdog 92917
eces 92913
▁lake 92912
▁climbed 92911
gies 92910
umbled 92904
▁drops 92888
arded 92867
▁gradually 92866
▁Amendment 92836
▁Rubio 92822
▁leather 92817
▁1.8 92812
dles 92798
omo 92791
▁recre 92791
▁neighbor 92788
▁boots 92785
aman 92778
▁understands 92764
▁Nobody 92759
▁U.K. 92740
▁consultant 92727
▁pip 92713
▁Peace 92700
▁unve 92692
▁bosses 92688
▁Bou 92672
aily 92650
▁approaches 92648
▁hunting 92635
▁scope 92633
▁Mason 92618
▁discip 92595
▁tune 92591
▁Hond 92579
▁relaxed 92578
▁bulk 92552
▁subjects 92547
▁heels 92537
▁engaging 92490
arden 92487
▁Jess 92475
rities 92454
▁implications 92451
▁Orange 92412
irk 92401
▁barrier 92371
▁Oper 92356
▁Gat 92341
atically 92337
▁propos 92315
▁suspicious 92303
▁commem 92294
▁Burn 92292
armed 92268
bery 92267
▁firefighters 92264
▁McA 92260
▁compens 92233
etary 92215
▁Herald 92214
▁innovative 92197
▁negotiate 92192
▁Nothing 92191
▁Final 92179
▁repeal 92151
▁prevented 92139
▁topped 92138
▁businessman 92135
etheless 92124
▁license 92093
▁BA 92054
think 92034
▁grid 92021
▁dispos 92014
▁Barb 92012
▁honey 92012
▁gown 92011
achers 92010
▁preserve 92007
▁opinions 91991
▁recipe 91984
▁Ran 91965
▁hugely 91962
▁Friends 91934
dated 91892
▁jur 91885
▁Finance 91883
▁penal 91856
▁Fisher 91844
▁architect 91822
▁Colin 91803
▁Anti 91780
lad 91773
▁sty 91760
▁Nich 91759
▁neighbour 91758
▁Marcus 91732
▁Federer 91722
▁horm 91720
▁Mort 91716
▁virt 91716
▁threshold 91714
▁answered 91689
▁referee 91688
▁shower 91685
▁implic 91673
▁Sure 91665
ogether 91664
▁acad 91656
▁comic 91645
▁Bed 91635
oster 91619
▁sample 91589
▁mans 91586
shot 91578
▁phrase 91539
▁Kremlin 91533
iral 91524
▁Main 91521
emper 91507
erer 91497
haps 91494
▁mount 91492
▁Marsh 91484
irts 91480
essional 91463
▁Snap 91461
▁cord 91459
▁affecting 91453
▁bias 91429
▁Kur 91425
▁grip 91423
oos 91414
▁blaze 91386
▁suburb 91380
▁instruct 91376
▁olds 91373
▁trucks 91365
▁bits 91327
▁Stanley 91312
aton 91291
▁worrying 91283
▁Kirk 91272
▁Mean 91269
▁enact 91258
▁battles 91252
liament 91241
▁joked 91234
▁load 91231
▁crowded 91225
▁Phoenix 91217
▁portfolio 91199
▁Mercedes 91191
▁futures 91187
▁vet 91185
▁emotion 91165
▁DJ 91164
▁Fans 91160
enh 91107
▁bab 91094
▁Greater 91081
▁fortune 91079
▁stupid 91024
▁hiding 91020
▁Californ 90992
ivil 90979
▁Bulgaria 90970
▁orchest 90938
▁surround 90935
▁oblig 90898
▁furl 90888
GA 90885
▁preventing 90884
▁compliance 90865
▁Cub 90840
▁interference 90839
▁stark 90839
▁hood 90834
▁articles 90811
▁Messi 90803
▁fails 90791
▁Queens 90776
▁Commonwealth 90755
chest 90721
▁sooner 90709
▁guitar 90699
▁ladies 90694
ilton 90671
▁dial 90657
▁Change 90643
▁Maduro 90629
▁Crow 90624
essor 90623
▁unfold 90622
▁Farage 90606
zb 90596
▁strongest 90565
▁enhance 90562
▁jokes 90545
▁vegetables 90539
ferences 90536
▁rapper 90533
▁mirror 90518
▁helpful 90516
▁Lucas 90510
▁Writing 90479
▁Hopkins 90451
▁Masters 90437
▁Area 90430
rained 90428
▁individ 90426
▁Robin 90419
▁purposes 90415
▁Sof 90409
▁cycl 90401
▁compare 90396
aney 90393
essa 90381
▁pupp 90379
iona 90338
▁buzz 90337
▁celeb 90327
▁jets 90320
▁cens 90296
▁Bangladesh 90294
▁stret 90277
onies 90272
▁separated 90259
▁Exc 90257
dam 90243
▁Against 90232
heim 90224
▁Originally 90158
lusive 90157
▁commod 90148
▁hyper 90095
▁meaningful 90074
▁pup 90070
wal 90059
▁beneath 90041
ancies 90034
▁Actor 90034
▁format 90034
▁wreck 90033
▁Experts 90032
▁prompting 90015
▁Dominic 90011
▁hug 90008
▁Amb 89993
rez 89991
▁Thanks 89977
▁infect 89976
▁Half 89957
oker 89944
▁sweeping 89932
inch 89921
▁theft 89921
▁Early 89896
▁Meet 89848
▁transportation 89836
▁stays 89832
▁pione 89831
UR 89829
▁pedest 89823
nered 89795
▁CIA 89793
▁Prize 89788
▁Lau 89779
▁Leave 89775
▁fab 89770
▁filling 89759
▁Geor 89755
order 89747
▁improvements 89709
▁math 89702
▁layer 89696
▁tower 89673
▁associ 89664
▁cheek 89650
▁questioning 89645
▁releases 89598
▁fle 89593
ecution 89568
▁incomp 89555
▁Android 89546
▁TO 89530
▁insult 89526
▁jun 89526
▁shortage 89520
▁pad 89511
unes 89505
▁Ker 89495
▁declare 89492
▁Austria 89482
▁freed 89450
▁trop 89449
▁athlete 89421
▁McGregor 89413
▁Jerusalem 89408
▁Tigers 89405
▁Nin 89403
▁choosing 89398
▁cocaine 89390
▁Michel 89376
▁credits 89364
▁Baby 89356
▁Dark 89354
erald 89350
▁Gw 89336
▁acres 89330
▁evident 89293
unal 89262
▁Marshall 89247
▁Kashmir 89202
▁Omar 89192
▁Wells 89184
▁dual 89172
▁Prevention 89169
▁mutual 89148
▁grim 89135
▁Portugal 89126
▁suits 89116
▁Buck 89110
▁starred 89110
▁Mall 89106
▁attorneys 89104
▁transferred 89096
▁gifts 89091
▁Esp 89047
geon 89034
▁considerable 89020
▁Rain 89016
▁dynamic 89008
▁flags 88982
▁Alliance 88977
▁relating 88967
print 88959
▁nort 88931
▁inevitable 88930
▁Stra 88907
▁Larry 88896
guard 88876
▁Helen 88870
▁stab 88834
▁examined 88825
▁gatherings 88825
▁Nadal 88814
▁Syri 88811
▁motiv 88805
▁BT 88795
▁toss 88793
▁Ze 88782
▁L. 88740
▁Benjamin 88733
▁Captain 88733
▁Brits 88729
rors 88728
chat 88700
▁Broadway 88686
▁poly 88681
▁judg 88676
▁innov 88670
▁Oval 88669
igen 88647
▁Thousands 88642
▁definition 88626
▁polar 88623
▁hiring 88612
▁Keep 88596
ocate 88565
▁decor 88557
▁projected 88535
▁Mediterranean 88507
▁insight 88504
▁buff 88492
▁vessel 88477
▁Grace 88450
▁celebrations 88449
ibr 88443
▁Lag 88427
angers 88426
▁podcast 88426
▁Follow 88412
CH 88409
▁Steel 88398
rical 88383
▁H. 88366
▁goalkeeper 88342
▁Bh 88335
▁juris 88333
▁cats 88331
▁slipped 88323
foot 88314
▁kit 88310
heart 88298
▁Strate 88292
ervations 88286
▁needing 88285
ologies 88278
▁upgr 88251
bourne 88238
▁Missouri 88226
cker 88222
▁Phillips 88215
▁seeds 88208
▁Czech 88201
▁wors 88181
▁Mumbai 88176
▁Lopez 88155
▁liver 88109
▁Eagles 88107
▁appreci 88094
▁500,000 88093
ufact 88092
▁Cath 88088
▁Tommy 88081
▁dominant 88080
▁Kos 88030
▁bubble 88022
▁aboard 88007
▁dear 87989
▁lux 87988
▁LGBT 87987
▁uncomfortable 87971
ulent 87966
▁Cass 87964
rock 87955
▁branded 87946
▁flee 87946
▁suggestion 87937
▁slim 87934
▁Reid 87930
▁minimal 87916
▁audio 87890
▁Ess 87839
▁Pittsburgh 87785
▁Federation 87778
▁Hou 87756
azed 87755
▁imprison 87740
▁hearings 87726
▁piv 87699
▁leaf 87680
▁Standard 87679
▁exclud 87670
▁consultation 87655
▁agricultural 87636
▁grief 87615
▁Shanghai 87611
▁broadcaster 87608
essions 87607
▁Pros 87604
▁charg 87588
▁impress 87587
▁ought 87576
▁concer 87549
▁negotiating 87536
orable 87535
▁Less 87525
.m. 87523
65 87511
▁bears 87508
▁Based 87494
▁nom 87475
▁grabbed 87470
▁detain 87442
▁Motor 87441
ighters 87419
▁Bradley 87417
▁neighbors 87410
▁Marie 87406
herent 87402
▁advoc 87386
▁stakes 87379
▁Yeah 87378
▁lear 87362
II 87352
▁Philipp 87320
▁gest 87318
▁signals 87304
▁Spencer 87299
▁Julian 87297
nut 87294
▁900 87291
▁bans 87288
▁fib 87280
▁operational 87264
▁Brighton 87244
▁chips 87243
▁deserves 87238
▁Philippines 87237
▁titled 87229
▁volunteer 87229
▁haven 87212
leton 87178
onel 87152
▁Campaign 87141
▁objective 87136
ento 87118
▁permit 87113
▁Beh 87107
acious 87104
▁larg 87092
▁aller 87080
▁dated 87080
▁confusion 87069
▁rallies 87067
▁Mess 87059
isle 87055
▁deterior 87054
▁drunk 87004
PD 86990
▁betray 86985
obi 86945
▁colours 86938
▁1980 86905
▁storms 86892
▁makeup 86877
fish 86875
▁separ 86868
▁cinema 86840
▁educational 86814
▁rookie 86807
▁blocking 86803
nown 86794
▁fal 86787
▁Lauren 86782
▁earthquake 86755
▁sche 86742
▁Nigel 86737
▁chill 86726
▁Caribbean 86705
ullah 86692
▁Belfast 86687
▁prevention 86687
▁Tan 86673
▁Osborne 86654
▁Shi 86626
▁jihad 86621
▁chapter 86613
opes 86612
▁Forces 86592
erb 86587
▁Kend 86587
▁Spot 86568
'A 86566
▁Associ 86551
▁Dom 86549
rous 86543
▁maintenance 86526
▁accessible 86524
▁opportun 86513
▁Kab 86509
▁Todd 86480
atched 86463
▁brid 86437
nex 86405
▁computers 86394
▁tang 86394
piece 86384
▁tremendous 86382
▁Gay 86366
▁influential 86319
▁199 86274
illo 86271
western 86264
duces 86261
yes 86236
emble 86226
▁grocery 86202
▁Sud 86200
▁giants 86194
.30 86190
▁Rosen 86174
▁fantasy 86167
▁Ow 86152
▁inaug 86138
empl 86134
▁Harrison 86118
▁Anton 86112
sequ 86111
▁sharply 86093
▁Medicare 86066
▁conced 86057
▁confirmation 86057
▁retreat 86052
archy 86042
▁Rap 86036
ishi 86035
▁bones 86030
▁ED 86019
▁councils 85999
▁sentences 85987
▁Munich 85977
▁cough 85976
▁relig 85976
▁launches 85975
▁ric 85961
olan 85931
ocracy 85913
erable 85911
▁Sophie 85906
▁calendar 85888
ampa 85872
▁trusted 85870
▁Malaysia 85859
▁10-year 85856
▁qualif 85837
▁killings 85820
▁explosive 85816
leep 85803
▁joins 85777
uating 85776
storm 85772
▁Bennett 85746
▁Looking 85742
▁achievement 85739
▁Spec 85714
▁Song 85701
▁Bund 85685
▁organic 85675
▁pressing 85669
apper 85668
▁facial 85651
▁appropri 85650
▁laughing 85650
▁incorpor 85630
▁Dy 85615
aret 85596
▁Kardashian 85591
▁Southampton 85588
▁submit 85582
▁Rivers 85572
othy 85565
▁Master 85565
▁measured 85557
▁turb 85544
▁resource 85532
▁drought 85525
▁Neither 85509
uto 85504
▁mountains 85498
▁operates 85486
▁sells 85477
acht 85472
onny 85469
▁matching 85466
▁DU 85448
▁vigil 85433
▁Using 85420
▁zones 85415
▁spare 85406
▁priced 85380
▁whenever 85355
▁cinem 85354
atta 85338
▁Find 85338
ignment 85336
▁Band 85327
▁Portland 85320
▁skept 85305
▁portray 85301
▁firmly 85292
▁immunity 85281
▁nerve 85281
▁guaranteed 85248
▁Aj 85228
▁deciding 85228
▁flames 85222
▁Apr 85220
▁tin 85217
▁clashes 85201
ustain 85190
▁highs 85115
▁wounds 85112
▁precisely 85108
▁Ton 85085
lla 85082
▁finances 85077
▁loses 85075
▁inflamm 85073
▁tougher 85052
▁gunman 85038
oples 85035
▁Gaza 85017
▁cann 85017
▁soap 85008
▁Hungary 85007
▁dishes 85005
▁ok 85002
▁Must 85001
▁intensity 84992
▁whereas 84981
▁vend 84960
▁wooden 84951
▁Afric 84936
▁Derby 84930
osite 84921
▁Patriots 84919
▁horri 84904
▁Aid 84897
imin 84892
itarian 84889
▁conclud 84878
▁Soon 84864
▁pleasure 84849
▁landmark 84824
reng 84778
▁Carlos 84761
▁agriculture 84748
▁Sheffield 84735
▁efficiency 84721
▁enl 84713
▁Brook 84698
▁chairs 84698
▁wre 84696
▁acceptable 84695
▁suburbs 84690
▁indication 84687
igue 84686
▁Simpson 84684
▁poster 84683
amas 84681
▁fant 84663
▁aspir 84628
▁restricted 84610
▁boards 84608
▁blank 84603
▁Think 84601
▁considers 84598
▁lengthy 84593
▁requirement 84547
▁Claud 84518
▁Between 84480
▁conflicts 84477
▁exha 84463
card 84453
▁Trop 84453
▁Seoul 84446
▁traveled 84415
▁Stop 84386
anz 84370
▁Qual 84366
▁anonymous 84361
via 84346
▁oven 84344
▁mansion 84340
▁Lang 84324
▁lifting 84320
▁preced 84317
▁draws 84313
▁instant 84308
▁torture 84301
enda 84283
sky 84282
▁subsequently 84269
henko 84266
TI 84263
ether 84253
▁convert 84233
▁taxpayers 84232
angel 84224
▁perceived 84170
▁Phill 84168
▁arrangement 84165
apers 84131
▁attrib 84109
▁Few 84088
▁converted 84075
asive 84064
▁resolved 84045
▁declaration 84041
▁Mississippi 84025
▁Johns 84019
▁regulator 84012
▁Fat 84011
MP 83993
tail 83991
▁expertise 83985
* 83965
▁lease 83964
rome 83961
▁indoor 83956
▁Lan 83936
▁erup 83918
▁charities 83915
▁reminded 83903
▁Communist 83898
▁organis 83884
▁aviation 83879
▁Palestinians 83866
dling 83859
▁Olymp 83812
▁Expl 83802
▁2.2 83797
▁Jerry 83782
▁agrees 83775
▁elder 83763
▁sidel 83758
▁Page 83743
▁Exchange 83718
unning 83717
▁Markle 83680
▁Support 83672
▁Nicole 83670
annon 83665
▁devast 83659
▁Pur 83642
▁schemes 83638
▁privilege 83635
▁farms 83614
▁Pick 83612
▁signific 83601
▁shirts 83584
▁respective 83582
▁classified 83581
▁assumed 83568
▁91 83548
▁Smart 83537
▁ambition 83529
▁Andrews 83518
▁marine 83513
▁abandon 83508
▁slee 83489
▁Jos 83479
▁WASHINGTON 83473
▁misc 83450
▁desperately 83448
▁premier 83443
initely 83422
amo 83402
▁Mrs. 83384
▁severely 83383
▁releg 83377
▁1/2 83368
arged 83365
▁forecasts 83331
otsp 83329
▁Advis 83294
cience 83281
▁18th 83281
ollah 83261
▁sid 83259
▁arena 83253
▁displayed 83239
▁uncle 83194
▁inappropriate 83186
▁supportive 83186
contin 83144
▁Pep 83134
▁counted 83118
▁embr 83103
▁confused 83065
▁conver 83062
▁Box 83050
hero 83039
▁telecom 83033
▁puzz 83024
▁Sessions 83019
▁gallery 83019
▁Break 83000
▁recruit 82999
▁provisions 82967
▁prince 82958
▁ful 82944
▁Exper 82936
HP 82931
▁Egyptian 82928
achment 82920
▁Happy 82920
▁EC 82902
▁Reed 82888
▁accuse 82883
▁Ronaldo 82873
▁Carson 82868
▁inspect 82848
▁chancellor 82847
▁troubled 82821
▁qualifying 82819
▁Bald 82818
▁crackdown 82811
▁vessels 82802
▁Whatever 82787
▁earliest 82784
▁Essex 82779
▁Future 82779
▁checking 82755
▁Europa 82744
▁Greens 82725
▁Nigerian 82722
isy 82699
▁Slam 82684
▁impacted 82679
▁dent 82661
-4 82649
▁Arthur 82649
▁Semit 82648
▁propaganda 82634
agues 82600
▁purchases 82598
▁expend 82597
▁Knight 82578
gical 82531
▁dod 82522
▁excessive 82516
▁Athlet 82503
▁isol 82480
▁Guardiola 82479
▁rit 82479
umbling 82475
▁techniques 82475
P. 82466
▁Sanchez 82462
kov 82455
▁Use 82454
▁repay 82450
azine 82422
▁emplo 82420
▁Shares 82409
ront 82391
izations 82381
ivals 82378
uates 82352
▁Tunis 82331
▁corn 82312
▁rage 82309
▁sheer 82308
▁Ronald 82305
arez 82288
▁Girls 82265
▁Abb 82248
▁achie 82240
▁110 82234
▁phenomenon 82229
▁speakers 82226
▁restaur 82225
▁NC 82224
▁Koh 82191
▁financing 82190
ixel 82185
eur 82183
▁aired 82183
▁Nap 82175
▁mall 82169
▁cosm 82163
▁Iron 82150
▁CN 82142
usk 82136
▁unanim 82125
▁finale 82112
ograp 82108
/3 82099
▁Stre 82076
▁seal 82074
▁Malcolm 82066
▁scary 82066
▁1984 82053
▁acute 82051
IG 82034
ibb 82023
▁breakthrough 82014
▁Myanmar 82004
otherapy 81996
stal 81989
▁reserves 81983
imum 81981
▁Agreement 81973
▁straw 81971
▁genes 81968
▁ridiculous 81965
▁privately 81957
▁grants 81945
▁minded 81943
▁Hous 81882
▁comed 81870
▁Vi 81854
▁vegan 81844
fty 81839
▁mobil 81833
▁revers 81819
ulu 81779
▁collision 81755
▁petrol 81754
▁Mans 81752
dict 81748
▁notably 81737
▁recovering 81722
▁transp 81718
▁pursuit 81713
▁mentally 81700
▁compound 81693
▁gaming 81683
▁conducting 81677
▁fingers 81673
bound 81668
▁library 81645
▁Rodgers 81643
▁Bry 81642
▁wicket 81636
▁harass 81635
▁heroes 81627
▁dementia 81606
▁Hundreds 81597
▁Fun 81590
▁Pic 81589
▁Workers 81584
gage 81569
▁undermin 81557
idy 81550
▁Len 81545
▁dispar 81532
▁CC 81516
▁harmful 81502
▁violated 81485
ductions 81474
▁Cape 81469
▁ster 81463
▁designs 81461
▁Julie 81456
▁missions 81446
ugged 81413
▁Marco 81406
▁restored 81389
▁attendance 81382
▁memor 81356
▁surv 81339
▁Britons 81323
▁anxious 81289
sex 81286
▁Shaw 81279
ogan 81277
▁Cummings 81276
▁matched 81275
▁grandfather 81258
▁uncom 81240
▁tunnel 81235
hani 81229
▁punish 81228
▁toys 81222
▁Offic 81194
▁etc 81179
▁addresses 81168
▁blown 81165
▁Deep 81146
▁cure 81121
▁bug 81113
▁trio 81103
▁festive 81087
▁developers 81083
utin 81069
▁Wallace 81062
anting 81058
OM 81037
▁fiance 81019
▁celebrates 81008
▁doubts 80993
▁Bear 80986
▁kicking 80980
▁Dub 80949
▁Fashion 80948
▁infectious 80937
quar 80894
▁displ 80871
▁passport 80869
▁relie 80856
HA 80853
▁ACT 80850
▁Djokovic 80837
▁rental 80832
cia 80827
▁fron 80820
▁adventure 80803
▁tissue 80793
▁Mult 80772
▁1988 80770
▁Argent 80755
inho 80742
▁winger 80740
▁tenure 80717
▁bullying 80710
respons 80706
etti 80682
orks 80680
▁assemb 80652
▁exceptional 80652
▁O'R 80633
▁Lucy 80631
▁inspire 80617
▁motorc 80615
▁hike 80608
▁Fu 80597
asha 80595
.00 80579
▁villages 80576
▁partisan 80575
▁passage 80498
▁Cust 80494
▁manufact 80494
▁Poc 80490
▁pubs 80472
▁annually 80469
▁shifts 80454
aha 80425
▁sket 80419
▁Govern 80409
eston 80406
▁Writ 80389
▁acquisition 80382
▁habits 80379
▁capabilities 80372
▁Belgian 80323
▁queen 80323
▁underground 80307
▁shootings 80306
▁referen 80287
▁occupied 80245
▁dirty 80234
▁Studies 80223
▁musician 80216
▁undergo 80199
▁formula 80188
▁horrific 80175
▁Stef 80160
▁valued 80140
ifer 80122
▁receives 80105
▁genuinely 80098
quis 80078
▁automatic 80077
▁estim 80077
▁bang 80076
▁sacked 80052
EP 80050
▁lane 80028
▁psychological 80016
▁Corporation 80013
▁outp 79999
▁automatically 79994
▁structural 79993
ogle 79992
▁Oz 79988
▁furniture 79978
▁shoulders 79975
▁oversight 79958
▁melt 79935
▁instit 79927
▁shifted 79924
▁Tas 79907
▁vit 79880
▁worthy 79877
▁Carr 79876
itten 79869
acent 79866
▁Walmart 79811
▁intrig 79811
rupted 79805
▁vacation 79803
▁Jew 79794
▁strateg 79791
▁feeding 79782
▁Caroline 79771
▁screaming 79756
▁nationals 79751
▁abst 79735
▁passionate 79710
hedral 79696
▁cancell 79658
aky 79641
eda 79636
▁lover 79618
rought 79614
▁difficulty 79612
▁restart 79599
▁Memorial 79596
▁deserved 79590
▁reaches 79590
▁Third 79573
ught 79567
▁donation 79540
▁Hugh 79539
▁ghost 79537
▁array 79534
▁inch 79532
▁Richmond 79529
▁Eri 79527
▁Dakota 79520
gets 79516
rons 79500
rait 79450
▁Jr 79437
▁donor 79400
▁lag 79381
gow 79363
▁Giuliani 79356
▁scholars 79356
▁campaigning 79334
▁partially 79329
▁Further 79321
▁1,500 79312
▁drones 79304
▁organiz 79282
laimed 79270
▁policing 79270
▁init 79257
▁MC 79245
▁damages 79243
▁sym 79242
▁fif 79241
▁Additional 79240
apse 79235
▁tasks 79233
▁commerce 79221
▁Nature 79216
▁sanct 79214
▁furious 79209
▁ultra 79204
▁Lyon 79168
▁accompany 79157
▁newspapers 79150
▁categories 79132
▁Marvel 79124
▁Pin 79115
▁Jeffrey 79104
▁serial 79097
▁alike 79079
▁beaut 79076
eals 79069
▁Tiger 79065
idden 79050
▁assaulted 79050
▁chap 79040
▁Saints 79035
▁snaps 79034
inda 79008
ournal 79000
▁meters 78984
▁staged 78984
▁0.1 78976
dering 78973
▁competitors 78964
▁playoffs 78941
▁clever 78935
ovel 78909
▁avoiding 78906
▁Tyler 78895
▁travellers 78833
▁suppliers 78820
abad 78813
ancer 78794
▁Metropolitan 78784
appy 78779
▁101 78766
▁unle 78766
▁annoy 78765
▁Cos 78753
▁accepting 78753
▁roster 78748
▁pressures 78741
ahl 78738
▁param 78701
▁deck 78694
▁dependent 78694
▁economists 78666
▁Bishop 78661
abilities 78659
▁Shane 78659
▁Cash 78657
▁governors 78636
▁Emmanuel 78614
▁accum 78611
▁releasing 78607
▁folk 78606
word 78558
▁demonstrators 78542
▁Doug 78539
▁Brooks 78530
▁Weather 78520
▁files 78511
reement 78498
▁caring 78493
▁2.4 78482
▁jazz 78482
▁rocks 78480
NT 78472
▁inqu 78471
▁Harper 78463
▁outbreaks 78431
▁preliminary 78384
▁Revolution 78378
▁define 78376
isha 78366
▁sheriff 78362
oen 78354
▁terminal 78353
▁railway 78349
▁distingu 78343
▁Schumer 78313
▁pizza 78279
▁10- 78271
▁Gonz 78268
▁quietly 78264
▁Chad 78247
▁republic 78245
▁Reagan 78243
▁fleeing 78234
▁nickn 78231
▁Crystal 78224
▁Common 78206
▁Lear 78190
▁Amber 78182
thood 78178
▁Kob 78173
▁bite 78130
▁Julia 78123
▁militant 78118
▁empower 78106
▁portrait 78092
▁whilst 78089
▁chemicals 78075
▁migr 78072
▁Beyond 78046
NE 78009
▁allegation 78008
▁Sales 78001
writer 77979
stream 77969
▁okay 77957
rary 77931
▁Serv 77904
▁140 77900
▁overc 77892
▁tackling 77887
UL 77886
▁victories 77841
▁Sah 77834
▁tonnes 77833
▁memoir 77825
▁Note 77822
▁conj 77796
▁Garcia 77788
▁Gates 77785
▁spectrum 77749
urst 77742
▁160 77738
▁orbit 77728
▁errors 77723
▁diamond 77713
▁persist 77706
▁devoted 77675
▁debris 77656
▁Jama 77654
▁deploy 77642
▁renewable 77638
▁appealing 77630
▁11th 77625
▁formerly 77624
▁Pyongyang 77611
▁starter 77593
▁Zoom 77580
unte 77554
▁trim 77551
▁thanked 77550
▁Luis 77526
▁Johnny 77524
▁suspend 77516
▁rumours 77508
▁sealed 77508
ework 77488
▁immense 77466
▁tours 77464
▁stabil 77461
▁TikTok 77455
gered 77446
▁anonymity 77445
abil 77444
▁commonly 77432
▁astronaut 77424
▁tons 77419
▁File 77411
▁pile 77386
▁farming 77373
pher 77372
▁histor 77368
▁famously 77355
▁Crist 77347
▁highway 77342
▁easing 77339
ERS 77338
▁Ital 77333
▁resemb 77283
▁eliminate 77272
▁Mend 77266
▁Sus 77262
▁mechanism 77260
▁successor 77243
▁crises 77239
▁notable 77234
erie 77205
▁defendant 77205
▁Potter 77196
▁millenn 77186
▁Zel 77181
▁Wang 77180
▁Hig 77175
▁socially 77163
▁GA 77160
*** 77146
▁struct 77144
▁Co. 77139
▁rebound 77136
▁touching 77102
▁distress 77093
▁Days 77076
▁crow 77065
▁Palm 77063
▁lineup 77062
gans 77055
▁Arctic 77051
▁permitted 77046
▁obesity 77040
▁treaty 77030
▁bureauc 77028
▁Fairfax 77024
▁evacuated 77024
▁Article 76986
▁monetary 76983
▁grows 76963
▁traditionally 76959
▁Temp 76951
▁diesel 76945
opard 76927
▁shipping 76908
▁criteria 76875
▁indigenous 76865
▁Fight 76856
▁Fur 76839
eler 76833
▁tick 76824
▁Remain 76822
▁UCLA 76811
▁forb 76790
▁radar 76787
▁Vict 76785
▁conceded 76783
▁Palmer 76773
▁Barrett 76759
▁equipped 76749
▁bloody 76745
itated 76741
ateg 76739
▁frust 76737
asty 76726
antle 76719
▁demonstration 76708
▁Dog 76704
▁focuses 76701
▁clarity 76699
DI 76691
▁endless 76690
▁dread 76683
▁fancy 76668
▁sweat 76663
▁horrible 76660
▁1986 76657
▁Sterling 76641
▁20-year 76639
alys 76637
▁voc 76625
uition 76619
▁Need 76617
▁enemies 76617
▁Chase 76614
▁cave 76611
▁Brew 76606
▁Centers 76589
▁throws 76589
ighth 76581
▁Pict 76574
aults 76573
▁occasionally 76557
▁Hem 76535
▁flexible 76533
ccess 76531
▁cooked 76523
▁stating 76510
▁Div 76504
▁Colombia 76500
ucked 76485
▁benchmark 76477
quer 76416
▁Polish 76413
▁ceiling 76399
▁donate 76380
▁acquire 76368
▁realistic 76358
▁counting 76345
▁posing 76330
▁Blo 76318
itivity 76282
▁sew 76267
▁Lynch 76262
▁Ice 76256
▁jeans 76254
▁unde 76250
▁deliberately 76240
▁reson 76238
bey 76236
lint 76218
ucker 76216
▁induc 76209
▁transparent 76201
▁educated 76190
▁precious 76185
▁py 76181
▁dangers 76170
season 76169
gap 76160
▁slic 76147
▁0.2 76129
fell 76119
ovo 76117
▁arbit 76097
esters 76083
▁hungry 76068
ronic 76066
▁bearing 76066
▁Luck 76065
▁gardens 76065
▁Sach 76042
▁Foster 76026
▁ports 76022
▁Fig 76021
▁communicate 76009
▁click 76001
▁breakdown 75997
▁runners 75984
▁correspondent 75982
▁Ebola 75977
▁solely 75974
kinson 75966
▁Aub 75956
▁detected 75955
▁balanced 75954
▁transactions 75950
▁O'C 75935
▁sanction 75927
▁amendments 75923
▁Nep 75919
▁Prog 75911
▁examination 75899
▁Rav 75895
▁Finn 75866
▁cycling 75853
▁Bayern 75851
▁drum 75840
▁hostile 75836
aires 75808
▁testify 75801
▁cerem 75792
▁Derek 75781
▁Round 75769
▁observe 75767
▁authentic 75766
▁patron 75726
▁woke 75725
▁justify 75711
▁O'Brien 75700
▁immun 75699
▁Calif. 75696
▁Jenner 75686
▁reopened 75686
▁entertain 75662
▁editing 75657
▁listing 75648
▁Cuban 75620
ographer 75612
▁McCarthy 75605
▁flown 75581
▁spiritual 75579
change 75576
adh 75575
▁academy 75570
▁nightmare 75562
▁Tampa 75557
▁sore 75546
▁theories 75541
lington 75533
▁P. 75528
▁1987 75521
▁Says 75504
▁extrem 75503
▁excitement 75476
▁dawn 75466
▁crypt 75443
▁https:// 75413
▁nonprofit 75408
▁cigarettes 75388
▁rav 75374
▁Rogers 75365
▁Mol 75362
olph 75360
▁instantly 75360
abled 75350
▁Chiefs 75311
▁accountable 75309
holders 75300
▁abol 75292
▁scen 75292
▁cease 75289
▁Jared 75284
▁Ur 75277
▁approaching 75276
▁priorit 75269
▁15,000 75262
▁loaded 75254
▁cautious 75244
emed 75235
▁Tyson 75220
▁transit 75215
eph 75196
itches 75196
▁Diamond 75182
▁kicks 75179
▁integration 75164
▁Ire 75162
▁adequate 75152
▁believing 75150
utation 75139
▁DO 75137
▁superb 75136
▁murders 75129
▁challen 75124
▁outlet 75121
▁Gavin 75116
▁applying 75106
rawl 75095
▁Together 75095
▁advant 75089
▁lawsuits 75078
▁rushing 75078
▁indef 75063
gor 75040
raged 75025
▁conventional 75025
▁Heat 75022
▁beliefs 75018
▁Pun 75006
▁Ana 74996
▁Lie 74985
▁Kid 74978
▁Rice 74960
▁CF 74959
▁Duncan 74951
▁receiver 74937
▁SW 74918
▁hurricane 74904
▁Circ 74900
▁yoga 74870
bul 74865
▁Dylan 74849
▁gaining 74826
▁Coach 74818
▁Brett 74816
ropri 74815
́e 74796
▁placing 74796
▁accomplish 74792
▁ecl 74776
▁altogether 74755
▁Twenty 74745
▁Gren 74737
▁fundraising 74736
▁Wool 74729
▁unfortunately 74729
▁replacing 74720
▁adop 74709
▁compassion 74685
▁inquest 74669
▁advise 74658
▁femin 74652
▁Doctors 74650
▁viewing 74641
oding 74636
▁relate 74633
nesty 74604
▁exploring 74600
▁Viv 74594
▁fli 74587
▁isolate 74583
▁mamm 74583
idelines 74582
▁slot 74565
▁encl 74557
▁Hearts 74536
▁Moroc 74507
▁spends 74502
▁admission 74499
▁contracted 74493
igrants 74486
/4 74482
▁marking 74480
▁dragged 74470
▁40,000 74469
▁shark 74449
▁certific 74413
▁Buttigieg 74408
iots 74400
▁Horn 74379
▁pole 74370
▁breathe 74356
▁Dian 74353
ternal 74351
▁heated 74349
▁administrative 74346
▁registration 74334
vals 74331
▁UAE 74323
esy 74306
▁bio 74298
▁simp 74291
▁Ult 74277
▁vig 74271
▁quarant 74266
▁absurd 74247
▁unnecessary 74244
▁applies 74240
▁Liz 74231
▁Qaeda 74224
▁hailed 74205
50,000 74194
▁Past 74190
icle 74183
▁thous 74183
▁Nobel 74179
▁weaken 74175
▁mosque 74167
L. 74166
▁Enter 74163
▁Engine 74155
▁existed 74148
▁riders 74135
▁Castro 74124
▁Hung 74113
▁shouting 74106
▁Vent 74100
angle 74098
TON 74085
.20 74063
▁Hancock 74058
▁Pictures 74037
▁saves 74016
▁Cut 74012
▁cousin 73984
stairs 73971
▁representation 73971
▁IV 73961
▁strugg 73937
▁reluctant 73932
▁Gareth 73907
▁Room 73904
▁Mik 73901
▁interfe 73897
▁transformation 73888
▁invasion 73882
▁immedi 73870
inery 73864
▁Veter 73863
▁Environment 73844
▁BE 73838
▁Moreover 73832
isons 73829
▁disclosed 73813
▁McCain 73812
▁3D 73807
▁DA 73797
▁buyer 73796
ppers 73792
▁pants 73772
ungle 73760
▁tooth 73757
▁Delta 73744
▁Check 73734
▁Catal 73733
▁bankruptcy 73723
▁Lux 73718
▁Nord 73718
▁discipline 73701
▁http:// 73699
▁Chamber 73688
▁Ars 73665
▁demol 73642
ovan 73640
▁enfor 73635
▁Glen 73633
▁tobacco 73632
feld 73594
▁Mov 73554
▁wears 73541
nock 73534
▁1979 73532
▁Ethiopia 73510
▁doses 73502
▁Mind 73483
udes 73451
▁credible 73432
ications 73409
▁depos 73397
▁sink 73365
ucci 73355
▁Nag 73351
▁Boys 73335
BO 73290
▁Amanda 73290
▁tender 73290
▁Bath 73279
▁neighbourhood 73276
▁Aston 73271
▁Hammond 73269
▁utility 73268
▁singles 73192
▁wondering 73191
▁toug 73182
▁tub 73172
▁guided 73170
▁2.1 73157
father 73154
ronics 73150
▁nin 73146
▁downs 73136
▁siblings 73096
▁unhe 73094
ARS 73083
ouncing 73078
▁austerity 73065
▁fits 73063
▁carn 73046
▁conservatives 72976
▁Drag 72965
▁happiness 72956
▁rend 72956
▁insisting 72947
▁harvest 72911
▁locally 72882
▁Pil 72878
▁pursuing 72873
▁Cricket 72866
▁Elliott 72860
▁reactions 72850
prising 72844
▁predecessor 72835
▁intellectual 72809
▁disputed 72797
▁marginal 72794
▁Overall 72781
▁lob 72772
▁strik 72761
▁distant 72758
▁lion 72746
▁deg 72743
▁economics 72743
▁Kids 72736
▁offenders 72732
aska 72710
▁Students 72702
▁Henderson 72699
▁greatly 72672
▁prayers 72669
▁Claire 72658
▁Armen 72614
▁Gab 72602
▁Sara 72599
▁Race 72595
▁decrease 72595
▁digit 72595
iper 72580
▁Stay 72573
▁factories 72570
▁Walsh 72549
▁lone 72515
▁beside 72507
▁dys 72499
oline 72497
▁Taking 72497
▁ambitions 72488
▁Pier 72477
▁revenge 72475
EA 72472
▁inclusive 72463
▁prisons 72429
▁showc 72427
-5 72424
▁thrilled 72422
▁Oakland 72415
▁selfie 72415
▁Lloyd 72402
▁Homeland 72393
▁accounting 72381
▁gloves 72314
▁veto 72313
▁forum 72310
▁Yang 72305
orders 72301
▁optimism 72283
▁flooded 72282
▁Swansea 72280
▁Louise 72275
▁mock 72258
▁Hudson 72257
▁Py 72228
▁similarly 72221
▁juice 72204
▁embark 72193
▁pepper 72175
▁Ful 72134
▁Kushner 72131
▁Silva 72120
▁Tesco 72113
▁inclusion 72089
▁scare 72075
▁brick 72064
▁territ 72051
▁Walter 72049
▁dou 72045
&E 72031
▁incred 72025
K. 72023
400 72013
▁consolid 72008
▁distributed 72003
▁sweep 71999
▁Chuck 71981
▁institutional 71955
▁designated 71954
▁extending 71948
▁Daw 71928
oyle 71911
▁univers 71895
▁overwhelmed 71892
reach 71880
▁Vic 71880
▁overtime 71877
▁Rebecca 71873
▁HD 71865
▁loun 71865
▁indictment 71853
▁behavi 71852
▁Goldman 71847
▁blonde 71837
aku 71819
▁disability 71813
▁Bengal 71810
▁floors 71808
▁Holmes 71800
▁appealed 71798
▁Orlando 71797
▁thorough 71784
astics 71774
▁gent 71772
▁attacker 71770
▁stole 71766
itime 71765
▁cele 71761
▁affili 71756
▁stealing 71746
▁exped 71741
▁compelling 71726
▁Indians 71725
▁convey 71720
owners 71719
▁rubber 71719
▁scratch 71716
▁dignity 71703
ilateral 71695
▁Total 71682
▁slowing 71675
▁contrary 71665
▁casting 71647
▁offshore 71635
stock 71619
▁Side 71613
▁pause 71597
.95 71584
yond 71578
▁30-year 71577
turn 71573
▁Magn 71567
▁decisive 71563
▁Shop 71559
▁unus 71557
▁Rac 71548
▁sounded 71545
▁historically 71544
▁Linda 71535
▁ugly 71528
stan 71519
▁vib 71515
ellar 71513
▁Atl 71512
lements 71509
▁importantly 71500
▁Eff 71497
▁ling 71492
▁slavery 71489
▁slide 71467
▁aiming 71464
▁cops 71461
▁cater 71459
ductive 71456
▁SC 71446
▁Bobby 71427
▁sections 71409
▁Native 71379
▁Prosecutors 71361
▁ratio 71358
▁Golf 71355
▁Bark 71312
▁refuge 71303
▁sung 71300
▁invite 71295
▁300,000 71248
▁extremist 71243
▁musicians 71239
rapped 71217
amped 71202
▁answ 71155
▁satisfied 71135
▁shout 71135
▁advocacy 71133
▁20s 71131
▁Design 71119
▁Alice 71118
▁jumping 71113
▁pard 71107
▁transformed 71096
▁Sor 71053
▁financially 71053
otto 71047
▁Lim 71041
▁Nar 71036
▁kills 71031
▁privile 71030
heastern 71016
▁colleges 71016
▁0.5 71015
▁discl 71006
incess 71004
▁rehab 70997
▁Brom 70994
ambers 70979
▁chic 70979
MS 70978
▁NE 70954
▁Prom 70954
▁dash 70943
▁willingness 70937
▁reader 70931
▁Mountain 70907
▁Hop 70883
▁partial 70877
▁Mak 70860
▁engines 70858
▁fitting 70857
▁arranged 70846
▁surpass 70834
▁Viol 70833
eut 70824
▁Isis 70821
otive 70800
iances 70796
▁bic 70795
rene 70779
▁climbing 70764
eor 70755
▁Leonard 70753
houses 70724
icting 70721
resa 70720
lining 70718
keys 70694
-inch 70674
ishop 70668
▁Tier 70658
▁Moss 70647
▁Commerce 70629
▁stunned 70625
▁sake 70597
▁themed 70578
▁twins 70577
▁US$ 70528
▁budgets 70524
▁Gem 70506
▁disclose 70500
oded 70492
▁Islamist 70479
▁notorious 70463
▁Dim 70453
▁rh 70449
▁complications 70443
▁Joel 70428
▁Catherine 70423
▁Gib 70399
▁Glenn 70394
iments 70385
▁pave 70385
▁Across 70381
▁Rab 70362
▁Saud 70349
▁Franklin 70338
▁monument 70331
▁phil 70328
▁shorter 70322
▁Political 70314
▁Craw 70295
▁Self 70294
▁4.5 70292
▁25-year 70272
▁dot 70272
▁2030 70270
▁confronted 70267
▁contam 70257
lights 70253
▁Minneapolis 70247
▁Fame 70240
▁shifting 70235
▁hed 70210
▁Iceland 70209
▁abuses 70199
▁Beth 70193
▁Thai 70191
▁defenders 70186
▁bay 70185
▁perception 70162
▁Everybody 70150
▁Moham 70144
▁Angels 70141
▁liter 70129
▁rides 70129
▁Dut 70128
▁fundra 70102
▁inhab 70093
▁Ott 70070
▁jam 70063
▁Thrones 70054
▁farmer 70053
osen 70051
▁hunger 70049
▁bother 70044
▁closures 70044
▁cargo 70034
▁webs 70013
▁produces 70010
▁freeze 69983
▁Battle 69978
▁2.3 69970
▁Pand 69945
uffed 69943
lessness 69932
▁Pool 69928
▁Burns 69918
▁Help 69914
▁publishing 69903
▁rational 69895
jud 69888
▁Maxwell 69874
▁throat 69864
▁Vo 69854
▁Lev 69848
▁quote 69848
▁guilt 69847
▁logo 69845
▁Butt 69842
▁weighed 69837
▁determin 69826
▁feedback 69824
bum 69811
▁bipartisan 69786
▁curren 69786
▁125 69781
▁grace 69760
▁directive 69745
▁Orig 69739
▁Tonight 69732
▁boasts 69730
▁Norwegian 69723
▁1985 69721
▁AB 69718
▁Contin 69710
▁BR 69704
▁18-year 69698
▁endured 69695
▁mice 69689
▁scream 69688
▁upd 69688
▁tropical 69680
▁garage 69679
rative 69676
offs 69665
▁gaps 69652
▁Dennis 69649
▁parked 69649
▁abund 69641
▁CD 69631
▁Industry 69626
▁Pak 69621
inces 69619
▁greenhouse 69616
▁mour 69575
▁delegates 69533
▁nurs 69521
▁contributing 69517
OA 69500
▁unse 69495
▁ancest 69493
▁Tell 69480
▁Mohamed 69476
▁wrap 69468
▁Players 69464
▁Sound 69459
▁exclusively 69453
▁6,000 69452
▁Mull 69445
▁waist 69444
▁advis 69418
▁SUV 69394
rawling 69385
▁counterparts 69385
▁proble 69383
oyal 69354
▁produc 69331
▁canv 69327
▁Stokes 69313
▁teammate 69306
▁Dundee 69293
▁divid 69287
▁trave 69285
▁delivers 69279
▁conclude 69274
▁Investment 69258
▁Relations 69257
▁diplomats 69248
▁ripped 69214
▁Strictly 69213
▁engineers 69211
▁runway 69207
▁branches 69205
▁roy 69205
gether 69201
▁minorities 69192
▁testified 69189
▁syndrome 69175
▁Stakes 69160
▁wand 69150
▁developer 69135
yright 69090
▁costly 69079
▁beings 69077
agger 69068
ulates 69068
▁advisory 69066
▁Gran 69063
▁adoption 69044
▁circuit 69043
child 69042
▁participating 69032
▁T. 69019
▁listened 69019
▁Treaty 69009
▁Nixon 69007
▁speeds 69006
A. 68998
▁Lennon 68989
▁powder 68984
▁tense 68981
▁Valent 68950
▁Maine 68932
▁Representatives 68911
▁touchdowns 68899
▁flexibility 68892
▁hatred 68885
uther 68880
▁foster 68874
▁Brother 68861
keeper 68840
▁Mobile 68826
▁Sem 68812
▁skilled 68812
▁gesture 68795
▁deleg 68790
▁epid 68785
▁switched 68782
▁Access 68763
▁tire 68756
▁dirt 68740
▁recount 68730
▁salaries 68726
ctic 68694
▁suggestions 68688
▁Drive 68669
▁Critics 68666
▁glam 68664
▁scramb 68663
▁IMF 68660
▁protocols 68657
▁Wenger 68649
▁Lar 68647
▁Ellis 68644
▁seiz 68641
urers 68637
▁achieving 68619
ructure 68618
ulin 68618
▁bounce 68611
▁incon 68602
▁creator 68597
▁25,000 68596
-12 68594
▁fuels 68590
▁Darren 68586
▁stead 68577
▁Trafford 68574
▁disch 68573
▁adjusted 68572
▁glasses 68565
▁neur 68552
▁solic 68552
▁utterly 68542
▁spirits 68539
▁17-year 68535
▁calories 68521
▁pel 68517
ivic 68516
uros 68514
▁Representative 68506
▁Sid 68499
▁Currently 68491
▁suitable 68481
▁quo 68473
▁stranded 68472
▁packages 68462
arms 68459
▁midst 68428
▁brains 68426
▁Wag 68415
▁nest 68414
▁inters 68412
▁unst 68371
▁embraced 68352
▁lending 68350
▁appoint 68346
▁sophisticated 68346
▁Chair 68335
▁Stanford 68323
▁fond 68273
▁NAS 68268
▁arguably 68211
▁failures 68203
▁Digital 68201
▁Mug 68199
itchen 68181
▁tracked 68180
▁Youth 68163
▁description 68159
▁bands 68138
▁securing 68113
▁Raiders 68105
▁printed 68096
▁searched 68065
▁obt 68038
▁ecosystem 68035
▁corrid 68022
auc 68014
▁cardi 68011
linary 68006
▁Samuel 67999
▁erupted 67989
▁boundaries 67986
▁Leo 67982
▁albeit 67976
▁greet 67973
▁shoe 67961
▁fluid 67957
▁reinfor 67950
▁brush 67942
▁supplement 67941
▁expose 67925
▁smiling 67919
▁enhanced 67906
▁combine 67902
▁sizes 67901
▁apartments 67899
▁Natural 67891
▁Gove 67884
vised 67879
▁Celebrity 67876
▁Zuckerberg 67821
▁Clay 67812
▁suburban 67790
▁executed 67753
▁Consumer 67748
▁CBD 67741
▁expectation 67739
▁Model 67737
onde 67731
▁artistic 67723
▁algorith 67698
▁jaw 67686
▁dug 67685
▁Karl 67683
▁parad 67681
▁Vermont 67680
▁exploit 67670
▁Pant 67668
▁19-year 67655
▁obligations 67655
urry 67649
Ne 67641
▁panels 67639
▁crops 67632
▁leaning 67619
▁Owen 67613
▁collecting 67612
▁cruc 67609
▁endorsed 67604
uire 67594
▁backdrop 67591
▁Lav 67573
usive 67571
▁proving 67570
iverse 67566
▁respiratory 67554
yon 67544
ript 67525
▁laying 67525
▁disadvant 67524
▁Prior 67519
▁sponsored 67515
▁Gian 67510
▁Command 67482
▁Forum 67453
▁sentencing 67445
▁mysterious 67439
▁flower 67436
▁wings 67432
▁Aven 67430
▁obligation 67425
▁Link 67407
▁stored 67400
▁Going 67399
▁drown 67397
▁safeguard 67395
orig 67393
▁irrit 67377
▁IB 67347
▁SD 67343
abies 67334
▁Rooney 67318
▁fict 67312
▁advers 67311
▁Sent 67306
▁Kumar 67304
▁lethal 67297
umph 67295
▁Order 67278
uously 67273
▁countless 67263
▁fixture 67242
▁Die 67228
▁Lanka 67228
▁voluntary 67215
athan 67214
▁booking 67209
wall 67208
VP 67197
▁Houth 67195
▁presentation 67194
▁Amid 67183
▁stew 67182
isure 67179
▁stranger 67173
▁adaptation 67172
▁Ches 67168
▁frustrating 67168
▁introducing 67166
▁settings 67148
▁Ib 67119
▁merger 67112
▁displaced 67097
▁WhatsApp 67081
▁relied 67081
▁banning 67074
▁YORK 67063
▁risky 67060
▁1970 67044
▁laughed 67040
▁doubles 67029
▁Rodriguez 67019
▁Due 67015
▁Military 67012
▁Century 67009
▁competitions 67008
▁innoc 67002
PP 66995
▁terrifying 66981
▁AG 66977
▁precise 66974
itutes 66972
▁1950s 66972
▁weekends 66958
▁ineff 66946
▁functions 66945
▁Grey 66925
▁Hitler 66908
▁Vatican 66905
▁physic 66902
▁divisions 66895
▁Ped 66876
▁revised 66868
▁suite 66862
▁Kenny 66859
▁Train 66859
▁broadc 66853
istrates 66843
▁indul 66841
800 66805
▁separat 66802
▁speeches 66801
▁NR 66794
▁Halloween 66781
▁declining 66781
▁betting 66774
▁integrated 66737
▁chore 66735
▁turnout 66723
▁Saf 66721
▁restrain 66718
▁Yankees 66717
▁Joint 66715
▁Kyr 66700
▁topics 66690
▁Manager 66683
▁corporations 66678
▁hedge 66676
▁upgrade 66665
▁voiced 66659
▁drift 66650
▁broadly 66648
▁broker 66646
▁intends 66644
robe 66642
▁80s 66638
▁sticking 66635
▁stripped 66619
▁emphasis 66588
▁lockdowns 66572
▁NI 66556
ipper 66555
▁Stri 66555
▁instructions 66532
▁Racing 66522
▁Fast 66515
▁Pitt 66501
▁audit 66496
▁Environmental 66486
▁MailOnline 66460
▁controlling 66456
▁masc 66454
▁Highway 66437
▁abrupt 66437
▁flip 66437
▁snapped 66423
▁shooter 66421
▁motivation 66414
▁Thanksgiving 66412
ivery 66411
▁maxim 66398
▁Capt 66397
▁Magic 66387
▁Singer 66380
▁default 66371
▁Solskjaer 66364
onnie 66355
▁manages 66353
▁Salv 66351
▁entrepreneur 66321
▁Ivan 66317
▁hammer 66310
▁poorly 66300
awi 66283
▁shortages 66281
gging 66275
▁slowed 66264
▁advances 66260
▁diplomat 66246
apolis 66228
▁median 66185
erals 66173
aware 66148
▁consequence 66148
bird 66146
▁Legal 66125
▁Save 66121
▁limiting 66109
▁MI 66098
▁displays 66074
▁councill 66068
▁takeover 66064
▁deposit 66063
▁Scient 66058
agher 66051
▁1975 66049
ahan 66038
.com.au 66024
▁soup 66018
▁premature 66014
perform 65994
▁disappear 65992
istically 65984
▁empt 65983
▁nationalist 65980
▁navy 65975
atural 65959
▁strategist 65953
ordable 65951
▁Trudeau 65942
▁searches 65926
▁1,3 65917
▁paramed 65910
▁wary 65890
▁blew 65836
▁crisp 65816
▁disappointment 65797
▁twenty 65777
▁Kle 65772
▁Making 65755
▁Madison 65735
▁Brendan 65726
▁productive 65714
▁basket 65701
▁12th 65697
▁manufacturer 65697
▁anthem 65689
▁bedrooms 65664
▁rivers 65663
▁admitting 65660
▁Blood 65659
▁pronounced 65656
ocol 65648
▁fier 65644
▁Coalition 65641
acre 65626
▁dynam 65622
▁quad 65617
▁troub 65616
▁Schools 65614
▁persuade 65611
▁Bott 65609
▁layers 65608
▁identical 65607
▁margins 65602
▁Ax 65577
▁database 65576
▁reconst 65569
▁pricing 65557
▁QC 65516
▁churches 65499
▁tricky 65495
▁tipped 65488
▁prayer 65486
▁pets 65485
▁scient 65478
▁productivity 65477
▁angle 65475
▁pork 65472
▁Obamacare 65467
ennis 65458
▁regards 65444
▁disputes 65429
uum 65411
▁Village 65405
▁entr 65404
▁Wait 65394
▁spik 65392
▁Mead 65391
▁enabled 65390
esome 65378
▁® 65371
▁thread 65338
undred 65334
sche 65332
▁1000 65325
▁chiefs 65301
▁Hopefully 65292
▁Someone 65286
▁Tele 65262
▁Sally 65257
▁tattoo 65249
▁essay 65225
▁chasing 65222
▁Gabriel 65221
ahu 65210
▁Norman 65210
▁Esc 65195
▁obv 65190
▁alternatives 65189
▁Operation 65187
▁Init 65185
▁opposing 65183
▁leap 65181
▁lovers 65178
▁disagree 65161
▁commissioned 65159
▁legendary 65155
▁header 65149
▁steam 65148
▁Hob 65143
uzz 65137
▁Pierre 65136
RES 65122
▁influenced 65114
▁subsidies 65099
▁Geoff 65096
▁Latino 65089
▁robbery 65078
▁awaiting 65076
▁Kenn 65074
▁Miche 65073
▁G. 65068
▁recruitment 65063
▁Windsor 65050
▁nail 65050
▁wherever 65049
▁disturbing 65031
▁footballer 65029
▁Midlands 65016
▁threatens 65016
▁treats 65016
▁workout 65005
▁concentration 64974
▁Hind 64920
▁bene 64894
erto 64893
▁apologise 64883
▁hint 64879
▁declaring 64860
▁identifying 64834
▁Number 64819
▁bubb 64802
▁weaker 64797
▁graphic 64791
ppling 64790
▁paintings 64759
IE 64744
▁infant 64744
▁assisted 64733
brook 64730
▁defer 64724
▁surprisingly 64711
▁cute 64706
▁Vin 64691
▁Better 64650
▁Barcl 64641
▁smashed 64637
▁Juventus 64636
▁renowned 64617
ulum 64613
▁21-year 64612
▁Rescue 64612
hyd 64604
iciary 64602
▁texts 64598
▁incomes 64593
orney 64587
▁gif 64581
▁Soft 64579
asio 64574
poken 64544
▁brib 64544
▁misin 64530
rix 64526
▁Sche 64512
▁Brandon 64505
▁loyalty 64505
▁Mario 64484
C. 64476
▁outlined 64466
▁Lampard 64465
▁Jackie 64460
▁Bannon 64455
▁lighting 64454
▁tariff 64448
▁photograp 64445
▁adverse 64430
quet 64429
▁prescription 64428
▁lied 64424
▁leagues 64414
▁lyrics 64398
▁Newsom 64394
▁gambling 64374
regation 64370
▁2.7 64370
▁indicates 64363
▁Booker 64360
oken 64355
▁SU 64347
▁colonial 64326
▁substitute 64314
ingu 64309
▁Hell 64306
▁recru 64303
▁Entertainment 64299
▁Sug 64281
riages 64278
oga 64256
= 64254
▁credibility 64248
▁Canad 64234
▁poet 64221
▁Buy 64214
▁Andrea 64186
▁kits 64186
▁Interior 64172
ggy 64159
▁editorial 64150
▁oral 64145
▁Ministers 64139
▁Beckham 64138
▁secrets 64134
▁firef 64133
▁biological 64120
▁theaters 64120
▁Mosul 64119
▁reflection 64111
▁Pret 64107
▁Cowboys 64103
▁accent 64099
▁stig 64096
▁Ole 64089
▁Fauci 64085
▁Cart 64075
▁Nicholas 64075
▁Towns 64068
▁Romney 64035
▁components 64029
▁confrontation 64025
▁Arnold 64023
rition 64020
▁Building 64013
rington 64012
▁unfortunate 64008
alid 64007
▁Joy 64007
▁empire 64004
▁ferry 64000
▁locks 63997
▁Organisation 63994
▁17th 63993
▁rings 63964
itzer 63922
▁Ellen 63922
mund 63912
▁hazard 63909
▁Aussie 63895
▁Wade 63894
▁respondents 63891
▁Lt 63884
▁obser 63881
▁refusal 63865
&T 63849
▁viable 63847
▁prox 63844
▁travelers 63842
▁Melania 63840
▁misleading 63835
icon 63832
▁halted 63818
▁tends 63806
▁breed 63792
▁Clippers 63788
▁memorable 63781
▁1982 63772
▁livest 63769
▁bowling 63760
▁Medicaid 63757
▁subtle 63741
▁brut 63736
▁sacrifice 63731
▁Williamson 63715
▁forec 63708
▁Liver 63707
urse 63700
▁Christians 63680
▁stiff 63668
▁Certain 63659
▁1983 63650
▁frontline 63650
▁messaging 63646
▁Hannah 63640
▁Desp 63637
▁dominate 63615
▁copies 63605
▁wondered 63595
▁Columb 63594
▁15-year 63581
iaz 63574
▁Working 63559
yen 63558
▁enthusiasm 63543
▁bund 63529
▁watches 63526
▁Eventually 63515
▁Blu 63489
▁Therefore 63484
▁1981 63475
▁glimpse 63465
▁gard 63463
▁1968 63460
▁stal 63455
▁interpre 63454
▁imagined 63451
▁opioid 63445
▁availability 63443
▁dub 63443
quez 63440
▁manifesto 63440
▁batting 63435
▁AU 63431
pects 63397
▁zoo 63396
ouri 63395
▁curve 63389
▁Carrie 63380
▁exercises 63374
▁BM 63371
▁24-year 63362
▁McE 63361
▁olive 63361
▁presum 63360
▁Stein 63356
▁Olivia 63343
▁Flight 63342
▁clad 63339
▁Heathrow 63333
▁Beck 63327
▁Nam 63323
loe 63315
▁Aleppo 63305
▁lens 63300
▁haun 63294
▁meantime 63291
▁rider 63287
▁Kill 63284
▁13th 63262
▁Wonder 63240
▁urgency 63236
▁genre 63226
engu 63211
▁nightclub 63209
▁disproportion 63195
▁unin 63177
▁supreme 63176
▁synt 63163
▁Empire 63162
▁debts 63151
▁ware 63146
▁welcoming 63143
▁moist 63136
▁Connecticut 63129
▁hij 63120
▁traders 63107
▁Body 63087
▁Jets 63080
brid 63079
▁2025 63075
▁inspiring 63074
iph 63072
▁Bachel 63042
▁documented 63042
▁expressing 63042
▁Bryan 63037
▁laptop 63036
▁Prix 63032
▁accidents 63025
▁forming 63007
▁Store 63001
▁griev 63001
▁holders 62987
▁patience 62975
▁integr 62972
annel 62968
hamed 62966
▁RBI 62965
▁Bun 62955
▁interaction 62944
▁Cornwall 62942
▁Leaders 62922
earchers 62920
▁delegation 62920
▁submar 62914
▁Wilder 62897
▁Fish 62895
▁forests 62875
issa 62870
▁Oscars 62869
▁wickets 62853
▁balcon 62847
▁tracing 62846
ickets 62840
▁Frances 62835
▁attributed 62831
▁facilit 62821
▁Sox 62812
▁Armed 62796
▁Porter 62769
ovich 62756
▁Manuel 62748
▁delicious 62739
▁laboratory 62714
▁clause 62701
▁swift 62700
▁Megan 62694
▁Sum 62686
▁22-year 62671
▁helm 62669
▁9/11 62667
▁Rory 62664
▁astron 62662
▁championships 62650
▁Teen 62644
▁hometown 62644
▁ordering 62638
▁Fried 62637
▁Ny 62628
▁ICE 62625
▁unn 62625
iggs 62609
▁Getting 62588
▁pensions 62570
▁smartphones 62546
▁Benn 62534
▁medicines 62521
▁apologised 62492
▁endors 62491
▁accur 62467
▁Logan 62450
▁priest 62450
▁reckless 62448
holder 62442
▁Abdul 62440
▁Adrian 62435
▁Proper 62429
▁wrongdoing 62417
vard 62406
▁dairy 62405
ventions 62401
▁bureau 62397
theless 62379
▁cartoon 62369
▁Seahawks 62366
▁90s 62362
▁Universal 62354
▁blend 62350
▁lacked 62347
▁Chand 62346
▁wellbeing 62346
atoes 62339
IDS 62332
▁integ 62329
urring 62323
▁Dancing 62317
▁Alzheimer 62315
▁mortality 62313
▁trash 62309
5pm 62307
▁nominations 62307
▁spill 62305
▁dresses 62301
▁echo 62294
usters 62292
▁Silicon 62288
▁charter 62276
gment 62269
▁denying 62262
▁protocol 62261
▁Hull 62258
▁Sciences 62230
▁applaud 62228
▁Xbox 62226
▁Sym 62222
▁entrepreneurs 62207
▁Monica 62204
▁Bros 62199
otte 62186
▁vehic 62158
▁nasty 62152
▁learnt 62151
▁taxpayer 62150
▁vul 62141
-mile 62129
▁Corps 62111
▁founding 62108
▁duck 62107
▁Formula 62101
▁Premiership 62077
▁visitor 62071
▁enh 62068
▁hamp 62065
▁commentary 62062
▁0.3 62052
▁Root 62040
▁Indones 62030
▁remembers 62020
▁instances 62018
▁Danish 62015
▁Creek 61992
bourg 61979
▁predomin 61972
▁spac 61969
▁warehouse 61959
▁nuts 61953
▁Patel 61946
▁wis 61939
▁confidential 61931
▁Vote 61913
▁forthcoming 61899
▁Marin 61882
▁backb 61864
▁Prest 61845
▁True 61823
▁Kens 61820
▁counterpart 61807
▁Shan 61786
▁amongst 61781
arians 61776
▁d' 61750
▁Syd 61747
▁cultiv 61730
owa 61725
▁Plat 61723
▁committees 61714
▁dealers 61712
▁Watford 61711
▁Neigh 61683
▁Reports 61679
▁commer 61662
▁Reynolds 61653
▁pockets 61651
▁Stoke 61648
▁suck 61648
▁Judiciary 61647
oppers 61637
▁exploration 61633
▁cared 61623
▁Assistant 61618
itcher 61616
ilty 61612
▁trap 61609
▁permanently 61597
▁250,000 61578
▁electrical 61578
▁Remember 61555
▁themes 61542
▁defendants 61537
▁Sale 61534
incial 61512
▁Beverly 61509
▁eased 61507
erte 61502
▁1969 61487
abeth 61484
▁classroom 61482
▁shorts 61477
isan 61474
▁Ashes 61470
▁refers 61466
▁sheep 61463
abbing 61443
alysis 61442
▁Dh 61439
▁fortun 61437
▁horn 61434
▁Vincent 61427
▁Airways 61415
▁Broncos 61410
▁Mirror 61394
▁honestly 61390
▁fallout 61379
▁beans 61370
▁trig 61362
▁mature 61357
▁swall 61352
▁brutality 61351
▁lips 61350
▁mush 61349
▁extradition 61306
▁acceptance 61304
▁occurs 61299
▁unhappy 61290
▁Azerbai 61288
▁furn 61284
▁exchanges 61272
▁architecture 61261
▁NHL 61256
▁Ivanka 61253
▁elimin 61249
▁salad 61238
▁heroin 61219
▁Salman 61212
▁pitched 61210
uffle 61209
▁extremists 61209
▁Agu 61201
▁Simp 61199
▁2.6 61195
▁70s 61187
▁burns 61184
▁Carroll 61169
▁surged 61155
▁mixture 61152
▁plun 61144
▁shouted 61130
▁doping 61124
rolog 61123
▁interactions 61122
▁Manafort 61113
▁Butler 61107
▁accountability 61107
▁conting 61107
▁Curtis 61102
▁ECB 61094
anas 61073
▁ethical 61070
▁ethics 61066
▁traumatic 61064
ppo 61044
▁barred 61035
▁utter 61027
ensity 61019
▁nutrition 61010
▁/PRNewswire/ 61009
▁catastrophic 60990
▁WW 60986
▁lacking 60985
auer 60981
▁PPE 60974
▁Thor 60964
▁Pod 60960
▁ditch 60959
▁sadd 60958
▁catches 60946
▁fragile 60931
▁bilateral 60928
▁mobility 60928
▁rolls 60926
▁737 60924
boards 60910
▁noon 60907
▁Belarus 60903
▁Legisl 60901
▁carriers 60895
▁hybrid 60892
▁chol 60879
▁Presidential 60869
▁Treas 60856
▁Doctor 60855
▁ideology 60855
▁decides 60853
▁pale 60843
▁flex 60824
▁dive 60822
▁burgl 60818
▁Mes 60812
ocide 60802
▁sensible 60783
aments 60778
▁costume 60764
▁neat 60756
▁Companies 60754
▁compuls 60754
▁SEC 60752
enson 60746
▁seaf 60740
▁Martinez 60739
▁invitation 60738
▁Independ 60719
enna 60702
▁viruses 60700
aron 60695
▁lawmaker 60685
athon 60683
▁Somalia 60679
▁prepares 60671
▁veter 60671
▁mounting 60669
ihad 60666
▁completing 60655
▁Arkansas 60637
▁cocktail 60626
▁Ple 60622
▁infamous 60621
▁freely 60608
▁Uganda 60605
On 60604
▁plunged 60598
▁thunder 60598
▁1972 60585
▁Robbie 60576
▁lenders 60571
▁neighbouring 60566
▁Pow 60563
▁plaint 60553
▁assigned 60542
▁presenting 60541
▁deleted 60535
etta 60530
▁clot 60522
▁> 60521
▁wholes 60520
▁shaking 60518
▁sang 60509
▁tide 60506
▁underneath 60505
▁raids 60500
▁recommendation 60494
▁floods 60486
▁Kris 60477
▁pact 60477
▁significance 60459
▁casualties 60444
âs 60440
mir 60436
▁flows 60432
▁grie 60429
▁internationally 60429
▁Trent 60418
▁subjected 60400
▁lawn 60384
▁SpaceX 60383
▁nationally 60380
▁lemon 60374
elligence 60364
▁Something 60353
▁anx 60350
itely 60349
▁Princ 60331
sole 60327
▁uphold 60324
▁rightly 60320
▁stylish 60320
▁washed 60314
▁Yan 60312
▁kilometres 60306
▁seam 60302
▁prejud 60299
▁sie 60295
▁deliveries 60291
▁Naval 60288
▁slower 60276
▁Residents 60275
▁disastrous 60266
▁PGA 60263
▁exams 60247
▁gel 60244
▁sovereignty 60240
▁Bent 60236
▁Kylie 60236
▁Gibson 60235
▁Fraser 60221
▁Congo 60206
▁barrels 60204
▁credited 60204
▁langu 60187
▁Gallery 60186
▁Gen. 60185
▁Cyc 60173
▁Wu 60170
▁lows 60162
iration 60159
▁tenants 60154
▁and/or 60133
▁imposing 60133
▁Hug 60109
comes 60102
▁Buckingham 60088
yang 60084
ouses 60082
istical 60066
▁meteor 60066
ascular 60057
▁glory 60053
▁transaction 60051
mother 60050
cohol 60047
▁1967 59992
▁inequ 59981
uffy 59980
▁Nob 59971
▁denial 59959
▁mun 59944
▁Private 59933
▁170 59919
▁keys 59914
▁Study 59907
▁evolved 59894
▁sensor 59889
▁relies 59885
▁Opera 59880
▁intervene 59874
▁Abs 59870
▁23-year 59854
intend 59846
▁hacking 59845
▁yeah 59838
▁Beyonce 59831
▁journalism 59831
▁produ 59824
andals 59814
▁aest 59813
▁Serbia 59805
ellery 59804
▁performers 59796
▁observers 59793
▁plag 59784
▁Ambassador 59770
▁justices 59740
▁reviewing 59732
▁imagination 59731
▁Jesse 59721
▁Mob 59707
▁component 59707
▁cyn 59707
▁plates 59700
▁humour 59697
▁dumped 59694
▁LGBTQ 59693
▁massacre 59692
▁911 59675
rehens 59674
▁superior 59671
▁absorb 59668
▁Creat 59660
▁crashes 59643
▁Vot 59621
▁asleep 59620
▁sear 59620
▁Record 59608
▁detectives 59601
▁Ferrari 59594
▁appointments 59574
▁Budd 59571
▁processed 59561
▁Match 59558
▁Robertson 59558
▁Assange 59539
▁Drew 59537
▁nominees 59537
▁Liberty 59534
▁Nice 59532
▁curious 59522
▁destinations 59521
▁Nasdaq 59511
▁encoun 59508
▁Conte 59493
▁15th 59486
steps 59477
▁instruments 59453
▁hospitality 59434
llers 59429
▁Oak 59420
▁echoed 59404
fires 59398
▁Rwanda 59395
▁sexy 59395
anton 59365
idered 59364
vak 59355
▁Tol 59343
olen 59338
▁Yesterday 59331
▁reacted 59329
▁assessed 59318
▁exacerb 59317
▁flies 59310
▁medals 59294
▁sheets 59291
▁1.9 59286
▁lining 59282
▁indoors 59270
▁intercept 59265
▁literature 59264
▁helicop 59248
▁palace 59245
▁1976 59234
▁prone 59232
▁contempl 59228
whel 59223
▁Curry 59211
iciency 59198
▁dividend 59196
▁promin 59194
▁Hamp 59188
▁wond 59183
▁NCAA 59175
▁max 59167
▁Miliband 59146
▁boosted 59135
▁consumed 59133
▁1973 59131
▁= 59130
▁elaborate 59128
▁drain 59125
piring 59124
▁travels 59107
▁appetite 59103
▁negotiated 59095
▁piano 59092
▁attitudes 59075
▁Joyce 59068
▁Cord 59065
▁violating 59054
▁beneficial 59043
▁vine 59036
▁announces 59035
▁ballistic 59031
▁recyc 59022
▁languages 59019
rete 59013
▁seasonal 58995
▁anchor 58988
▁frankly 58988
▁jumps 58981
▁neighborhoods 58978
▁admire 58962
▁judged 58960
▁16th 58959
,900 58958
rawn 58956
▁26-year 58955
▁Guine 58952
▁troubles 58940
▁prisoner 58938
▁adapted 58926
▁keeper 58923
▁Target 58903
▁justified 58902
▁newborn 58884
▁magnitude 58870
ellig 58854
▁separation 58852
▁Investors 58848
▁Christine 58830
▁critically 58822
▁respects 58815
▁proves 58810
▁shelves 58805
irling 58800
▁eyed 58797
▁Viet 58793
▁Urban 58792
▁lucrative 58782
▁autonomous 58774
▁embarrass 58769
▁campaigners 58757
▁borrowing 58748
orus 58743
▁Wend 58742
▁Immigration 58741
▁ridic 58727
▁corners 58718
▁Nike 58700
▁participated 58698
▁directions 58690
▁Tillerson 58684
▁scam 58679
▁Analy 58676
▁Milwaukee 58665
▁Davidson 58664
weather 58657
▁achievements 58650
▁McN 58647
axy 58640
▁pharmaceutical 58639
▁genius 58637
▁recipes 58630
▁Index 58621
▁Ern 58599
▁handing 58589
▁disclosure 58588
▁robots 58588
▁16-year 58582
▁Origin 58576
▁unsuccess 58565
▁categ 58564
overy 58563
▁Salt 58560
▁Petro 58554
▁Tod 58550
▁sadly 58545
istle 58539
▁Phys 58528
▁accidentally 58524
▁affection 58522
▁thriller 58517
▁humili 58516
ortions 58506
▁Romania 58505
▁challeng 58491
craft 58490
▁fascinating 58480
▁conclusions 58457
ulus 58449
▁1st 58445
▁ERA 58439
▁Jinping 58420
▁electorate 58419
▁contested 58409
▁F1 58406
▁N.Y. 58399
screen 58398
▁Istanbul 58388
▁Nevertheless 58386
▁surveyed 58382
▁intentions 58380
▁shine 58379
▁Geneva 58359
eria 58357
▁Europeans 58349
▁stunt 58339
leum 58337
▁abusive 58308
▁Palest 58296
▁Crit 58281
▁salmon 58278
▁enterpr 58276
▁Industrial 58274
▁imported 58258
▁swiftly 58255
▁advisor 58252
assy 58244
▁Venice 58240
▁6.5 58234
▁Hend 58234
ourke 58233
▁aging 58219
▁caf 58209
▁tackles 58207
▁costing 58185
▁Congressional 58169
▁securities 58165
▁Parents 58158
▁Sharon 58152
▁rainfall 58146
▁Citizens 58145
▁urges 58145
▁poised 58139
▁Markets 58138
▁refuses 58130
▁Victory 58111
leted 58104
▁warr 58104
▁condem 58088
▁protesting 58080
▁Securities 58064
▁bride 58060
▁wished 58040
▁Bournemouth 58035
▁surveys 58034
▁schol 58019
▁legitim 58016
▁Housing 58014
▁elig 58006
▁leverage 57996
▁supermarkets 57995
▁Mission 57986
▁Baghdad 57979
▁Kazakhstan 57972
▁Retail 57972
▁circum 57952
▁plumm 57941
▁quarterly 57927
fol 57920
▁knees 57912
▁skull 57910
▁dense 57900
▁captioned 57885
▁slowdown 57874
▁recommends 57858
▁Holocaust 57855
▁Rd 57843
▁Pfizer 57832
▁resh 57825
▁issuing 57817
▁Chloe 57809
▁preval 57803
AND 57797
▁tongue 57796
▁timely 57792
through 57787
▁enterprise 57787
▁Gret 57776
▁convictions 57775
▁terrified 57774
▁illeg 57770
▁provoc 57762
iggins 57761
▁upside 57757
▁confirms 57753
▁coordinator 57747
▁youngsters 57746
▁muscles 57740
iola 57738
▁Burnley 57724
▁Animal 57723
▁Roma 57714
▁deployment 57683
emia 57678
▁outdoors 57677
▁clouds 57669
wealth 57666
▁sticks 57666
▁Finland 57660
▁hardware 57656
▁Stevens 57647
neum 57644
▁Wing 57638
▁cigarette 57632
▁rallied 57630
rison 57628
▁unnamed 57619
▁Pakistani 57611
▁outing 57605
▁blanket 57602
▁regist 57596
▁Psych 57592
▁vague 57587
▁constituency 57583
▁objectives 57583
▁Sier 57578
▁CV 57571
▁Schiff 57568
▁1974 57564
▁blasted 57564
▁stint 57555
▁eventual 57548
rosc 57538
▁Chem 57528
▁trainers 57516
▁Tests 57509
avis 57504
idays 57503
▁hackers 57477
▁wield 57466
▁yen 57460
▁14th 57448
▁recomm 57436
▁Prison 57434
▁spat 57410
▁Hann 57403
osexual 57399
▁imminent 57391
▁lightly 57388
▁milestone 57379
oval 57377
▁slice 57377
▁sunny 57374
urable 57370
t.com 57366
▁contractors 57359
▁Nottingham 57343
▁resumed 57319
▁Jill 57296
▁cement 57289
▁marathon 57287
▁worship 57273
atories 57271
▁sovereign 57250
▁packaging 57219
▁showers 57219
▁accounted 57204
▁detective 57200
▁feminist 57200
▁cried 57196
▁charts 57194
▁wrist 57191
▁kilometers 57170
▁routinely 57148
erers 57134
▁lungs 57122
▁Wildlife 57121
▁Tanz 57113
▁Muhammad 57106
▁injustice 57106
cious 57066
▁courtesy 57029
▁firearms 57029
▁Buff 57017
▁Moy 56996
▁IM 56995
ishers 56991
▁Berg 56976
▁slump 56976
▁suited 56967
▁Cad 56965
▁rubbish 56963
▁revelations 56941
▁blunt 56929
▁Hassan 56924
▁suffers 56907
related 56899
respond 56896
▁attackers 56895
▁unaware 56893
adel 56886
▁animated 56884
▁0.7 56867
▁tweeting 56866
▁gates 56837
▁restruct 56829
▁gangs 56814
▁Cyr 56813
▁yields 56808
▁alleges 56796
▁whistlebl 56792
▁controvers 56791
▁styles 56787
▁eliminated 56783
▁hamstring 56781
▁sympathy 56778
▁download 56772
▁fortunate 56756
▁obsessed 56754
▁supervis 56751
▁stretched 56747
▁wireless 56746
▁chaotic 56741
▁Opposition 56736
▁pitches 56736
▁ScienceDaily 56734
forest 56731
▁Athens 56723
▁tanks 56718
▁Armenia 56706
▁youngster 56699
▁Perez 56694
▁paed 56690
▁Serena 56679
cliffe 56678
▁affiliate 56672
hma 56671
▁greeted 56669
▁experiments 56668
▁disgrace 56663
▁Interest 56645
▁facilitate 56643
astically 56631
▁particles 56631
.30am 56630
▁reserved 56622
▁jersey 56615
▁landsc 56611
▁floating 56606
▁disorders 56605
▁Electric 56599
ortunately 56597
▁maintains 56595
ashion 56576
▁likelihood 56574
▁Pink 56570
▁aggression 56565
▁Barnes 56560
▁OPEC 56559
▁transfers 56554
▁Regional 56550
▁intim 56539
▁Berry 56535
▁strangers 56530
▁evacuation 56516
attled 56504
▁Majority 56484
▁laughs 56483
▁richest 56483
▁absor 56478
▁groc 56470
▁fitted 56458
▁tolerance 56450
ugging 56447
▁collar 56443
▁resilience 56437
▁Ghana 56424
▁ensemble 56400
▁inspector 56391
▁remotely 56391
▁elevated 56385
▁proceeds 56385
▁dissent 56381
▁committing 56368
▁inevitably 56360
▁Colomb 56347
▁healing 56347
▁literary 56337
abin 56319
▁clearing 56315
▁designers 56311
▁uncovered 56309
▁Hogan 56299
▁pursued 56298
▁relying 56290
▁stap 56290
▁authorized 56285
▁recon 56280
▁lobbying 56273
▁Moz 56265
athetic 56261
▁enjoys 56242
▁visas 56238
▁Kier 56213
▁populist 56173
▁O'D 56159
▁Gandhi 56157
▁redund 56145
▁Toy 56135
▁deport 56119
▁Mets 56114
▁sights 56112
▁incumbent 56109
▁Cambod 56103
▁microp 56094
▁Jenkins 56081
▁aggrav 56073
▁monster 56067
▁compiled 56038
▁entit 56029
▁27-year 56021
▁MSP 56019
▁Swed 56013
▁Ibrahim 56012
▁disagre 56011
▁interven 56008
▁intelligent 56002
▁sequence 56000
▁favourites 55993
▁Surrey 55984
▁Churchill 55976
▁Nashville 55971
▁Zika 55966
▁navigate 55964
▁halfway 55960
▁succeeded 55960
▁Thom 55959
▁boycott 55952
▁embarrassing 55951
▁Noah 55946
▁neighboring 55933
▁trousers 55926
▁Cly 55925
▁Pogba 55909
▁bronze 55909
▁Dj 55897
▁Throughout 55896
▁backgrounds 55887
▁Glass 55857
▁televised 55848
▁Wembley 55844
▁kingdom 55839
▁Bach 55838
▁athletic 55824
▁coloured 55815
autions 55810
▁preparations 55810
▁Near 55808
▁garlic 55805
▁paired 55798
▁thigh 55784
▁consulting 55773
▁stabbing 55746
▁heating 55741
▁proclaim 55741
▁3.2 55723
▁Heritage 55720
▁territories 55709
▁certainty 55694
▁consequ 55686
▁outer 55684
▁cliff 55668
▁unlawful 55664
▁150,000 55660
▁pills 55648
▁Additionally 55647
▁Tun 55647
▁underest 55645
▁Balt 55641
▁Indigenous 55635
▁foreigners 55628
▁slave 55625
▁purple 55615
▁1977 55614
▁vaccination 55612
▁cattle 55608
▁rankings 55601
▁attraction 55586
▁novels 55581
▁insuff 55578
▁urgently 55573
roots 55555
▁radiation 55546
▁Thatcher 55545
▁happily 55540
ervative 55525
▁Sergio 55498
▁vitamin 55480
borne 55440
▁Bez 55440
iplom 55432
▁contender 55431
▁Outside 55423
▁skipper 55420
▁fraction 55408
▁extraord 55403
▁performs 55395
▁O'Neill 55393
▁Cele 55375
▁Thr 55373
▁persistent 55372
▁agreeing 55365
▁PAC 55364
aration 55359
▁kidney 55358
▁contenders 55347
▁fatally 55343
▁Customs 55338
▁cups 55333
▁Toyota 55325
▁silly 55323
[...]
